{"version":"1.0","truncation":null,"padding":null,"added_tokens":[{"id":0,"special":true,"content":"[UNK]","single_word":false,"lstrip":false,"rstrip":false,"normalized":false},{"id":1,"special":true,"content":"[CLS]","single_word":false,"lstrip":false,"rstrip":false,"normalized":false},{"id":2,"special":true,"content":"[SEP]","single_word":false,"lstrip":false,"rstrip":false,"normalized":false},{"id":3,"special":true,"content":"[PAD]","single_word":false,"lstrip":false,"rstrip":false,"normalized":false},{"id":4,"special":true,"content":"[MASK]","single_word":false,"lstrip":false,"rstrip":false,"normalized":false}],"normalizer":null,"pre_tokenizer":{"type":"Whitespace"},"post_processor":null,"decoder":null,"model":{"type":"BPE","dropout":null,"unk_token":"[UNK]","continuing_subword_prefix":null,"end_of_word_suffix":null,"fuse_unk":false,"vocab":{"[UNK]":0,"[CLS]":1,"[SEP]":2,"[PAD]":3,"[MASK]":4,"\u0000":5,"\u0001":6,"\u0002":7,"\u0004":8,"\u0005":9,"\b":10,"\u000e":11,"\u000f":12,"\u0017":13,"\u001b":14,"\u001d":15,"\u001f":16,"!":17,"\"":18,"#":19,"$":20,"%":21,"&":22,"'":23,"(":24,")":25,"*":26,"+":27,",":28,"-":29,".":30,"/":31,"0":32,"1":33,"2":34,"3":35,"4":36,"5":37,"6":38,"7":39,"8":40,"9":41,":":42,";":43,"<":44,"=":45,">":46,"?":47,"@":48,"A":49,"B":50,"C":51,"D":52,"E":53,"F":54,"G":55,"H":56,"I":57,"J":58,"K":59,"L":60,"M":61,"N":62,"O":63,"P":64,"Q":65,"R":66,"S":67,"T":68,"U":69,"V":70,"W":71,"X":72,"Y":73,"Z":74,"[":75,"\\":76,"]":77,"^":78,"_":79,"`":80,"a":81,"b":82,"c":83,"d":84,"e":85,"f":86,"g":87,"h":88,"i":89,"j":90,"k":91,"l":92,"m":93,"n":94,"o":95,"p":96,"q":97,"r":98,"s":99,"t":100,"u":101,"v":102,"w":103,"x":104,"y":105,"z":106,"{":107,"|":108,"}":109,"~":110,"":111,"":112,"":113,"":114,"¢":115,"£":116,"¤":117,"¥":118,"¦":119,"§":120,"¨":121,"©":122,"¬":123,"°":124,"±":125,"²":126,"³":127,"´":128,"¶":129,"·":130,"¼":131,"Â":132,"Å":133,"Ç":134,"Ñ":135,"×":136,"ß":137,"ã":138,"å":139,"ç":140,"é":141,"ê":142,"í":143,"ó":144,"ö":145,"÷":146,"ü":147,"ć":148,"ı":149,"ł":150,"ş":151,"Ɋ":152,"˘":153,"˜":154,"Δ":155,"Θ":156,"Λ":157,"Π":158,"Σ":159,"Φ":160,"α":161,"β":162,"γ":163,"δ":164,"ε":165,"ζ":166,"η":167,"θ":168,"ι":169,"λ":170,"π":171,"ρ":172,"φ":173,"ψ":174,"ω":175,"А":176,"Б":177,"Г":178,"Е":179,"З":180,"И":181,"Й":182,"К":183,"М":184,"Н":185,"О":186,"П":187,"Р":188,"С":189,"Т":190,"У":191,"Ь":192,"Ю":193,"Я":194,"а":195,"б":196,"г":197,"д":198,"е":199,"з":200,"и":201,"й":202,"к":203,"л":204,"м":205,"н":206,"о":207,"п":208,"р":209,"с":210,"т":211,"у":212,"ч":213,"ш":214,"ь":215,"ո":216,"ا":217,"ب":218,"ح":219,"ر":220,"س":221,"ل":222,"م":223,"ن":224,"ه":225,"ي":226,"َ":227,"ِ":228,"ّ":229,"ْ":230,"ٰ":231,"ं":232,"ः":233,"ग":234,"च":235,"ज":236,"ण":237,"त":238,"द":239,"ध":240,"न":241,"प":242,"भ":243,"म":244,"य":245,"र":246,"व":247,"श":248,"स":249,"ह":250,"ा":251,"ि":252,"ी":253,"ु":254,"ू":255,"े":256,"ो":257,"्":258,"ॐ":259,"ก":260,"ข":261,"ค":262,"ง":263,"จ":264,"ช":265,"ด":266,"ต":267,"ถ":268,"ท":269,"น":270,"บ":271,"ป":272,"ผ":273,"ฝ":274,"พ":275,"ฟ":276,"ม":277,"ย":278,"ร":279,"ล":280,"ว":281,"ศ":282,"ส":283,"ห":284,"อ":285,"ะ":286,"ั":287,"า":288,"ำ":289,"ิ":290,"ี":291,"ึ":292,"ื":293,"ุ":294,"ู":295,"เ":296,"แ":297,"ใ":298,"ไ":299,"ๆ":300,"็":301,"่":302,"้":303,"​":304,"‐":305,"–":306,"—":307,"―":308,"‘":309,"’":310,"“":311,"”":312,"†":313,"•":314,"‥":315,"…":316,"‬":317,"′":318,"″":319,"※":320,"⁄":321,"⁴":322,"⁵":323,"⁹":324,"⁺":325,"₁":326,"₂":327,"₊":328,"℃":329,"K":330,"Ⅼ":331,"←":332,"↑":333,"→":334,"↓":335,"↖":336,"↗":337,"↘":338,"↙":339,"↲":340,"⇄":341,"⇒":342,"⇔":343,"⇛":344,"⇢":345,"⇨":346,"∀":347,"∈":348,"∑":349,"−":350,"∗":351,"∘":352,"∙":353,"√":354,"∞":355,"∠":356,"∧":357,"∩":358,"∫":359,"∴":360,"∵":361,"∼":362,"∽":363,"≈":364,"≒":365,"≠":366,"≡":367,"≤":368,"≥":369,"≦":370,"≧":371,"⊂":372,"⊃":373,"⊆":374,"⊥":375,"⋀":376,"⋅":377,"⋆":378,"⋮":379,"⋯":380,"⌈":381,"⌉":382,"⌓":383,"⏎":384,"␣":385,"①":386,"②":387,"③":388,"④":389,"⑤":390,"⑥":391,"⑦":392,"⑧":393,"⑨":394,"⑩":395,"─":396,"━":397,"│":398,"┃":399,"┐":400,"└":401,"┘":402,"┬":403,"═":404,"║":405,"╔":406,"╗":407,"╚":408,"╝":409,"╠":410,"╣":411,"╦":412,"╩":413,"╬":414,"▀":415,"▄":416,"█":417,"▌":418,"▐":419,"░":420,"▒":421,"■":422,"□":423,"▲":424,"△":425,"▽":426,"◆":427,"○":428,"◎":429,"●":430,"◯":431,"★":432,"☆":433,"☑":434,"☓":435,"⚪":436,"⚫":437,"✊":438,"✕":439,"✖":440,"✗":441,"✪":442,"✳":443,"❎":444,"➘":445,"➡":446,"⼊":447,"⼤":448,"⼩":449,"⽤":450,"⾏":451,"⾒":452,"、":453,"。":454,"〃":455,"々":456,"〆":457,"〇":458,"「":459,"」":460,"『":461,"』":462,"【":463,"】":464,"〜":465,"ぁ":466,"あ":467,"ぃ":468,"い":469,"ぅ":470,"う":471,"ぇ":472,"え":473,"ぉ":474,"お":475,"か":476,"が":477,"き":478,"ぎ":479,"く":480,"ぐ":481,"け":482,"げ":483,"こ":484,"ご":485,"さ":486,"ざ":487,"し":488,"じ":489,"す":490,"ず":491,"せ":492,"ぜ":493,"そ":494,"ぞ":495,"た":496,"だ":497,"ち":498,"っ":499,"つ":500,"づ":501,"て":502,"で":503,"と":504,"ど":505,"な":506,"に":507,"ぬ":508,"ね":509,"の":510,"は":511,"ば":512,"ぱ":513,"ひ":514,"び":515,"ぴ":516,"ふ":517,"ぶ":518,"ぷ":519,"へ":520,"べ":521,"ぺ":522,"ほ":523,"ぼ":524,"ぽ":525,"ま":526,"み":527,"む":528,"め":529,"も":530,"ゃ":531,"や":532,"ゅ":533,"ゆ":534,"ょ":535,"よ":536,"ら":537,"り":538,"る":539,"れ":540,"ろ":541,"わ":542,"を":543,"ん":544,"゙":545,"゚":546,"゜":547,"ァ":548,"ア":549,"ィ":550,"イ":551,"ゥ":552,"ウ":553,"ェ":554,"エ":555,"ォ":556,"オ":557,"カ":558,"ガ":559,"キ":560,"ギ":561,"ク":562,"グ":563,"ケ":564,"ゲ":565,"コ":566,"ゴ":567,"サ":568,"ザ":569,"シ":570,"ジ":571,"ス":572,"ズ":573,"セ":574,"ゼ":575,"ソ":576,"ゾ":577,"タ":578,"ダ":579,"チ":580,"ッ":581,"ツ":582,"ヅ":583,"テ":584,"デ":585,"ト":586,"ド":587,"ナ":588,"ニ":589,"ヌ":590,"ネ":591,"ノ":592,"ハ":593,"バ":594,"パ":595,"ヒ":596,"ビ":597,"ピ":598,"フ":599,"ブ":600,"プ":601,"ヘ":602,"ベ":603,"ペ":604,"ホ":605,"ボ":606,"ポ":607,"マ":608,"ミ":609,"ム":610,"メ":611,"モ":612,"ャ":613,"ヤ":614,"ュ":615,"ユ":616,"ョ":617,"ヨ":618,"ラ":619,"リ":620,"ル":621,"レ":622,"ロ":623,"ワ":624,"ン":625,"ヴ":626,"ヵ":627,"ヶ":628,"・":629,"ー":630,"ヽ":631,"㎝":632,"一":633,"丁":634,"七":635,"万":636,"丈":637,"三":638,"上":639,"下":640,"不":641,"与":642,"且":643,"世":644,"丘":645,"両":646,"两":647,"並":648,"个":649,"中":650,"串":651,"丸":652,"为":653,"主":654,"丼":655,"久":656,"么":657,"义":658,"之":659,"乗":660,"乘":661,"乙":662,"九":663,"也":664,"乡":665,"乱":666,"亀":667,"了":668,"予":669,"争":670,"事":671,"二":672,"于":673,"互":674,"五":675,"井":676,"些":677,"亜":678,"亡":679,"交":680,"产":681,"京":682,"亭":683,"人":684,"什":685,"仁":686,"今":687,"介":688,"从":689,"仕":690,"他":691,"付":692,"代":693,"令":694,"以":695,"们":696,"仮":697,"仰":698,"仲":699,"件":700,"价":701,"任":702,"份":703,"企":704,"伊":705,"伏":706,"伐":707,"休":708,"优":709,"会":710,"伝":711,"传":712,"估":713,"伴":714,"伸":715,"似":716,"但":717,"位":718,"低":719,"住":720,"佐":721,"佑":722,"体":723,"何":724,"余":725,"佛":726,"作":727,"佬":728,"併":729,"使":730,"例":731,"侍":732,"供":733,"依":734,"価":735,"侧":736,"侵":737,"便":738,"係":739,"俗":740,"保":741,"信":742,"修":743,"俺":744,"倉":745,"個":746,"倍":747,"倒":748,"候":749,"借":750,"値":751,"值":752,"假":753,"偉":754,"偏":755,"做":756,"停":757,"側":758,"偵":759,"偶":760,"偽":761,"傍":762,"備":763,"催":764,"傷":765,"傾":766,"働":767,"像":768,"僕":769,"價":770,"儀":771,"億":772,"償":773,"優":774,"儲":775,"元":776,"兄":777,"充":778,"兆":779,"先":780,"光":781,"克":782,"免":783,"児":784,"入":785,"內":786,"全":787,"八":788,"公":789,"六":790,"共":791,"关":792,"兵":793,"其":794,"具":795,"典":796,"兼":797,"内":798,"円":799,"冊":800,"再":801,"冒":802,"冗":803,"写":804,"冪":805,"冬":806,"决":807,"况":808,"冷":809,"准":810,"凌":811,"凍":812,"减":813,"凛":814,"几":815,"凡":816,"処":817,"凸":818,"凹":819,"出":820,"击":821,"函":822,"刀":823,"刃":824,"分":825,"切":826,"刈":827,"列":828,"则":829,"初":830,"删":831,"判":832,"別":833,"利":834,"别":835,"到":836,"制":837,"刷":838,"券":839,"刺":840,"刻":841,"則":842,"削":843,"前":844,"剣":845,"剥":846,"副":847,"剰":848,"割":849,"創":850,"力":851,"功":852,"加":853,"务":854,"动":855,"助":856,"努":857,"労":858,"効":859,"勇":860,"勉":861,"動":862,"勘":863,"務":864,"勝":865,"勢":866,"勤":867,"勾":868,"包":869,"化":870,"北":871,"匹":872,"区":873,"十":874,"千":875,"升":876,"午":877,"半":878,"卓":879,"協":880,"单":881,"南":882,"単":883,"博":884,"占":885,"卯":886,"印":887,"危":888,"即":889,"却":890,"卵":891,"卿":892,"厄":893,"历":894,"压":895,"厚":896,"原":897,"厨":898,"厳":899,"去":900,"参":901,"又":902,"叉":903,"及":904,"友":905,"双":906,"反":907,"収":908,"发":909,"取":910,"受":911,"变":912,"叙":913,"口":914,"古":915,"句":916,"另":917,"叩":918,"只":919,"可":920,"台":921,"史":922,"右":923,"叶":924,"号":925,"司":926,"各":927,"合":928,"吉":929,"同":930,"名":931,"后":932,"吐":933,"向":934,"君":935,"吟":936,"否":937,"含":938,"吸":939,"吹":940,"吾":941,"呂":942,"告":943,"呢":944,"周":945,"呪":946,"味":947,"呼":948,"命":949,"和":950,"咕":951,"咲":952,"品":953,"响":954,"員":955,"唯":956,"唱":957,"商":958,"問":959,"善":960,"喜":961,"喰":962,"営":963,"嘘":964,"噂":965,"噌":966,"噛":967,"器":968,"四":969,"回":970,"因":971,"団":972,"困":973,"囲":974,"図":975,"围":976,"固":977,"国":978,"图":979,"圏":980,"園":981,"土":982,"圧":983,"在":984,"地":985,"址":986,"坂":987,"均":988,"坊":989,"坦":990,"垂":991,"型":992,"埋":993,"城":994,"域":995,"執":996,"基":997,"堀":998,"堂":999,"報":1000,"場":1001,"堺":1002,"塀":1003,"塊":1004,"塔":1005,"塗":1006,"塞":1007,"塩":1008,"填":1009,"塵":1010,"境":1011,"墓":1012,"増":1013,"增":1014,"壁":1015,"壇":1016,"壊":1017,"士":1018,"声":1019,"壱":1020,"売":1021,"壺":1022,"处":1023,"変":1024,"复":1025,"夏":1026,"外":1027,"多":1028,"夜":1029,"够":1030,"夢":1031,"大":1032,"天":1033,"太":1034,"夫":1035,"央":1036,"失":1037,"头":1038,"夹":1039,"奇":1040,"奏":1041,"套":1042,"奥":1043,"奨":1044,"奪":1045,"奮":1046,"女":1047,"奴":1048,"好":1049,"如":1050,"妙":1051,"妥":1052,"妨":1053,"妹":1054,"姉":1055,"始":1056,"委":1057,"姫":1058,"威":1059,"媒":1060,"嫌":1061,"嬉":1062,"子":1063,"字":1064,"存":1065,"季":1066,"孤":1067,"学":1068,"孩":1069,"孫":1070,"孵":1071,"宅":1072,"宇":1073,"守":1074,"安":1075,"完":1076,"宙":1077,"定":1078,"宛":1079,"宜":1080,"宝":1081,"实":1082,"実":1083,"客":1084,"宣":1085,"室":1086,"宮":1087,"害":1088,"家":1089,"容":1090,"宿":1091,"寄":1092,"密":1093,"富":1094,"寒":1095,"寝":1096,"察":1097,"寧":1098,"審":1099,"寸":1100,"对":1101,"寻":1102,"导":1103,"対":1104,"寿":1105,"封":1106,"専":1107,"射":1108,"将":1109,"尋":1110,"導":1111,"小":1112,"少":1113,"尚":1114,"就":1115,"尺":1116,"尻":1117,"尽":1118,"尾":1119,"局":1120,"居":1121,"屈":1122,"届":1123,"屋":1124,"展":1125,"属":1126,"層":1127,"履":1128,"山":1129,"岐":1130,"岩":1131,"岸":1132,"島":1133,"崎":1134,"崩":1135,"嵌":1136,"嵩":1137,"川":1138,"州":1139,"巡":1140,"巣":1141,"工":1142,"左":1143,"巧":1144,"巨":1145,"差":1146,"己":1147,"已":1148,"巻":1149,"市":1150,"布":1151,"希":1152,"師":1153,"席":1154,"帯":1155,"帰":1156,"帳":1157,"常":1158,"帽":1159,"幂":1160,"幅":1161,"幣":1162,"干":1163,"平":1164,"年":1165,"并":1166,"幸":1167,"幹":1168,"幻":1169,"幼":1170,"幽":1171,"幾":1172,"广":1173,"広":1174,"床":1175,"序":1176,"库":1177,"应":1178,"底":1179,"店":1180,"度":1181,"座":1182,"庫":1183,"庭":1184,"庸":1185,"廃":1186,"廊":1187,"廟":1188,"延":1189,"建":1190,"廻":1191,"开":1192,"弁":1193,"异":1194,"式":1195,"弐":1196,"弓":1197,"引":1198,"弟":1199,"张":1200,"弥":1201,"弦":1202,"弧":1203,"弱":1204,"張":1205,"強":1206,"弾":1207,"归":1208,"当":1209,"录":1210,"彙":1211,"形":1212,"彩":1213,"彫":1214,"影":1215,"役":1216,"彼":1217,"往":1218,"径":1219,"待":1220,"很":1221,"律":1222,"後":1223,"徐":1224,"徒":1225,"従":1226,"得":1227,"從":1228,"御":1229,"復":1230,"循":1231,"微":1232,"徴":1233,"徹":1234,"心":1235,"必":1236,"忆":1237,"忍":1238,"志":1239,"忘":1240,"応":1241,"快":1242,"念":1243,"怒":1244,"怖":1245,"思":1246,"急":1247,"性":1248,"怪":1249,"怯":1250,"总":1251,"恋":1252,"恐":1253,"恒":1254,"息":1255,"悔":1256,"悟":1257,"悩":1258,"悪":1259,"悲":1260,"情":1261,"惇":1262,"惑":1263,"惜":1264,"想":1265,"意":1266,"愚":1267,"愛":1268,"感":1269,"態":1270,"慣":1271,"慮":1272,"憩":1273,"憶":1274,"懸":1275,"成":1276,"我":1277,"戒":1278,"或":1279,"戚":1280,"戦":1281,"戯":1282,"戴":1283,"戸":1284,"戻":1285,"所":1286,"扇":1287,"扉":1288,"手":1289,"才":1290,"打":1291,"払":1292,"执":1293,"扱":1294,"找":1295,"承":1296,"技":1297,"把":1298,"抑":1299,"投":1300,"抗":1301,"折":1302,"抜":1303,"択":1304,"抱":1305,"抵":1306,"押":1307,"抽":1308,"担":1309,"拍":1310,"拒":1311,"拓":1312,"拘":1313,"招":1314,"拝":1315,"拠":1316,"拡":1317,"择":1318,"括":1319,"拼":1320,"拾":1321,"持":1322,"指":1323,"按":1324,"挑":1325,"挙":1326,"挟":1327,"振":1328,"挿":1329,"捉":1330,"捌":1331,"捕":1332,"捗":1333,"捜":1334,"换":1335,"捨":1336,"据":1337,"掃":1338,"授":1339,"掉":1340,"排":1341,"掘":1342,"掛":1343,"採":1344,"探":1345,"接":1346,"控":1347,"推":1348,"掲":1349,"掴":1350,"掻":1351,"揃":1352,"描":1353,"提":1354,"插":1355,"換":1356,"握":1357,"揮":1358,"援":1359,"損":1360,"搜":1361,"搬":1362,"搭":1363,"携":1364,"摂":1365,"摘":1366,"撃":1367,"撤":1368,"播":1369,"撮":1370,"操":1371,"據":1372,"擦":1373,"擬":1374,"擲":1375,"支":1376,"收":1377,"改":1378,"攻":1379,"放":1380,"故":1381,"救":1382,"敗":1383,"教":1384,"敢":1385,"散":1386,"敬":1387,"数":1388,"整":1389,"敵":1390,"敷":1391,"數":1392,"文":1393,"斉":1394,"斑":1395,"斗":1396,"料":1397,"斜":1398,"斥":1399,"斬":1400,"断":1401,"新":1402,"方":1403,"施":1404,"旅":1405,"旋":1406,"族":1407,"旗":1408,"无":1409,"既":1410,"日":1411,"旦":1412,"旧":1413,"旨":1414,"早":1415,"时":1416,"昇":1417,"明":1418,"易":1419,"昔":1420,"星":1421,"映":1422,"昨":1423,"昭":1424,"是":1425,"昼":1426,"時":1427,"普":1428,"景":1429,"晴":1430,"智":1431,"暇":1432,"暑":1433,"暗":1434,"暦":1435,"暫":1436,"暮":1437,"暴":1438,"曇":1439,"曜":1440,"曝":1441,"曰":1442,"曲":1443,"更":1444,"書":1445,"曽":1446,"曾":1447,"替":1448,"最":1449,"會":1450,"月":1451,"有":1452,"服":1453,"朗":1454,"望":1455,"朝":1456,"期":1457,"木":1458,"未":1459,"末":1460,"本":1461,"札":1462,"朱":1463,"朴":1464,"机":1465,"权":1466,"杉":1467,"材":1468,"村":1469,"束":1470,"条":1471,"来":1472,"杭":1473,"杯":1474,"東":1475,"松":1476,"板":1477,"构":1478,"析":1479,"林":1480,"枚":1481,"果":1482,"枝":1483,"枠":1484,"枯":1485,"架":1486,"柄":1487,"某":1488,"染":1489,"柔":1490,"柱":1491,"柳":1492,"柴":1493,"柵":1494,"査":1495,"栄":1496,"标":1497,"树":1498,"校":1499,"株":1500,"样":1501,"核":1502,"根":1503,"格":1504,"桁":1505,"桂":1506,"桃":1507,"案":1508,"桌":1509,"桜":1510,"梅":1511,"梯":1512,"械":1513,"棄":1514,"棒":1515,"棚":1516,"棟":1517,"森":1518,"椅":1519,"植":1520,"検":1521,"業":1522,"極":1523,"楽":1524,"概":1525,"構":1526,"様":1527,"槽":1528,"樋":1529,"標":1530,"模":1531,"権":1532,"横":1533,"樹":1534,"橋":1535,"橙":1536,"機":1537,"檎":1538,"欄":1539,"欠":1540,"次":1541,"欲":1542,"歌":1543,"止":1544,"正":1545,"此":1546,"武":1547,"歩":1548,"歯":1549,"歳":1550,"歴":1551,"死":1552,"殊":1553,"残":1554,"殖":1555,"殲":1556,"殴":1557,"段":1558,"殺":1559,"殻":1560,"殿":1561,"母":1562,"毎":1563,"每":1564,"毒":1565,"比":1566,"氏":1567,"民":1568,"気":1569,"水":1570,"氷":1571,"永":1572,"求":1573,"汎":1574,"汚":1575,"池":1576,"決":1577,"沈":1578,"沖":1579,"没":1580,"沢":1581,"油":1582,"治":1583,"沿":1584,"況":1585,"泉":1586,"泊":1587,"法":1588,"泡":1589,"波":1590,"泥":1591,"注":1592,"泳":1593,"洗":1594,"洞":1595,"津":1596,"洩":1597,"活":1598,"派":1599,"流":1600,"浅":1601,"浮":1602,"浴":1603,"海":1604,"浸":1605,"消":1606,"液":1607,"涼":1608,"深":1609,"混":1610,"添":1611,"清":1612,"渇":1613,"済":1614,"渉":1615,"減":1616,"渡":1617,"渦":1618,"温":1619,"測":1620,"港":1621,"湖":1622,"湯":1623,"満":1624,"源":1625,"準":1626,"溜":1627,"溢":1628,"溶":1629,"滅":1630,"滑":1631,"滝":1632,"满":1633,"滴":1634,"漏":1635,"演":1636,"漱":1637,"漸":1638,"潔":1639,"潜":1640,"潤":1641,"潰":1642,"澄":1643,"濃":1644,"濯":1645,"灘":1646,"火":1647,"灯":1648,"灰":1649,"炉":1650,"炊":1651,"炎":1652,"炮":1653,"点":1654,"為":1655,"烛":1656,"無":1657,"焦":1658,"然":1659,"焼":1660,"煎":1661,"照":1662,"煩":1663,"煮":1664,"熟":1665,"熱":1666,"燃":1667,"燭":1668,"爆":1669,"父":1670,"片":1671,"版":1672,"牌":1673,"牛":1674,"物":1675,"牲":1676,"特":1677,"牽":1678,"犠":1679,"犬":1680,"状":1681,"狂":1682,"狙":1683,"狩":1684,"独":1685,"狭":1686,"狼":1687,"猟":1688,"猫":1689,"献":1690,"猶":1691,"猿":1692,"獄":1693,"獣":1694,"獲":1695,"玄":1696,"率":1697,"玉":1698,"王":1699,"环":1700,"现":1701,"珠":1702,"班":1703,"現":1704,"球":1705,"理":1706,"琴":1707,"璧":1708,"環":1709,"甘":1710,"生":1711,"産":1712,"用":1713,"田":1714,"由":1715,"申":1716,"电":1717,"男":1718,"町":1719,"画":1720,"界":1721,"畑":1722,"留":1723,"略":1724,"番":1725,"異":1726,"畳":1727,"疎":1728,"疏":1729,"疑":1730,"疲":1731,"病":1732,"痒":1733,"痛":1734,"療":1735,"癖":1736,"発":1737,"登":1738,"白":1739,"百":1740,"的":1741,"皆":1742,"皮":1743,"皿":1744,"盆":1745,"益":1746,"盗":1747,"盛":1748,"監":1749,"盤":1750,"目":1751,"直":1752,"相":1753,"盾":1754,"省":1755,"看":1756,"県":1757,"真":1758,"眺":1759,"眼":1760,"着":1761,"瞬":1762,"瞭":1763,"矛":1764,"矢":1765,"知":1766,"矩":1767,"短":1768,"石":1769,"码":1770,"砂":1771,"研":1772,"砕":1773,"破":1774,"硬":1775,"确":1776,"碁":1777,"碑":1778,"碰":1779,"確":1780,"磁":1781,"磯":1782,"礎":1783,"示":1784,"社":1785,"祈":1786,"祖":1787,"神":1788,"祥":1789,"票":1790,"祭":1791,"禁":1792,"福":1793,"离":1794,"秀":1795,"私":1796,"种":1797,"科":1798,"秒":1799,"秘":1800,"秤":1801,"积":1802,"称":1803,"移":1804,"稀":1805,"程":1806,"税":1807,"稚":1808,"種":1809,"稼":1810,"稿":1811,"積":1812,"穫":1813,"穴":1814,"究":1815,"空":1816,"突":1817,"窓":1818,"窟":1819,"立":1820,"竜":1821,"章":1822,"端":1823,"競":1824,"笑":1825,"符":1826,"第":1827,"筆":1828,"等":1829,"筋":1830,"筐":1831,"筒":1832,"答":1833,"策":1834,"箇":1835,"算":1836,"箚":1837,"管":1838,"箱":1839,"節":1840,"範":1841,"築":1842,"篩":1843,"簡":1844,"籍":1845,"米":1846,"类":1847,"粉":1848,"粋":1849,"粒":1850,"粛":1851,"精":1852,"糖":1853,"糞":1854,"糸":1855,"系":1856,"約":1857,"紋":1858,"納":1859,"紐":1860,"純":1861,"紙":1862,"級":1863,"素":1864,"索":1865,"紫":1866,"累":1867,"細":1868,"紹":1869,"終":1870,"組":1871,"経":1872,"結":1873,"絞":1874,"絡":1875,"給":1876,"統":1877,"絵":1878,"絶":1879,"絹":1880,"継":1881,"続":1882,"維":1883,"網":1884,"綺":1885,"綻":1886,"総":1887,"緑":1888,"緒":1889,"線":1890,"締":1891,"編":1892,"緩":1893,"緯":1894,"練":1895,"縁":1896,"縄":1897,"縛":1898,"縦":1899,"縮":1900,"績":1901,"繁":1902,"繋":1903,"織":1904,"繰":1905,"纏":1906,"约":1907,"级":1908,"线":1909,"组":1910,"终":1911,"经":1912,"结":1913,"给":1914,"统":1915,"续":1916,"维":1917,"编":1918,"缩":1919,"缶":1920,"罪":1921,"置":1922,"罰":1923,"羅":1924,"羊":1925,"美":1926,"群":1927,"義":1928,"羽":1929,"翌":1930,"習":1931,"翻":1932,"翼":1933,"老":1934,"考":1935,"者":1936,"耐":1937,"耕":1938,"耗":1939,"耳":1940,"聖":1941,"聞":1942,"聴":1943,"職":1944,"肉":1945,"肝":1946,"肢":1947,"肥":1948,"肩":1949,"肯":1950,"育":1951,"背":1952,"胡":1953,"胴":1954,"能":1955,"脇":1956,"脚":1957,"脱":1958,"脳":1959,"腑":1960,"腕":1961,"腰":1962,"腹":1963,"膨":1964,"膳":1965,"臆":1966,"臨":1967,"自":1968,"臭":1969,"至":1970,"致":1971,"興":1972,"舎":1973,"舐":1974,"舗":1975,"舞":1976,"航":1977,"般":1978,"舶":1979,"船":1980,"良":1981,"色":1982,"节":1983,"芋":1984,"花":1985,"芸":1986,"芽":1987,"苔":1988,"苗":1989,"若":1990,"苦":1991,"英":1992,"苺":1993,"范":1994,"茶":1995,"茹":1996,"草":1997,"荒":1998,"荷":1999,"莫":2000,"获":2001,"菓":2002,"菜":2003,"菱":2004,"落":2005,"葉":2006,"蒸":2007,"蓄":2008,"蓮":2009,"蔵":2010,"薄":2011,"薇":2012,"薔":2013,"薦":2014,"薫":2015,"薬":2016,"藤":2017,"藻":2018,"虚":2019,"虫":2020,"蛇":2021,"蛍":2022,"蛙":2023,"蛮":2024,"蛸":2025,"蜡":2026,"蝉":2027,"蝋":2028,"融":2029,"螺":2030,"蟻":2031,"血":2032,"行":2033,"術":2034,"街":2035,"衛":2036,"衝":2037,"衡":2038,"补":2039,"表":2040,"袋":2041,"被":2042,"裁":2043,"裂":2044,"装":2045,"裏":2046,"裕":2047,"補":2048,"製":2049,"褄":2050,"複":2051,"褒":2052,"襲":2053,"西":2054,"要":2055,"覆":2056,"見":2057,"規":2058,"視":2059,"覗":2060,"覚":2061,"覧":2062,"親":2063,"観":2064,"角":2065,"解":2066,"触":2067,"言":2068,"訂":2069,"計":2070,"討":2071,"訓":2072,"託":2073,"記":2074,"訪":2075,"設":2076,"許":2077,"訳":2078,"註":2079,"証":2080,"評":2081,"詞":2082,"詠":2083,"試":2084,"詩":2085,"詰":2086,"話":2087,"該":2088,"詳":2089,"認":2090,"誕":2091,"誘":2092,"語":2093,"誠":2094,"誤":2095,"説":2096,"読":2097,"誰":2098,"課":2099,"調":2100,"談":2101,"請":2102,"論":2103,"諦":2104,"諭":2105,"諸":2106,"謎":2107,"講":2108,"謝":2109,"識":2110,"譜":2111,"警":2112,"議":2113,"譲":2114,"護":2115,"计":2116,"认":2117,"让":2118,"记":2119,"论":2120,"设":2121,"评":2122,"试":2123,"话":2124,"该":2125,"误":2126,"说":2127,"请":2128,"谢":2129,"谷":2130,"豆":2131,"豊":2132,"象":2133,"豪":2134,"負":2135,"財":2136,"貢":2137,"貧":2138,"貨":2139,"販":2140,"貪":2141,"貫":2142,"責":2143,"貯":2144,"貰":2145,"貴":2146,"買":2147,"貸":2148,"費":2149,"貼":2150,"賃":2151,"賄":2152,"資":2153,"賊":2154,"賞":2155,"賢":2156,"質":2157,"購":2158,"负":2159,"贪":2160,"资":2161,"赤":2162,"走":2163,"起":2164,"超":2165,"越":2166,"趣":2167,"足":2168,"跃":2169,"距":2170,"跡":2171,"跨":2172,"路":2173,"跳":2174,"踊":2175,"踏":2176,"躍":2177,"身":2178,"車":2179,"軌":2180,"軍":2181,"軒":2182,"軟":2183,"転":2184,"軸":2185,"軽":2186,"較":2187,"載":2188,"輪":2189,"輸":2190,"转":2191,"轴":2192,"较":2193,"辑":2194,"输":2195,"辛":2196,"辞":2197,"辱":2198,"边":2199,"辺":2200,"辻":2201,"込":2202,"达":2203,"辿":2204,"迂":2205,"迄":2206,"过":2207,"迎":2208,"运":2209,"近":2210,"返":2211,"还":2212,"这":2213,"进":2214,"远":2215,"连":2216,"述":2217,"迷":2218,"追":2219,"退":2220,"送":2221,"适":2222,"逃":2223,"逆":2224,"选":2225,"透":2226,"逐":2227,"递":2228,"途":2229,"這":2230,"通":2231,"速":2232,"造":2233,"逢":2234,"連":2235,"週":2236,"進":2237,"逸":2238,"逻":2239,"遂":2240,"遅":2241,"遇":2242,"遊":2243,"運":2244,"遍":2245,"過":2246,"道":2247,"達":2248,"違":2249,"遗":2250,"遠":2251,"遡":2252,"適":2253,"遭":2254,"遷":2255,"選":2256,"遺":2257,"避":2258,"還":2259,"那":2260,"邪":2261,"邸":2262,"邻":2263,"郎":2264,"郡":2265,"部":2266,"郭":2267,"郵":2268,"都":2269,"配":2270,"酒":2271,"酥":2272,"酬":2273,"酸":2274,"醜":2275,"釈":2276,"里":2277,"重":2278,"野":2279,"量":2280,"金":2281,"釘":2282,"針":2283,"釣":2284,"鈍":2285,"鈴":2286,"鉄":2287,"鉛":2288,"鉴":2289,"銀":2290,"銅":2291,"銘":2292,"銭":2293,"鋭":2294,"錐":2295,"錬":2296,"錯":2297,"録":2298,"鍋":2299,"鍵":2300,"鎖":2301,"鏡":2302,"针":2303,"钝":2304,"链":2305,"锐":2306,"错":2307,"键":2308,"長":2309,"长":2310,"門":2311,"閉":2312,"開":2313,"閏":2314,"間":2315,"閘":2316,"関":2317,"閥":2318,"閾":2319,"闇":2320,"闘":2321,"问":2322,"间":2323,"队":2324,"阪":2325,"防":2326,"阵":2327,"阻":2328,"降":2329,"限":2330,"院":2331,"陣":2332,"除":2333,"陥":2334,"陰":2335,"陵":2336,"陸":2337,"険":2338,"陽":2339,"隅":2340,"階":2341,"随":2342,"隔":2343,"隙":2344,"際":2345,"障":2346,"隠":2347,"隣":2348,"隨":2349,"隻":2350,"雄":2351,"集":2352,"雇":2353,"雌":2354,"雑":2355,"離":2356,"難":2357,"雨":2358,"雪":2359,"雰":2360,"雲":2361,"零":2362,"雷":2363,"電":2364,"需":2365,"震":2366,"霊":2367,"青":2368,"静":2369,"非":2370,"面":2371,"鞄":2372,"音":2373,"響":2374,"頁":2375,"頂":2376,"頃":2377,"項":2378,"順":2379,"須":2380,"預":2381,"頑":2382,"頓":2383,"領":2384,"頭":2385,"頻":2386,"頼":2387,"題":2388,"額":2389,"顔":2390,"願":2391,"類":2392,"顧":2393,"顶":2394,"项":2395,"顺":2396,"题":2397,"颜":2398,"風":2399,"飛":2400,"食":2401,"飯":2402,"飲":2403,"飴":2404,"飼":2405,"飽":2406,"飾":2407,"餅":2408,"養":2409,"餌":2410,"餘":2411,"館":2412,"饅":2413,"首":2414,"香":2415,"馬":2416,"駄":2417,"駅":2418,"駆":2419,"駐":2420,"駒":2421,"騎":2422,"験":2423,"骸":2424,"高":2425,"髙":2426,"髭":2427,"鬼":2428,"魔":2429,"魚":2430,"鮪":2431,"鱒":2432,"鳥":2433,"鳩":2434,"鳴":2435,"鶏":2436,"鶴":2437,"鷹":2438,"鹿":2439,"麗":2440,"麻":2441,"黃":2442,"黄":2443,"黑":2444,"黒":2445,"默":2446,"黙":2447,"齢":2448,"龍":2449,"꒳":2450,"가":2451,"각":2452,"간":2453,"갈":2454,"감":2455,"값":2456,"갔":2457,"같":2458,"개":2459,"갱":2460,"거":2461,"건":2462,"걸":2463,"것":2464,"게":2465,"겟":2466,"결":2467,"경":2468,"고":2469,"공":2470,"과":2471,"교":2472,"구":2473,"국":2474,"귀":2475,"그":2476,"급":2477,"기":2478,"깅":2479,"까":2480,"꺼":2481,"꿔":2482,"꿨":2483,"끝":2484,"나":2485,"난":2486,"남":2487,"내":2488,"냐":2489,"냥":2490,"너":2491,"넣":2492,"놓":2493,"는":2494,"늘":2495,"니":2496,"님":2497,"다":2498,"단":2499,"답":2500,"대":2501,"더":2502,"데":2503,"뎃":2504,"도":2505,"동":2506,"되":2507,"된":2508,"됨":2509,"두":2510,"둘":2511,"뒤":2512,"드":2513,"들":2514,"듯":2515,"디":2516,"딱":2517,"때":2518,"떻":2519,"똑":2520,"뚝":2521,"라":2522,"래":2523,"략":2524,"러":2525,"런":2526,"렇":2527,"려":2528,"로":2529,"록":2530,"론":2531,"료":2532,"루":2533,"르":2534,"른":2535,"를":2536,"리":2537,"마":2538,"만":2539,"메":2540,"면":2541,"모":2542,"목":2543,"못":2544,"무":2545,"문":2546,"물":2547,"바":2548,"반":2549,"발":2550,"방":2551,"배":2552,"버":2553,"번":2554,"법":2555,"벤":2556,"변":2557,"보":2558,"봄":2559,"부":2560,"분":2561,"블":2562,"비":2563,"빈":2564,"빠":2565,"사":2566,"산":2567,"상":2568,"새":2569,"색":2570,"생":2571,"서":2572,"선":2573,"설":2574,"세":2575,"소":2576,"속":2577,"수":2578,"순":2579,"숫":2580,"스":2581,"시":2582,"식":2583,"신":2584,"실":2585,"써":2586,"씩":2587,"아":2588,"안":2589,"않":2590,"았":2591,"앞":2592,"야":2593,"약":2594,"양":2595,"어":2596,"얼":2597,"업":2598,"없":2599,"에":2600,"여":2601,"역":2602,"연":2603,"열":2604,"오":2605,"온":2606,"올":2607,"와":2608,"왜":2609,"왼":2610,"요":2611,"용":2612,"우":2613,"운":2614,"위":2615,"윗":2616,"으":2617,"은":2618,"을":2619,"음":2620,"의":2621,"이":2622,"인":2623,"일":2624,"읽":2625,"임":2626,"입":2627,"있":2628,"자":2629,"작":2630,"장":2631,"재":2632,"저":2633,"적":2634,"전":2635,"점":2636,"접":2637,"정":2638,"제":2639,"조":2640,"좀":2641,"종":2642,"좋":2643,"좌":2644,"주":2645,"줄":2646,"줌":2647,"중":2648,"줘":2649,"증":2650,"지":2651,"진":2652,"짐":2653,"집":2654,"짜":2655,"째":2656,"쪽":2657,"쭉":2658,"차":2659,"착":2660,"찾":2661,"책":2662,"처":2663,"체":2664,"초":2665,"최":2666,"취":2667,"카":2668,"칸":2669,"코":2670,"큐":2671,"크":2672,"큰":2673,"클":2674,"큼":2675,"타":2676,"탐":2677,"택":2678,"터":2679,"턴":2680,"통":2681,"트":2682,"편":2683,"표":2684,"풀":2685,"하":2686,"한":2687,"할":2688,"함":2689,"합":2690,"해":2691,"했":2692,"행":2693,"향":2694,"현":2695,"형":2696,"호":2697,"화":2698,"확":2699,"활":2700,"황":2701,"후":2702,"힌":2703,"":2704,"":2705,"︎":2706,"！":2707,"＃":2708,"％":2709,"＆":2710,"（":2711,"）":2712,"＊":2713,"＋":2714,"，":2715,"－":2716,"．":2717,"／":2718,"０":2719,"１":2720,"２":2721,"３":2722,"４":2723,"５":2724,"６":2725,"７":2726,"８":2727,"９":2728,"：":2729,"；":2730,"＜":2731,"＝":2732,"＞":2733,"？":2734,"＠":2735,"Ａ":2736,"Ｂ":2737,"Ｃ":2738,"Ｄ":2739,"Ｅ":2740,"Ｆ":2741,"Ｇ":2742,"Ｈ":2743,"Ｉ":2744,"Ｊ":2745,"Ｋ":2746,"Ｌ":2747,"Ｍ":2748,"Ｎ":2749,"Ｏ":2750,"Ｐ":2751,"Ｓ":2752,"Ｔ":2753,"Ｕ":2754,"Ｗ":2755,"Ｘ":2756,"Ｙ":2757,"［":2758,"＼":2759,"］":2760,"＾":2761,"＿":2762,"｀":2763,"ａ":2764,"ｂ":2765,"ｃ":2766,"ｄ":2767,"ｆ":2768,"ｇ":2769,"ｈ":2770,"ｉ":2771,"ｊ":2772,"ｋ":2773,"ｌ":2774,"ｍ":2775,"ｎ":2776,"ｐ":2777,"ｑ":2778,"ｒ":2779,"ｓ":2780,"ｔ":2781,"ｕ":2782,"ｖ":2783,"ｗ":2784,"ｘ":2785,"ｙ":2786,"ｚ":2787,"｛":2788,"｜":2789,"｝":2790,"～":2791,"｡":2792,"｣":2793,"､":2794,"･":2795,"ｬ":2796,"ｯ":2797,"ｰ":2798,"ｱ":2799,"ｲ":2800,"ｷ":2801,"ｺ":2802,"ｽ":2803,"ﾀ":2804,"ﾄ":2805,"ﾉ":2806,"ﾊ":2807,"ﾋ":2808,"ﾌ":2809,"ﾍ":2810,"ﾐ":2811,"ﾓ":2812,"ﾛ":2813,"ﾝ":2814,"ﾞ":2815,"￢":2816,"￣":2817,"￥":2818,"￼":2819,"�":2820,"𝑎":2821,"𝑏":2822,"𝑝":2823,"𝑞":2824,"𝑥":2825,"𝑲":2826,"𝑷":2827,"🐓":2828,"🐦":2829,"🐧":2830,"💩":2831,"😌":2832,"🙄":2833,"🙅":2834,"in":2835,"()":2836,"int":2837,"or":2838,"an":2839,"li":2840,"for":2841,"if":2842,"ut":2843,"pr":2844,"st":2845,"se":2846,"ma":2847,"put":2848,"input":2849,"re":2850,"):":2851,"print":2852,"ge":2853,"ran":2854,"range":2855,"())":2856,"==":2857,"en":2858,"00":2859,"ans":2860,"de":2861,"().":2862,"sp":2863,"lit":2864,"split":2865,"co":2866,"mp":2867,"nt":2868,"map":2869,"lse":2870,"ort":2871,"))":2872,"list":2873,"+=":2874,"ur":2875,"else":2876,"er":2877,"um":2878,"ap":2879,"def":2880,"][":2881,"ret":2882,"le":2883,"])":2884,"urn":2885,"return":2886,"imp":2887,"import":2888,"app":2889,"end":2890,"it":2891,"ue":2892,"ct":2893,"on":2894,"at":2895,"append":2896,"len":2897,"lf":2898,"rea":2899,"self":2900,"unt":2901,"10":2902,"ro":2903,"__":2904,"33":2905,"ar":2906,"ys":2907,"AA":2908,"(\"":2909,"count":2910,"0000":2911,"al":2912,"max":2913,"di":2914,"sys":2915,")]":2916,"th":2917,"55":2918,"77":2919,"()))":2920,"##":2921,"('":2922,"num":2923,"\")":2924,"//":2925,"and":2926,"ion":2927,"min":2928,"la":2929,"**":2930,"[]":2931,"str":2932,"me":2933,"mo":2934,"():":2935,"no":2936,"dp":2937,"hi":2938,"cnt":2939,"')":2940,"sum":2941,"ab":2942,"fro":2943,"he":2944,"]:":2945,"from":2946,"main":2947,"lin":2948,"],":2949,"ed":2950,"lif":2951,"po":2952,"elif":2953,"ex":2954,"line":2955,"res":2956,"53":2957,"read":2958,"din":2959,"<=":2960,"57":2961,"12":2962,"!=":2963,"to":2964,"whi":2965,"lo":2966,"while":2967,"sort":2968,"reak":2969,"break":2970,"es":2971,"tmp":2972,"math":2973,"Tr":2974,"is":2975,"True":2976,"AAAA":2977,"99":2978,"ol":2979,"ul":2980,"ions":2981,"_list":2982,"stdin":2983,"mb":2984,"37":2985,"ce":2986,"readline":2987,"mod":2988,">=":2989,"((":2990,"11":2991,"set":2992,"':":2993,"col":2994,"id":2995,"ra":2996,"[-":2997,"--":2998,"\"\"":2999,"??":3000,"\":":3001,"]*":3002,"ve":3003,"32":3004,"-=":3005,"18":3006,"No":3007,"ke":3008,"44":3009,"ult":3010,"),":3011,"ig":3012,"ft":3013,"####":3014,"ctions":3015,"val":3016,"abs":3017,"00000000":3018,"ate":3019,"ac":3020,"un":3021,"us":3022,"ht":3023,"te":3024,"left":3025,"as":3026,"19":3027,"Yes":3028,"20":3029,"Fa":3030,"op":3031,"([":3032,"da":3033,"ime":3034,"que":3035,"ip":3036,"66":3037,"=[":3038,"False":3039,"ise":3040,"dex":3041,"ch":3042,"np":3043,"cur":3044,")):":3045,"]-":3046,"ight":3047,"]==":3048,"[:":3049,"]=":3050,"24":3051,"]+":3052,"ame":3053,"13":3054,"index":3055,"73":3056,"cd":3057,"colle":3058,"not":3059,"collections":3060,"dd":3061,"cont":3062,"].":3063,"exit":3064,"ver":3065,"flo":3066,"22":3067,"(-":3068,"54":3069,"60":3070,"lag":3071,"lamb":3072,"lambda":3073,"100":3074,"88":3075,"34":3076,"AAAAAAAA":3077,"bise":3078,"flag":3079,"bisect":3080,"one":3081,"67":3082,"gcd":3083,"17":3084,"',":3085,"name":3086,"sorted":3087,"contin":3088,"continue":3089,"30":3090,"fa":3091,"ind":3092,"14":3093,"py":3094,"up":3095,"59":3096,"temp":3097,"()]":3098,"ols":3099,"dist":3100,"dict":3101,"ne":3102,"t_":3103,"right":3104,"si":3105,"64":3106,"name__":3107,"__name__":3108,"heap":3109,"__main":3110,"__main__":3111,"ite":3112,"27":3113,"50":3114,"iter":3115,"now":3116,"87":3117,"69":3118,"]))":3119,"OD":3120,"\",":3121,"89":3122,"key":3123,")-":3124,"ck":3125,"29":3126,"fact":3127,"verse":3128,"node":3129,"]]":3130,"ing":3131,"MOD":3132,"result":3133,"ot":3134,"pop":3135,"dat":3136,"strip":3137,"39":3138,"sc":3139,"jo":3140,"vis":3141,"w_":3142,"----":3143,"ai":3144,"idx":3145,"Co":3146,"float":3147,"arr":3148,"value":3149,"reverse":3150,"inf":3151,"IN":3152,"max_":3153,"nex":3154,")))":3155,"ss":3156,"*(":3157,"heapp":3158,"tools":3159,"wer":3160,")+":3161,"olve":3162,"80":3163,"????":3164,"15":3165,"rt":3166,"deque":3167,"itertools":3168,"16":3169,"data":3170,"84":3171,"rent":3172,"prime":3173,"cost":3174,"\"\"\"":3175,"s_":3176,"35":3177,"{}":3178,"fi":3179,"ze":3180,"26":3181,"get":3182,"heapq":3183,"[[":3184,"pre":3185,"36":3186,"=[]":3187,"bu":3188,"AB":3189,"lim":3190,"mat":3191,"''":3192,"add":3193,"Count":3194,"None":3195,"comb":3196,"defa":3197,"default":3198,"56":3199,"ist":3200,"item":3201,"pos":3202,"star":3203,"ray":3204,")//":3205,"che":3206,"limit":3207,"LI":3208,"ff":3209,"########":3210,"join":3211,"23":3212,"Counter":3213,"copy":3214,"pa":3215,"array":3216,"su":3217,"factor":3218,"lst":3219,"a_":3220,"edge":3221,"sion":3222,"fun":3223,"solve":3224,"time":3225,"ree":3226,"21":3227,"tot":3228,"0000000000000000":3229,"533":3230,"*=":3231,"dic":3232,"numb":3233,"577":3234,"root":3235,"recur":3236,"gr":3237,"ord":3238,"find":3239,"defaultdict":3240,"28":3241,"\".":3242,"ll":3243,"start":3244,"ore":3245,"recursion":3246,"fs":3247,"recursionlimit":3248,"check":3249,"setrecursionlimit":3250,"*-":3251,"'.":3252,"du":3253,"ations":3254,"ty":3255,"AAAAAAAAAAAAAAAA":3256,"out":3257,"ush":3258,"pe":3259,"number":3260,"49":3261,"ci":3262,"able":3263,"_b":3264,"-*-":3265,"enum":3266,"erate":3267,"total":3268,"INF":3269,"ase":3270,"all":3271,"enumerate":3272,"47":3273,"sq":3274,"size":3275,"nu":3276,")%":3277,")*":3278,"40":3279,"parent":3280,"st_":3281,"min_":3282,"il":3283,"List":3284,"[(":3285,"score":3286,"con":3287,"per":3288,"rstrip":3289,"factori":3290,"ad":3291,"97":3292,"+-":3293,"_c":3294,"(*":3295,"ls":3296,"]*(":3297,"pow":3298,"bisect_":3299,"83":3300,"qu":3301,"537":3302,"os":3303,",-":3304,"ok":3305,":-":3306,"answer":3307,"inv":3308,"+-+-":3309,"]):":3310,"mid":3311,"der":3312,"ding":3313,"pro":3314,"25":3315,"be":3316,"mpy":3317,"point":3318,"dif":3319,"ent":3320,"heappush":3321,"aa":3322,"90":3323,"557":3324,"visit":3325,"numpy":3326,"utf":3327,"ri":3328,"..":3329,"next":3330,"ep":3331,"init":3332,"lc":3333,"bin":3334,"%=":3335,"ld":3336,"coding":3337,"bo":3338,">>":3339,"do":3340,"nx":3341,"sqrt":3342,"','":3343,"_num":3344,"48":3345,"par":3346,"dfs":3347,"_count":3348,"buff":3349,"fl":3350,"10000":3351,"tree":3352,"377":3353,"cum":3354,"ack":3355,"is_":3356,"row":3357,"combin":3358,"<<":3359,"string":3360,"86":3361,")/":3362,"aph":3363,"memo":3364,"fra":3365,"lis":3366,"buffer":3367,"ors":3368,"ter":3369,"tr":3370,"pat":3371,"ES":3372,"of":3373,"pla":3374,"--------":3375,"factorial":3376,"ven":3377,"divis":3378,"visited":3379,"raw_":3380,"y_":3381,"the":3382,"NO":3383,"pl":3384,"pi":3385,"51":3386,"000":3387,"com":3388,"graph":3389,"use":3390,"counter":3391,"raw_input":3392,"move":3393,"c_":3394,"type":3395,"arg":3396,"337":3397,"format":3398,"xy":3399,"63":3400,"bit":3401,"heappop":3402,"する":3403,"[::-":3404,"82":3405,"79":3406,"d_":3407,"diff":3408,"MA":3409,"ns":3410,"81":3411,"table":3412,"n_":3413,"x1":3414,"AC":3415,"9999":3416,"357":3417,"fractions":3418,"70":3419,"combinations":3420,"42":3421,"355":3422,"ta":3423,"lcm":3424,").":3425,"lass":3426,"place":3427,"1000":3428,"65":3429,"ceil":3430,"_a":3431,"sh":3432,"prev":3433,"leng":3434,"353":3435,":]":3436,"class":3437,"\",\"":3438,"ny":3439,"cal":3440,"erat":3441,"]+=":3442,"====":3443,"sub":3444,"color":3445,"2019":3446,"zer":3447,"funct":3448,"next_":3449,"x2":3450,"sa":3451,"mi":3452,"div":3453,"values":3454,"length":3455,"x_":3456,"new":3457,"redu":3458,"date":3459,"bisect_left":3460,"thon":3461,"queue":3462,"43":3463,"777":3464,"reduce":3465,"????????":3466,"floor":3467,"YES":3468,"ABC":3469,"odd":3470,"ard":3471,"tup":3472,"divisors":3473,"ken":3474,"45":3475,"flg":3476,"i_":3477,"=\"":3478,"tar":3479,"00000000000000000000000000000000":3480,"nums":3481,"items":3482,"AAAAAAAAAAAAAAAAAAAAAAAAAAAAAAAA":3483,"sum_":3484,"seg":3485,"y1":3486,"61":3487,"zip":3488,"In":3489,"31":3490,"dy":3491,"())))":3492,"get_":3493,"quer":3494,"ance":3495,"python":3496,"A_":3497,"mal":3498,"stack":3499,"68":3500,"]==\"":3501,"tuple":3502,"new_":3503,"replace":3504,"ools":3505,"functools":3506,"ak":3507,"num_":3508,"abc":3509,"=(":3510,"func":3511,"we":3512,"perm":3513,"pas":3514,"pp":3515,"go":3516,"sert":3517,"s2":3518,"rst":3519,"word":3520,"ho":3521,"lr":3522,"ation":3523,"dx":3524,"'#":3525,"100000000":3526,"//=":3527,"ps":3528,"85":3529,"erator":3530,"pt":3531,"even":3532,"[[]":3533,"ic":3534,"_max":3535,"s1":3536,"y2":3537,"path":3538,"last":3539,"_s":3540,"]!=":3541,"_n":3542,"#!":3543,")])":3544,"od":3545,"init__":3546,"から":3547,"__init__":3548,"token":3549,"LE":3550,"07":3551,"ii":3552,"query":3553,"wr":3554,"fac":3555,"cimal":3556,"remove":3557,")==":3558,"09":3559,"52":3560,"tokens":3561,"a1":3562,"arch":3563,"41":3564,"keys":3565,"mon":3566,"env":3567,"usr":3568,"current":3569,"ans_":3570,"DP":3571,"pass":3572,"inp":3573,"roup":3574,"cc":3575,"01":3576,"+-+-+-+-":3577,"wa":3578,"################":3579,");":3580,"='":3581,"b_":3582,"500":3583,"rr":3584,"c2":3585,"permut":3586,"ulate":3587,"accum":3588,"スト":3589,"ST":3590,"popleft":3591,"c1":3592,"bb":3593,"WA":3594,"ment":3595,"im":3596,"air":3597,"can":3598,"l_":3599,"38":3600,"kai":3601,"ない":3602,"['":3603,"ou":3604,"log":3605,"group":3606,"a2":3607,"62":3608,"tmp_":3609,"ther":3610,"duct":3611,"permutations":3612,"ext":3613,"product":3614,"233":3615,"\"#":3616,"loop":3617,"ith":3618,"58":3619,"ki":3620,"order":3621,"chi":3622,"ju":3623,"target":3624,"search":3625,"]),":3626,"edges":3627,"#!/":3628,"_w":3629,"et":3630,"LS":3631,"numbers":3632,"93":3633,"other":3634,"r_":3635,"-(":3636,"operator":3637,"して":3638,"dig":3639,"accumulate":3640,"rank":3641,"ele":3642,"101":3643,"mx":3644,"ble":3645,"used":3646,"08":3647,"78":3648,"]=='":3649,"74":3650,"[\"":3651,"76":3652,"入力":3653,"lower":3654,"python3":3655,"bl":3656,"_i":3657,"dep":3658,"MAX":3659,"mul":3660,"am":3661,"'))":3662,"72":3663,"dge":3664,"pair":3665,"==\"":3666,"parents":3667,"by":3668,"'''":3669,")**":3670,"De":3671,"ha":3672,"\"))":3673,"[:-":3674,"3333":3675,"_sum":3676,"cs":3677,"del":3678,"46":3679,"step":3680,"distance":3681,"->":3682,"und":3683,"plus":3684,"bisect_right":3685,"first":3686,"base":3687,"minus":3688,"args":3689,"output":3690,"112":3691,"read_":3692,"zero":3693,")*(":3694,"ction":3695,"ice":3696,"96":3697,"std":3698,"]>":3699,"1000000007":3700,"child":3701,"fe":3702,"']":3703,"alp":3704,"]%":3705,":])":3706,"91":3707,"red":3708,"_1":3709,"p1":3710,"cl":3711,"update":3712,"dom":3713,"98":3714,"random":3715,"digit":3716,"=='":3717,"::":3718,"make":3719,"common":3720,"),(":3721,"grid":3722,"bal":3723,"(),":3724,"sep":3725,"p2":3726,"IO":3727,"#####":3728,"ni":3729,"ng":3730,"**(":3731,"5555":3732,"calc":3733,"]<":3734,"depth":3735,"reversed":3736,"resolve":3737,"94":3738,"リスト":3739,"eld":3740,"input_":3741,"As":3742,"ax":3743,"jk":3744,"p_":3745,"a_list":3746,"SI":3747,"adj":3748,"bi":3749,"char":3750,"vv":3751,"neg":3752,"insert":3753,"ify":3754,"code":3755,"]][":3756,"ange":3757,"xx":3758,"232":3759,"\"+":3760,"count_":3761,"sy":3762,"d2":3763,"03":3764,"]])":3765,"344":3766,"fo":3767,"deep":3768,"dis":3769,"case":3770,"low":3771,"92":3772,"kaijo":3773,"list_":3774,"cept":3775,"573":3776,"AN":3777,"open":3778,"d1":3779,"gy":3780,"sw":3781,"est":3782,"AR":3783,"----------------":3784,"733":3785,"ob":3786,"\"]":3787,"comp":3788,"cle":3789,"upper":3790,"deepcopy":3791,"========":3792,"lines":3793,"heapify":3794,"234":3795,"ive":3796,"so":3797,"getter":3798,"my":3799,"_t":3800,"場合":3801,"5377":3802,"test":3803,"+(":3804,"MI":3805,"_cnt":3806,"Num":3807,"75":3808,"ti":3809,"RE":3810,"Se":3811,"yi":3812,"uf":3813,"ity":3814,"wn":3815,"cy":3816,"itemgetter":3817,"file":3818,"71":3819,"0000000000000000000000000000000000000000000000000000000000000000":3820,"++":3821,"AAAAAAAAAAAAAAAAAAAAAAAAAAAAAAAAAAAAAAAAAAAAAAAAAAAAAAAAAAAAAAAA":3822,"\"):":3823,"755":3824,"primes":3825,"nodes":3826,"wh":3827,"ka":3828,"gh":3829,"l1":3830,"most_":3831,"Int":3832,"nn":3833,"sm":3834,"judge":3835,"is_prime":3836,"glo":3837,"zeros":3838,"chr":3839,"ans2":3840,"...":3841,"LR":3842,"5733":3843,"Un":3844,"cond":3845,"])+":3846,"ache":3847,"global":3848,"S_":3849,"l2":3850,"ain":3851,"'#':":3852,"aku":3853,"737":3854,"_x":3855,"XY":3856,"b1":3857,"readlines":3858,")[":3859,"zy":3860,"文字":3861,"lon":3862,"tw":3863,"555":3864,"212":3865,"stat":3866,"sl":3867,"weight":3868,"n1":3869,"ans1":3870,"n2":3871,"mer":3872,"ary":3873,"write":3874,"_2":3875,"card":3876,"00000":3877,"dice":3878,"to_":3879,"5737":3880,"most_common":3881,"ms":3882,"rev":3883,"cos":3884,"cand":3885,"'):":3886,"ks":3887,"imum":3888,"pq":3889,"=[[":3890,"lack":3891,"ition":3892,"bc":3893,"vert":3894,"i2":3895,"sr":3896,"04":3897,"Decimal":3898,"200":3899,"v1":3900,"ある":3901,"rix":3902,"v2":3903,"%(":3904,"make_":3905,"Tree":3906,"ger":3907,"xs":3908,"try":3909,"06":3910,"AL":3911,"asci":3912,"stdout":3913,"95":3914,"na":3915,"_memo":3916,"except":3917,"change":3918,"day":3919,"br":3920,"mone":3921,"height":3922,"tx":3923,"b2":3924,"753":3925,"seen":3926,"553":3927,"top":3928,":]:":3929,"Ch":3930,"UN":3931,"seq":3932,"ba":3933,"ED":3934,"999":3935,"1e":3936,"Find":3937,"って":3938,"ine":3939,"money":3940,"れる":3941,"htt":3942,"io":3943,"rest":3944,"://":3945,"_index":3946,"has":3947,"ru":3948,"m1":3949,",(":3950,"=-":3951,"とき":3952,"ca":3953,"points":3954,"all_":3955,"kaijo_memo":3956,")>":3957,"OK":3958,"xrange":3959,"price":3960,"の数":3961,"MAP":3962,"r1":3963,"Ans":3964,"'+":3965,"Di":3966,"decimal":3967,"r2":3968,"matrix":3969,"nC":3970,"Py":3971,"long":3972,"BC":3973,"v_":3974,"))+":3975,"DE":3976,"nd":3977,"ctor":3978,"757":3979,"deg":3980,"まで":3981,"lm":3982,"dtype":3983,"cmb":3984,"II":3985,"800":3986,"5537":3987,"5577":3988,"fore":3989,"stra":3990,"same":3991,"cnt_":3992,"ate_":3993,"333":3994,"400":3995,"535":3996,"INT":3997,"g2":3998,"om":3999,"df":4000,"match":4001,"+-+-+-+-+-+-+-+-":4002,"tt":4003,"ANS":4004,"vw":4005,"power":4006,"した":4007,"mn":4008,"ts":4009,"ute":4010,"m2":4011,"1111":4012,"3577":4013,"t1":4014,"coder":4015,"xi":4016,"Union":4017,"sk":4018,"ren":4019,"いる":4020,"544":4021,"ji":4022,"https":4023,"here":4024,"ub":4025,"Po":4026,"den":4027,"要素":4028,"prime_":4029,"_min":4030,"dire":4031,"_y":4032,"assert":4033,"100000":4034,"])-":4035,"war":4036,"PO":4037,"patter":4038,"ry":4039,"なる":4040,"()[":4041,"i1":4042,"\"#\":":4043,"atcoder":4044,"の最":4045,"sx":4046,"RO":4047,"_f":4048,"wi":4049,"ly":4050,"He":4051,"black":4052,"575":4053,"ach":4054,"goal":4055,"je":4056,"Input":4057,"SR":4058,"high":4059,"ko":4060,"_l":4061,"rec":4062,"'.':":4063,"kk":4064,"vo":4065,"{}\".":4066,"ay":4067,"TF":4068,"_h":4069,"x3":4070,"_cache":4071,"remain":4072,"last_":4073,"^^":4074,"sible":4075,"ascii_":4076,"IT":4077,"lru":4078,"]>=":4079,"LL":4080,"late":4081,"are":4082,"頂点":4083,"UM":4084,"acc":4085,"=\"\")":4086,"state":4087,"TLE":4088,"02":4089,"なら":4090,"Err":4091,"yy":4092,"566":4093,"ers":4094,"yo":4095,"99999999":4096,"整数":4097,"1000000":4098,"ide":4099,"った":4100,"567":4101,"))))":4102,"5533":4103,"A2":4104,"coprime":4105,"110":4106,"union":4107,"px":4108,"before":4109,"lru_cache":4110,"000000":4111,"dele":4112,"180":4113,"t2":4114,"nv":4115,"LIST":4116,"(\"\".":4117,">>=":4118,"A1":4119,"head":4120,"dw":4121,"AT":4122,"UnionFind":4123,"ali":4124,"Node":4125,"ama":4126,"334":4127,"Error":4128,"_dict":4129,"(''.":4130,"877":4131,"211":4132,"rs":4133,"ces":4134,"fin":4135,"second":4136,"leq":4137,"bfs":4138,"''.":4139,"wise":4140,"g1":4141,"[],":4142,"safe":4143,"ans_list":4144,"template":4145,"num_list":4146,"mm":4147,"_d":4148,"incl":4149,"dh":4150,"extend":4151,"8244":4152,"])%":4153,"Sort":4154,"373":4155,"nw":4156,"radi":4157,"5373":4158,"ds":4159,"')]":4160,"delete":4161,"Pr":4162,"two":4163,"param":4164,"merge":4165,"_r":4166,"ang":4167,"])):":4168,"_p":4169,"af":4170,"zz":4171,"_A":4172,"\".\":":4173,"NG":4174,"jj":4175,"\")))":4176,"sin":4177,"cted":4178,"'#'":4179,"uu":4180,"\"#\"":4181,"GC":4182,"buf":4183,"bs":4184,"Seg":4185,"candi":4186,"nxt":4187,"05":4188,"_size":4189,"SS":4190,"998244":4191,"189":4192,"rem":4193,"計算":4194,"][-":4195,"nc":4196,"zation":4197,"eger":4198,"nj":4199,"))]":4200,"sig":4201,"])]":4202,"],[":4203,"yield":4204,"109":4205,"dq":4206,"ude":4207,"bool":4208,"_set":4209,"667":4210,"????????????????":4211,"600":4212,"Mod":4213,")}":4214,"tra":4215,"lt":4216,"gi":4217,"iterate_":4218,"ori":4219,"c0":4220,"iterate_tokens":4221,"ky":4222,"998244353":4223,"\")]":4224,"field":4225,"################################":4226,"RR":4227,"こと":4228,"]<=":4229,"Sum":4230,"hoge":4231,"sol":4232,"vertex":4233,"')))":4234,"x0":4235,"ので":4236,"5357":4237,"gyaku":4238,"hq":4239,"f0":4240,"_length":4241,"appendleft":4242,"inpl":4243,"y3":4244,"ith_":4245,"Ar":4246,"543":4247,"cm":4248,"blue":4249,"av":4250,"5573":4251,"jp":4252,"inputs":4253,"める":4254,"\"\".":4255,"える":4256,"hs":4257,"in_":4258,"c3":4259,"123":4260,"ow":4261,"white":4262,"off":4263,"159":4264,"])))":4265,"cw":4266,"lists":4267,"3377":4268,"pattern":4269,"road":4270,"121":4271,"a3":4272,"数を":4273,"mini":4274,"maze":4275,"start_":4276,"man":4277,"LF":4278,"amari":4279,"include":4280,"432":4281,"integer":4282,"vi":4283,"rx":4284,"counts":4285,"探索":4286,"vs":4287,"値を":4288,"side":4289,"666":4290,"from_":4291,"360":4292,"119":4293,"find_":4294,"887":4295,")),":4296,"214":4297,"S2":4298,"[]:":4299,"距離":4300,"IL":4301,"5000":4302,"h_":4303,"route":4304,"alph":4305,"radians":4306,"nb":4307,"ON":4308,"inverse":4309,"]//":4310,"ence":4311,"gyaku_":4312,"))%":4313,"Val":4314,"647":4315,"kw":4316,"nl":4317,"wor":4318,"cb":4319,"jkstra":4320,"using":4321,"ート":4322,"mult":4323,"a0":4324,"of_":4325,"ten":4326,"375":4327,"s_list":4328,"ープ":4329,",\"":4330,"番目":4331,"1200":4332,"ARC":4333,"info":4334,"])*":4335,"hy":4336,"AAAAAAAAAAAAAAAAAAAAAAAAAAAAAAAAAAAAAAAAAAAAAAAAAAAAAAAAAAAAAAAAAAAAAAAAAAAAAAAAAAAAAAAAAAAAAAAAAAAAAAAAAAAAAAAAAAAAAAAAAAAAAAAA":4337,"00000000000000000000000000000000000000000000000000000000000000000000000000000000000000000000000000000000000000000000000000000000":4338,"ipy":4339,"UT":4340,"meth":4341,"pon":4342,"Eve":4343,"reach":4344,"nh":4345,"ww":4346,"ative":4347,"S1":4348,"Fi":4349,"define":4350,"('\\":4351,"/=":4352,"act":4353,"fr":4354,"h1":4355,"round":4356,"103":4357,"tas":4358,"+=(":4359,"Max":4360,"107":4361,"LC":4362,"ード":4363,"position":4364,"433":4365,"UF":4366,"Str":4367,"A_list":4368,"cycle":4369,"_node":4370,"ingo":4371,"factorization":4372,"_idx":4373,"vector":4374,"el":4375,"={}":4376,"scipy":4377,"f2":4378,"='')":4379,"677":4380,"chk":4381,"139":4382,"OR":4383,"ints":4384,"minimum":4385,"出力":4386,"tmp2":4387,"3533":4388,"179":4389,"nk":4390,"prod":4391,"ject":4392,"/(":4393,"done":4394,"返す":4395,"over":4396,"conne":4397,"fir":4398,"[:]":4399,"_len":4400,"lazy":4401,"GB":4402,"_with_":4403,"finv":4404,"'.'":4405,"pc":4406,"ag":4407,"roots":4408,"Index":4409,"repe":4410,"hp":4411,"889":4412,"_val":4413,"h2":4414,"ir":4415,"list1":4416,"######":4417,"cho":4418,"ator":4419,"ek":4420,"(((":4421,"repeat":4422,"int64":4423,"lb":4424,"=[[]":4425,"([])":4426,"zu":4427,"Ex":4428,"keta":4429,"配列":4430,"3200":4431,">>>":4432,"5557":4433,"_str":4434,"pppp":4435,"MM":4436,"cp":4437,"ev":4438,"899":4439,"rand":4440,"memb":4441,"601":4442,"mar":4443,"half":4444,"POS":4445,"210":4446,"colors":4447,"ies":4448,"kou":4449,"539":4450,"7777":4451,"make_divisors":4452,"ER":4453,"digits":4454,"erase":4455,"3733":4456,"St":4457,"549":4458,"db":4459,")<":4460,"ossible":4461,"contest":4462,"f1":4463,"divisor":4464,"BLE":4465,"229":4466,"arge":4467,"209":4468,"cap":4469,"AP":4470,"_with_replace":4471,"443":4472,"120":4473,"combinations_with_replace":4474,"mode":4475,"ast":4476,"669":4477,"qq":4478,"SIBLE":4479,"offset":4480,"POSSIBLE":4481,"unite":4482,"SP":4483,"LO":4484,"hh":4485,"mall":4486,"aaa":4487,"cu":4488,"ループ":4489,"(\"#":4490,"modin":4491,"costs":4492,"emp":4493,"yes":4494,"bug":4495,"323":4496,"];":4497,"れば":4498,"599":4499,"_left":4500,"================":4501,"[:,":4502,"127":4503,"_v":4504,"547":4505,"rl":4506,"LI_":4507,"decode":4508,"111":4509,"DI":4510,"649":4511,"method":4512,"149":4513,"{}'.":4514,"roo":4515,"segfunc":4516,"277":4517,"_bo":4518,"449":4519,"()])":4520,"Ai":4521,"PY":4522,"//(":4523,"dp2":4524,"mod_":4525,"最小":4526,"ZE":4527,"554":4528,"\".\"":4529,"Le":4530,"ye":4531,"]].":4532,"NT":4533,"gin":4534,"dijkstra":4535,"first_":4536,"cf":4537,"Re":4538,"初期":4539,"const":4540,"times":4541,"(\"-":4542,"NI":4543,"drea":4544,"]-=":4545,"();":4546,"modinv":4547,"nm":4548,"最大":4549,"IM":4550,")<=":4551,"combinations_with_replacement":4552,"文字列":4553,"front":4554,"cards":4555,"TH":4556,"199":4557,"mas":4558,"short":4559,"sign":4560,"ace":4561,"lice":4562,")[::-":4563,"Ro":4564,"vot":4565,"数の":4566,"loc":4567,"]]:":4568,"bf":4569,"cx":4570,"gs":4571,"321":4572,"3757":4573,"609":4574,"627":4575,"SE":4576,"ores":4577,"ae":4578,"var":4579,"calc_":4580,"ball":4581,"mu":4582,"rees":4583,"169":4584,"push":4585,"773":4586,"656":4587,"inter":4588,"fill":4589,"Value":4590,"129":4591,"this":4592,"raw":4593,"debug":4594,"D_":4595,"element":4596,"ptr":4597,"text":4598,"angle":4599,"pen":4600,"cumsum":4601,"alist":4602,"alphab":4603,"Ne":4604,"444":4605,"でき":4606,"eve":4607,"N0":4608,"579":4609,"259":4610,"343":4611,"('#":4612,"dc":4613,"){":4614,"lowercase":4615,"BB":4616,"IR":4617,":]))":4618,"old":4619,"nCr":4620,"7533":4621,"300":4622,"もの":4623,"819":4624,"(\"\\":4625,"654":4626,"sele":4627,"bingo":4628,"ins":4629,"w1":4630,"wv":4631,"back":4632,"580":4633,"board":4634,"gyaku_kaijo_memo":4635,"xyz":4636,"621":4637,"Que":4638,"297":4639,"527":4640,"bun":4641,"down":4642,"k1":4643,"289":4644,"5355":4645,"add_":4646,"atan":4647,"gx":4648,"``":4649,"いて":4650,"uni":4651,"取得":4652,"104":4653,"k2":4654,"223":4655,"txt":4656,"117":4657,"269":4658,"lock":4659,"td":4660,"tai":4661,"tl":4662,"7377":4663,"box":4664,"137":4665,"factorize":4666,"Point":4667,"153":4668,"507":4669,"'?":4670,"eval":4671,"rb":4672,"combination":4673,"OF":4674,"_N":4675,"以下":4676,"ascii_lowercase":4677,"ef":4678,"()[:-":4679,"197":4680,"inst":4681,"pf":4682,"679":4683,"239":4684,"559":4685,"mand":4686,"uvw":4687,"597":4688,"vel":4689,"y0":4690,"133":4691,",'":4692,"now_":4693,"5757":4694,"288":4695,"3232":4696,"b0":4697,"alpha":4698,"144":4699,"Gr":4700,"509":4701,"Yo":4702,"ones":4703,"105":4704,"read_int":4705,"147":4706,"raise":4707,"求める":4708,"\"-":4709,"tate":4710,"curr":4711,"scores":4712,"let":4713,"ated":4714,"buil":4715,"FR":4716,"Sun":4717,"area":4718,"sb":4719,"ml":4720,"177":4721,"alphabet":4722,"bot":4723,"L2":4724,"PQ":4725,"ける":4726,"168":4727,"work":4728,"ノード":4729,"city":4730,"maximum":4731,"CO":4732,"FS":4733,"Prime":4734,"335":4735,"link":4736,"655":4737,"mt":4738,"293":4739,"A3":4740,"([(":4741,"indic":4742,"maxi":4743,"gt":4744,"groupby":4745,"その":4746,"s3":4747,"dt":4748,"ched":4749,"The":4750,"203":4751,"stop":4752,"space":4753,"ます":4754,"unit":4755,"ata":4756,"('-":4757,"TU":4758,"fter":4759,"_to":4760,"num2":4761,"'*":4762,"同じ":4763,"len_":4764,"}\".":4765,"root_":4766,"factors":4767,"(-(-":4768,"LIR":4769,"cnt2":4770,"][:":4771,"bit_length":4772,"pivot":4773,"221":4774,"You":4775,"ku":4776,"()):":4777,"d0":4778,"879":4779,"w2":4780,"han":4781,"ID":4782,"TFTF":4783,"found":4784,"exp":4785,"hb":4786,"hon":4787,"Sorted":4788,"To":4789,"dot":4790,"3737":4791,"children":4792,"small":4793,"207":4794,"267":4795,"Even":4796,"big":4797,"BD":4798,"???":4799,"))):":4800,"Qu":4801,"'-":4802,"6f":4803,"m_":4804,"273":4805,"240":4806,"#############":4807,"ln":4808,"227":4809,"~~":4810,"237":4811,"rep":4812,"x4":4813,")],":4814,"command":4815,"607":4816,"CH":4817,"\"*":4818,"At":4819,"f_":4820,"529":4821,"initi":4822,"B1":4823,"sums":4824,"={":4825,"bon":4826,"157":4827,"rist":4828,"処理":4829,"247":4830,"b3":4831,"members":4832,"ModInt":4833,"299":4834,"N_":4835,"with":4836,"399":4837,"809":4838,"numerator":4839,"_to_":4840,"141":4841,"War":4842,"An":4843,"SL":4844,"reachable":4845,"170":4846,"ws":4847,"cut":4848,"250":4849,"T1":4850,"以上":4851,"tmp1":4852,"ristmas":4853,"large":4854,"れて":4855,"より":4856,"]]=":4857,"cent":4858,"618":4859,"best":4860,"279":4861,"Queue":4862,"230":4863,"insort":4864,"{:":4865,"cr":4866,"2000":4867,"bx":4868,"Christmas":4869,"839":4870,"i8":4871,"327":4872,"arse":4873,"349":4874,"_lists":4875,"run":4876,"Min":4877,"win":4878,"Data":4879,"''''":4880,"Si":4881,"dj":4882,"M1":4883,"each":4884,"136":4885,"287":4886,":],":4887,"_flag":4888,"_right":4889,"329":4890,"7577":4891,"3212":4892,"Be":4893,"_ele":4894,"err":4895,"])==":4896,"EP":4897,"B2":4898,"]==-":4899,"moji":4900,"よう":4901,"643":4902,"283":4903,"617":4904,"total_":4905,"589":4906,"8f":4907,"hw":4908,"257":4909,"B_":4910,"ghi":4911,"130":4912,"3222":4913,"L1":4914,"sto":4915,"590":4916,"大き":4917,")>=":4918,"p_list":4919,"\"?":4920,"Ke":4921,"5353":4922,"n3":4923,"qs":4924,"orig":4925,"divmod":4926,"248":4927,"###":4928,"ushi":4929,"direction":4930,"kouho":4931,"pprint":4932,"0x":4933,"切り":4934,"187":4935,"randint":4936,"gu":4937,"max_num":4938,"Clo":4939,"249":4940,"gb":4941,"C2":4942,"1600":4943,"gre":4944,"ee":4945,"cor":4946,"Ma":4947,"_ans":4948,"abcdef":4949,"ices":4950,"kwargs":4951,"401":4952,"379":4953,"target_":4954,"551":4955,"hen":4956,"oko":4957,"sz":4958,"][(":4959,"3600":4960,"219":4961,"[[-":4962,"candidate":4963,"849":4964,"UV":4965,"NN":4966,"Odd":4967,"=[-":4968,"d3":4969,"lg":4970,"())]":4971,"167":4972,"Ob":4973,"RL":4974,"aut":4975,"test_":4976,"p3":4977,"abcdefghi":4978,"By":4979,"454":4980,"699":4981,"rc":4982,"String":4983,"cnt1":4984,"_fd":4985,"MIN":4986,"550":4987,"(\":":4988,"lp":4989,"yd":4990,"=\"\"":4991,":(":4992,"の要素":4993,"519":4994,"dp1":4995,"node_":4996,"elem":4997,"869":4998,"function":4999,"653":5000,"_sort":5001,"173":5002,"]==\"#":5003,"quit":5004,"^^^^":5005,"list2":5006,"--------------------------------":5007,"Sunny":5008,"tail":5009,"j2":5010,"BIT":5011,"[::":5012,"vec":5013,")]:":5014,"347":5015,"deno":5016,"\"\\":5017,"),(-":5018,"2344":5019,"vvvv":5020,"ide_ele":5021,"166":5022,"='\\":5023,"RB":5024,"ner":5025,"EN":5026,"CC":5027,"244":5028,"La":5029,"Yay":5030,"341":5031,"instance":5032,"T2":5033,"sieve":5034,"ga":5035,"fil":5036,"mple":5037,"tom":5038,"typ":5039,"level":5040,"md":5041,"current_":5042,"abcdefghijk":5043,"f4":5044,"ec":5045,"113":5046,"bt":5047,"697":5048,"KI":5049,"s0":5050,"kind":5051,"ant":5052,"+=[":5053,"num1":5054,"673":5055,"Lo":5056,"Dw":5057,"cout":5058,"847":5059,"udy":5060,"になる":5061,"を返す":5062,"388":5063,"after":5064,"XX":5065,"更新":5066,"のとき":5067,"maxsize":5068,"619":5069,"Cw":5070,"367":5071,"flush":5072,"qi":5073,"lmno":5074,"150":5075,"253":5076,"213":5077,":].":5078,"begin":5079,"count2":5080,"part":5081,"_m":5082,"108":5083,"Alice":5084,"Wr":5085,"exist":5086,"489":5087,")/(":5088,"608":5089,"lmnopq":5090,"q2":5091,"217":5092,"の場合":5093,"|=":5094,"negative":5095,"3357":5096,")]))":5097,"age":5098,"cin":5099,"]],":5100,"HW":5101,"163":5102,"ud":5103,"abcdefghijklmnopq":5104,"C1":5105,"218":5106,"309":5107,"IS":5108,"]/":5109,"seek":5110,"(\"{}":5111,"uv":5112,"empty":5113,"q1":5114,"280":5115,"639":5116,"pn":5117,"540":5118,"238":5119,"ット":5120,"rows":5121,"').":5122,"rm":5123,"y4":5124,"vl":5125,"zfill":5126,"Cloudy":5127,"sho":5128,"128":5129,"uvwxyz":5130,"264":5131,"220":5132,"GH":5133,"sent":5134,"3755":5135,"words":5136,"c4":5137,"son":5138,"v0":5139,"380":5140,"Con":5141,"any":5142,"ック":5143,"499":5144,"ved":5145,"abcdefghijklmnopqrst":5146,"src":5147,"M2":5148,"161":5149,"indices":5150,"2800":5151,"p0":5152,"ling":5153,"Li":5154,"5f":5155,"UG":5156,"3557":5157,"OT":5158,"uke":5159,"_input":5160,"pairwise":5161,"rate":5162,"uc":5163,"e1":5164,"434":5165,"Ret":5166,"370":5167,"311":5168,"1012":5169,"my_":5170,"だけ":5171,"448":5172,"pot":5173,")&":5174,"164":5175,")!=":5176,"_S":5177,"iseki":5178,"j1":5179,"459":5180,"isinstance":5181,"320":5182,"tri":5183,"tasks":5184,"1001":5185,"569":5186,"7357":5187,"fn":5188,"えら":5189,"stock":5190,"contests":5191,"IF":5192,"static":5193,"20000":5194,"sparse":5195,"al_":5196,"190":5197,"_base":5198,"abcdefghijklmnopqrstuvwxyz":5199,"minator":5200,"155":5201,"NM":5202,"yer":5203,"LA":5204,"derr":5205,"3233":5206,"587":5207,"LM":5208,"517":5209,"checked":5210,"))//":5211,"Dh":5212,"Of":5213,"EST":5214,"NE":5215,"ブル":5216,"stderr":5217,"()),":5218,"D2":5219,"flow":5220,"633":5221,"661":5222,"312":5223,"SC":5224,"437":5225,"181":5226,"denominator":5227,"....":5228,"theta":5229,"Nz":5230,"3537":5231,"テー":5232,"gg":5233,"397":5234,"移動":5235,"b_list":5236,"_start":5237,"である":5238,"());":5239,"=>":5240,"_inv":5241,"cre":5242,"ser":5243,"140":5244,",[":5245,"==-":5246,"pos_":5247,"5337":5248,"HP":5249,"center":5250,"e2":5251,"411":5252,"613":5253,"659":5254,"857":5255,"_array":5256,"_table":5257,"n0":5258,"827":5259,"fc":5260,"ij":5261,"102":5262,"470":5263,"829":5264,"ents":5265,"Mo":5266,"455":5267,"mc":5268,"H2":5269,"H8":5270,"fb":5271,"テーブル":5272,"_divisors":5273,"_counter":5274,"いく":5275,"588":5276,"Mz":5277,"org":5278,"mark":5279,"hu":5280,"mem":5281,"160":5282,"629":5283,"turn":5284,"307":5285,"れた":5286,"gen":5287,"Bs":5288,"given":5289,"ure":5290,"447":5291,"town":5292,"_map":5293,"degrees":5294,"419":5295,"ソート":5296,"997":5297,"xl":5298,"object":5299,"53577":5300,"867":5301,"ght":5302,"mask":5303,"317":5304,"_dic":5305,"266":5306,"UP":5307,"SUM":5308,"letter":5309,"WW":5310,"833":5311,"cess":5312,"cache":5313,"datetime":5314,"spe":5315,"1000000000":5316,"2018":5317,"Set":5318,"hist":5319,"DD":5320,"735":5321,"_mod":5322,"fol":5323,"143":5324,"a_i":5325,"l0":5326,"問題":5327,"322":5328,"wk":5329,"lx":5330,"逆元":5331,"count1":5332,"writ":5333,"BA":5334,"need":5335,"634":5336,"est_":5337,"与えら":5338,"(\")":5339,",*":5340,"657":5341,"追加":5342,"(\"%":5343,"SegTree":5344,"できる":5345,"OP":5346,"itive":5347,"ull":5348,"512":5349,"513":5350,"取り":5351,"nr":5352,"H1":5353,"mag":5354,"413":5355,"]]+":5356,"284":5357,"GE":5358,"x_list":5359,"[(-":5360,"SIZE":5361,"i3":5362,"それ":5363,"newlines":5364,"Bo":5365,"]=(":5366,"d4":5367,"tan":5368,"必要":5369,"Segment":5370,"exam":5371,"warsh":5372,"bottom":5373,"men":5374,"ruiseki":5375,"ype":5376,"argv":5377,"_0":5378,"Return":5379,"201":5380,"Base":5381,"QU":5382,"r0":5383,"853":5384,"roop":5385,"sn":5386,"Edge":5387,"477":5388,"+[":5389,"7733":5390,"303":5391,"set_":5392,"za":5393,"193":5394,"GT":5395,"FF":5396,"687":5397,"ape":5398,"yoko":5399,"3234":5400,"X_":5401,"days":5402,"JK":5403,"MP":5404,"区間":5405,"X2":5406,"cn":5407,"},":5408,"uppercase":5409,"IP":5410,"dest":5411,"584":5412,"593":5413,"fix":5414,"good":5415,"ie":5416,"idth":5417,"a4":5418,"delta":5419,"イン":5420,"Bu":5421,"combinations_count":5422,"479":5423,"UD":5424,"にする":5425,"[[[":5426,"637":5427,"left_":5428,"}'.":5429,"ari":5430,"224":5431,"183":5432,"663":5433,"row_":5434,"dou":5435,"sed":5436,"817":5437,"'\\":5438,"axis":5439,"modp":5440,"pw":5441,"D1":5442,"Ss":5443,"514":5444,"457":5445,"Sc":5446,"488":5447,"tb":5448,"154":5449,"fw":5450,"ave":5451,"writable":5452,"ates":5453,"564":5454,"_in":5455,"これ":5456,"を求める":5457,"AAAAAAAAAAAAAAAAAAAAAAAAAAAAAAAAAAAAAAAAAAAAAAAAAAAAAAAAAAAAAAAAAAAAAAAAAAAAAAAAAAAAAAAAAAAAAAAAAAAAAAAAAAAAAAAAAAAAAAAAAAAAAAAAAAAAAAAAAAAAAAAAAAAAAAAAAAAAAAAAAAAAAAAAAAAAAAAAAAAAAAAAAAAAAAAAAAAAAAAAAAAAAAAAAAAAAAAAAAAAAAAAAAAAAAAAAAAAAAAAAAAAAAAAAAAAAAAA":5458,"ascii_uppercase":5459,"filter":5460,"minj":5461,"807":5462,"さい":5463,"0000000000000000000000000000000000000000000000000000000000000000000000000000000000000000000000000000000000000000000000000000000000000000000000000000000000000000000000000000000000000000000000000000000000000000000000000000000000000000000000000000000000000000":5464,"f3":5465,"cit":5466,"ET":5467,"alk":5468,"MT":5469,"897":5470,"+-+-+-+-+-+-+-+-+-+-+-+-+-+-+-+-":5471,"dr":5472,"f9":5473,"setwise":5474,"Nj":5475,"****":5476,"fib":5477,"合わ":5478,"006":5479,"('{}":5480,"427":5481,"swap":5482,"obj":5483,")%(":5484,"=\"\\":5485,"mis":5486,"2020":5487,"right_":5488,"Or":5489,"7355":5490,"mk":5491,")+(":5492,"bits":5493,"Rain":5494,"ース":5495,"f8":5496,"pri":5497,"Pos":5498,"hor":5499,"cols":5500,"216":5501,"d7":5502,"Fra":5503,"909":5504,"1112":5505,"vx":5506,"])/":5507,"487":5508,"N2":5509,"csgraph":5510,"MD":5511,"603":5512,"611":5513,"fx":5514,"ph":5515,"として":5516,"GCD":5517,"では":5518,"XT":5519,"#(":5520,"BL":5521,"290":5522,"GI":5523,"cro":5524,"Dict":5525,"fct":5526,"We":5527,"where":5528,"pairs":5529,"):#":5530,"imo":5531,"497":5532,"AF":5533,"under":5534,"Imp":5535,"ess":5536,"263":5537,"(':":5538,"b4":5539,"11111111":5540,"ND":5541,"Rainy":5542,"132":5543,"5755":5544,"1e9":5545,"nok":5546,"multip":5547,"456":5548,"510":5549,"leaf":5550,"]).":5551,"Dist":5552,"PUT":5553,"Comb":5554,"_point":5555,"ここ":5556,"sec":5557,"473":5558,"dl":5559,"CA":5560,"503":5561,"'?':":5562,"Your":5563,"dst":5564,"]\"":5565,"nq":5566,"までの":5567,"MF":5568,"b9":5569,"ath":5570,"352":5571,"X1":5572,"z1":5573,"d9":5574,"CD":5575,"]**":5576,"Mj":5577,"{'":5578,"541":5579,"steps":5580,"max_a":5581,"rect":5582,"prime_factorize":5583,"大きい":5584,"N1":5585,"がある":5586,"non":5587,"gcd_list":5588,"kv":5589,"('.":5590,"abcd":5591,"859":5592,"E3":5593,"origin":5594,"RA":5595,"339":5596,"467":5597,"につ":5598,"464":5599,"個数":5600,"Bob":5601,"((-":5602,"ZZ":5603,"min_cost":5604,"l3":5605,"5375":5606,"合わせ":5607,"If":5608,"P8":5609,"tran":5610,"Xi":5611,"WH":5612,"3337":5613,"\"\")":5614,"year":5615,"cir":5616,"の最小":5617,"bp":5618,"())),":5619,"error":5620,"CT":5621,"sg":5622,"409":5623,"440":5624,"_k":5625,"([[":5626,"ME":5627,"260":5628,"864":5629,"AD":5630,"^=":5631,"_of_":5632,"779":5633,"270":5634,"_e":5635,"2400":5636,"z2":5637,"256":5638,"_cost":5639,"idge":5640,"1234":5641,"689":5642,"_pos":5643,"TD":5644,"sd":5645,"VV":5646,"lines_":5647,"shi":5648,"input_list":5649,"sushi":5650,"xm":5651,"811":5652,"hit":5653,"{},":5654,"511":5655,"739":5656,")(":5657,"の最大":5658,"_B":5659,"dv":5660,"hash":5661,"]==\"#\":":5662,"Case":5663,"P2":5664,"room":5665,"eps":5666,"ater":5667,"660":5668,"pb":5669,"factinv":5670,"PX":5671,"wo":5672,"全て":5673,"that":5674,"log2":5675,"518":5676,"番目の":5677,"Hs":5678,"cou":5679,"hypot":5680,"Flag":5681,"ya":5682,"])**":5683,"ution":5684,"ため":5685,"rad":5686,"ix":5687,"ded":5688,"t0":5689,"aの":5690,"tle":5691,"your":5692,"lv":5693,"ward":5694,"b7":5695,"570":5696,"follow":5697,"ost":5698,"contain":5699,"NK":5700,"AO":5701,"neig":5702,"368":5703,"true":5704,"GS":5705,"xa":5706,"390":5707,"480":5708,"yn":5709,"cell":5710,"IMPOSSIBLE":5711,"AS":5712,"vals":5713,"Left":5714,":]):":5715,"tm":5716,"ini":5717,"131":5718,"lun":5719,"dream":5720,"uk":5721,"判定":5722,"回数":5723,"seach":5724,"301":5725,"rn":5726,"グラ":5727,"のリスト":5728,"_maxes":5729,"614":5730,"results":5731,"Impossible":5732,"like":5733,"622":5734,"_lst":5735,"P1":5736,"c9":5737,"width":5738,"popcount":5739,"PRO":5740,"っている":5741,"Ps":5742,"688":5743,"332":5744,"[-(":5745,"m0":5746,"ui":5747,"+\"":5748,"c7":5749,"f7":5750,"tes":5751,"==[]:":5752,"ips":5753,"271":5754,"prime_list":5755,"ics":5756,"Fraction":5757,"Root":5758,"429":5759,"_from_":5760,"a9":5761,"bd":5762,"Me":5763,"w0":5764,"(\":(\")":5765,"620":5766,"AX":5767,"122":5768,"ary_":5769,"h_list":5770,"-(-":5771,"block":5772,"151":5773,"素因":5774,"unsafe":5775,"heappushpop":5776,"\"?\":":5777,"sen":5778,"424":5779,"グループ":5780,"c5":5781,"nf":5782,"v4":5783,"double":5784,"832":5785,"524":5786,"640":5787,"llman":5788,"vy":5789,"_value":5790,")//(":5791,"dfs_":5792,"WV":5793,"HZ":5794,"Go":5795,"())):":5796,"a5":5797,"6e":5798,"BT":5799,"NU":5800,"zi":5801,"_func":5802,"happ":5803,"Xs":5804,"469":5805,"PC":5806,"aj":5807,"840":5808,"sum1":5809,"417":5810,"837":5811,"632":5812,"pre_":5813,"625":5814,"R2":5815,"xn":5816,"sing":5817,"(\".":5818,"HH":5819,"IG":5820,"Right":5821,"436":5822,"_number":5823,"ABLE":5824,"les":5825,"(\"\")":5826,"ib":5827,"tp":5828,"55377":5829,"ータ":5830,"481":5831,"初期化":5832,"MX":5833,"is_integer":5834,"430":5835,"CE":5836,"Ve":5837,"315":5838,"a7":5839,"LSR":5840,"どう":5841,"636":5842,"素数":5843,"nuke":5844,"segtree":5845,"ket":5846,"Dice":5847,"Cy":5848,"dle":5849,"439":5850,"べて":5851,"(')":5852,"501":5853,"]+[":5854,"YY":5855,"b5":5856,"mae":5857,"S_list":5858,"I5":5859,"_id":5860,"コスト":5861,"624":5862,"yen":5863,"proble":5864,"824":5865,"813":5866,"lcm_base":5867,"hand":5868,"BG":5869,"bw":5870,"})":5871,"281":5872,"Cs":5873,"pu":5874,"mida":5875,"CS":5876,"組み":5877,"colum":5878,"520":5879,"Gen":5880,"_for":5881,"560":5882,"seachList":5883,"EE":5884,"ous":5885,"7537":5886,"mv":5887,"191":5888,"taka":5889,"i0":5890,"しない":5891,"anslist":5892,"medi":5893,"LCM":5894,"200000":5895,"364":5896,"qual":5897,"671":5898,"d8":5899,"bn":5900,"qui":5901,"lic":5902,"KB":5903,"TY":5904,"=['":5905,"f5":5906,"nokori":5907,"700":5908,"ント":5909,"quence":5910,"dir":5911,")[-":5912,")][":5913,"NA":5914,"{\"":5915,"eq":5916,"Up":5917,"hild":5918,"iterable":5919,"C3":5920,"middle":5921,"pppppppp":5922,"d5":5923,"vr":5924,"REST":5925,"SegmentTree":5926,"ena":5927,"mount":5928,"ター":5929,"three":5930,"Ls":5931,"PE":5932,"Possible":5933,"ym":5934,"onest":5935,"add_edge":5936,"SW":5937,"when":5938,"X8":5939,"S3":5940,"マス":5941,"545":5942,"LV":5943,"359":5944,"L_":5945,"kn":5946,"+/":5947,"cmd":5948,"453":5949,"xr":5950,"389":5951,"ber":5952,"'')":5953,"dates":5954,"dreamer":5955,"most":5956,"10000000":5957,"Test":5958,")+\"":5959,"So":5960,"K2":5961,"区切り":5962,"imos":5963,"dg":5964,"wl":5965,"INPUT":5966,"labe":5967,"fu":5968,"xv":5969,"412":5970,"dm":5971,"bef":5972,"????????????":5973,"57377":5974,"53377":5975,"VED":5976,"isu":5977,"tc":5978,"_keys":5979,"dists":5980,"zo":5981,"とする":5982,"DENI":5983,"HB":5984,"について":5985,"Cnt":5986,":#":5987,"ves":5988,"}:":5989,"Quer":5990,"ination":5991,"340":5992,"bridge":5993,"330":5994,"b8":5995,"hl":5996,"vn":5997,"]]+=":5998,"DV":5999,"DENIED":6000,"644":6001,"statist":6002,"ita":6003,"light":6004,"+'":6005,"IW":6006,"gith":6007,"H4":6008,"以下の":6009,"github":6010,"YN":6011,"ory":6012,"3322":6013,"563":6014,"void":6015,"670":6016,"APPRO":6017,"680":6018,"xj":6019,"gc":6020,"aw":6021,"i4":6022,"5575":6023,"231":6024,"UNREST":6025,"787":6026,"Is":6027,"statistics":6028,"process":6029,"PP":6030,"u1":6031,"\");":6032,"TE":6033,"_tmp":6034,"dup":6035,"find_root":6036,"グラフ":6037,"slist":6038,"bound":6039,"R1":6040,"873":6041,"の入力":6042,"5777":6043,"book":6044,"ORABLE":6045,"opt":6046,"oki":6047,"863":6048,"finis":6049,"tf":6050,"254":6051,"kab":6052,"UNRESTORABLE":6053,"d6":6054,"oo":6055,"小さい":6056,"ref":6057,"ed_":6058,"1222":6059,"可能":6060,"ascii":6061,"suu":6062,"swit":6063,"Cost":6064,"'),":6065,"690":6066,"APPROVED":6067,"yak":6068,"eraser":6069,"番号":6070,"isei":6071,"@@":6072,"Bi":6073,"A0":6074,"BW":6075,"ja":6076,"max_score":6077,"820":6078,"降順":6079,"n_max":6080,"status":6081,"5333":6082,"組み合わせ":6083,"select":6084,"Ap":6085,"628":6086,"526":6087,"C8":6088,"CK":6089,"pm":6090,"AY":6091,"5773":6092,"PR":6093,"009":6094,"urce":6095,"BX":6096,"count_list":6097,"s_number":6098,"gw":6099,"552":6100,"7737":6101,"pv":6102,"sat":6103,"bの":6104,"check_":6105,"491":6106,"条件":6107,"min_num":6108,"/+":6109,"993":6110,"Line":6111,"5753":6112,"]=[":6113,"returns":6114,"First":6115,"371":6116,"810":6117,"ose":6118,"strings":6119,"Map":6120,"倍数":6121,"temp_":6122,"あり":6123,"inc":6124,"listA":6125,"171":6126,"641":6127,"unique":6128,"J8":6129,"521":6130,"c_list":6131,"VW":6132,"位置":6133,"出す":6134,"LT":6135,"cv":6136,"Graph":6137,"Fo":6138,"li2":6139,"L4":6140,"C0":6141,"B3":6142,"n_list":6143,"407":6144,"][::-":6145,"387":6146,"e9":6147,"possible":6148,"lu":6149,"GO":6150,"ash":6151,"largest":6152,"nor":6153,"best_":6154,"55733":6155,"yj":6156,"dec":6157,"241":6158,"Ju":6159,"531":6160,"AZ":6161,"10000000000000000":6162,"665":6163,"なので":6164,"累積":6165,"すべて":6166,"3375":6167,"g3":6168,"集合":6169,"anss":6170,"PI":6171,"420":6172,"))/":6173,"L0":6174,"alread":6175,")-(":6176,"LD":6177,"llo":6178,"昇順":6179,"alg":6180,"251":6181,"691":6182,"709":6183,"following":6184,"erated":6185,"f0f0":6186,"_tree":6187,"req":6188,"staticmethod":6189,"sun":6190,"素因数":6191,"G2":6192,"b6":6193,"gz":6194,"connect":6195,"njit":6196,"318":6197,"関数":6198,"X4":6199,"いた":6200,"median":6201,"Not":6202,"c8":6203,"_from":6204,"に変":6205,"TBD":6206,"lw":6207,"mw":6208,"長さ":6209,"には":6210,"ious":6211,"P0":6212,"Q2":6213,"883":6214,"658":6215,"Y2":6216,"ea":6217,"Heisei":6218,"{:.":6219,"!\")":6220,"o1":6221,"neighb":6222,"Av":6223,"Bv":6224,"530":6225,"---":6226,"way":6227,"Object":6228,"init_val":6229,"P4":6230,"mod2":6231,"]=='#':":6232,"AH":6233,"xp":6234,"Aj":6235,"gH":6236,"351":6237,"630":6238,"Ff":6239,"ster":6240,"a_max":6241,"スペ":6242,"isuu":6243,"ValueError":6244,"chain":6245,"888":6246,"box_":6247,"XW":6248,"n4":6249,"sample":6250,"TFTFTFTF":6251,"ping":6252,"スペース":6253,"450":6254,"load":6255,"OU":6256,"OV":6257,"not_":6258,"FI":6259,"bk":6260,"apper":6261,"843":6262,"データ":6263,"880":6264,"M0":6265,"_sorted":6266,"sj":6267,"(*[":6268,"L8":6269,"650":6270,"616":6271,"combi":6272,"844":6273,"_data":6274,"cross":6275,"posi":6276,"TT":6277,"mh":6278,"X0":6279,"ux":6280,"read_str":6281,"fy":6282,"e0":6283,"Q3":6284,"))*":6285,"Fast":6286,"0000000":6287,"この":6288,"834":6289,"L3":6290,"int1":6291,"AV":6292,"ao":6293,"となる":6294,"_int":6295,"KK":6296,"416":6297,"BH":6298,"ile":6299,"S0":6300,"coin":6301,"]=\"":6302,"f6":6303,"418":6304,"799":6305,"5553":6306,"152":6307,"NY":6308,"B7":6309,"Except":6310,"Sh":6311,"Exception":6312,"522":6313,"alid":6314,"423":6315,"urid":6316,"与えられる":6317,"circle":6318,"reg":6319,"Factor":6320,"Generated":6321,"=''":6322,"usu":6323,"kyurid":6324,"enamida":6325,"kyuridenamida":6326,"DH":6327,"336":6328,"gap":6329,"A4":6330,"AG":6331,"SUN":6332,"Query":6333,"desc":6334,"can_":6335,"Array":6336,"connected":6337,"366":6338,"Mat":6339,"j0":6340,"座標":6341,"xb":6342,"rv":6343,"rows_number":6344,"z3":6345,"818":6346,"numba":6347,"255":6348,"MON":6349,"V1":6350,"890":6351,"cond_":6352,"約数":6353,"Lazy":6354,"Y1":6355,"fg":6356,"tv":6357,"5335":6358,"CW":6359,"RD":6360,"経路":6361,"読み":6362,":\",":6363,"SK":6364,"Pi":6365,"693":6366,"bomb":6367,"eat":6368,"1st":6369,"J9":6370,"uy":6371,"841":6372,"iti":6373,"EV":6374,"fp":6375,"comple":6376,"hj":6377,"Mb":6378,"conv":6379,"B9":6380,"k_":6381,"536":6382,"invs":6383,"RS":6384,"xt":6385,"528":6386,"QZ":6387,"ipt":6388,"previous":6389,"e3":6390,"wc":6391,"ug":6392,"数字":6393,"Python":6394,"fP":6395,"dp_":6396,"(['":6397,"rence":6398,"830":6399,"max_value":6400,"({":6401,"B0":6402,"endl":6403,"todo":6404,"fact_inv":6405,"_print":6406,"\").":6407,"binary_":6408,"546":6409,"B8":6410,"BUF":6411,"M9":6412,"の距離":6413,"属する":6414,"XV":6415,"を作":6416,"max_count":6417,"max_val":6418,"IV":6419,"460":6420,"850":6421,"始点":6422,"414":6423,"arange":6424,"wt":6425,"v3":6426,"A7":6427,"PD":6428,"A9":6429,"N3":6430,"ュー":6431,"wj":6432,"短距離":6433,"ZY":6434,"honest":6435,"\"+\"":6436,"bj":6437,"facinv":6438,"格納":6439,"ream":6440,"979":6441,"7483":6442,"kaku":6443,"_time":6444,"than":6445,"Q1":6446,"MAX_":6447,"ROUN":6448,"US":6449,"rd":6450,"TUE":6451,"warp":6452,"readInt":6453,"osthen":6454,"M8":6455,"WED":6456,"の整数":6457,"3753":6458,"]==\".\":":6459,"osthenes":6460,"Pa":6461,"1010":6462,"layer":6463,"rg":6464,"E7":6465,"k3":6466,"G9":6467,"modu":6468,"PyObject":6469,"G8":6470,"138":6471,"c6":6472,"350":6473,"463":6474,"old_":6475,"degree":6476,"THU":6477,"466":6478,"730":6479,"X6":6480,"rp":6481,"ROUND_":6482,"q0":6483,"Cre":6484,"lz":6485,"57355":6486,"_child":6487,"source":6488,"lip":6489,"shortest_":6490,"V2":6491,"cj":6492,"sup":6493,"分解":6494,"numer":6495,"author":6496,"T0":6497,"Col":6498,"stom":6499,"Az":6500,"3373":6501,"FRI":6502,"uri":6503,"326":6504,"QH":6505,"YC":6506,"_10":6507,"Number":6508,"存在":6509,"red_":6510,"}\")":6511,"_nums":6512,"PH":6513,"J7":6514,"_score":6515,"o2":6516,"indexed":6517,"preorder":6518,"a8":6519,"556":6520,")#":6521,"V8":6522,"_j":6523,"gra":6524,"xor":6525,"X5":6526,"Xz":6527,"483":6528,"XK":6529,"次元":6530,"れている":6531,"313":6532,"ls_":6533,"edgelist":6534,"StringIO":6535,"N8":6536,"7337":6537,"F8":6538,"sum_a":6539,"累積和":6540,"t3":6541,"33333333":6542,"compos":6543,"A8":6544,"E8":6545,"Q4":6546,"Ly":6547,"AK":6548,"clo":6549,"W2":6550,"custom":6551,"''''''''":6552,"laz":6553,"isPrime":6554,"em":6555,"591":6556,"a6":6557,"green":6558,"w3":6559,"最後":6560,"keyence":6561,"jy":6562,"\"{":6563,"Xk":6564,"_end":6565,"dk":6566,"tips":6567,"3344":6568,"345":6569,"LJ":6570,"mint":6571,"2017":6572,"M5":6573,"XD":6574,"bust":6575,"oku":6576,"I2":6577,"カウ":6578,"groups":6579,"L9":6580,"gf":6581,"temp2":6582,"cq":6583,"next_v":6584,"668":6585,"divide":6586,"484":6587,"sequence":6588,"second_":6589,"curr_":6590,"_C":6591,"U1":6592,"3355":6593,"571":6594,"Sy":6595,"gl":6596,"561":6597,"m3":6598,"links":6599,"ope":6600,"wf":6601,"tu":6602,"}')":6603,"divs":6604,"switch":6605,"alize":6606,"1212":6607,"================================":6608,"Al":6609,"奇数":6610,"BUFSIZE":6611,"Alist":6612,"h0":6613,"\"...":6614,"B4":6615,"F2":6616,"My":6617,"_bit":6618,"WK":6619,"__str":6620,"__str__":6621,"P9":6622,"ターン":6623,"626":6624,"vk":6625,"の中":6626,"rot":6627,"squ":6628,"straints":6629,"multi":6630,"ql":6631,"])*(":6632,"binary":6633,"skip":6634,"vp":6635,"部分":6636,"SH":6637,"q3":6638,"987":6639,"565":6640,"465":6641,"integers":6642,"182":6643,"'])":6644,"B5":6645,"Th":6646,"next_node":6647,"MY":6648,"tk":6649,"複数":6650,"L7":6651,"Ok":6652,"v8":6653,"775":6654,"queries":6655,"E5":6656,"J5":6657,"T4":6658,"++)":6659,"gK":6660,"1100":6661,"M4":6662,"Qz":6663,"person":6664,"xd":6665,"))-":6666,"Len":6667,"キュー":6668,"assertIO":6669,"DY":6670,"LY":6671,"U4":6672,"ければ":6673,"の時":6674,"J4":6675,"ced":6676,"766":6677,"Pro":6678,"UY":6679,"満た":6680,"IOBase":6681,"2147483":6682,"D3":6683,"r3":6684,"_be":6685,"SAT":6686,"Combination":6687,"P3":6688,"input_line":6689,"U8":6690,"Xy":6691,"E2":6692,"));":6693,"676":6694,"cz":6695,"410":6696,"tei":6697,"L6":6698,"A5":6699,"NQ":6700,"lcm_list":6701,"X3":6702,"sorted_":6703,"AW":6704,"N4":6705,"walk":6706,"prop":6707,"MS":6708,"入れる":6709,"adjac":6710,"vertices":6711,"RI":6712,"bm":6713,"p4":6714,"deli":6715,"att":6716,"215":6717,"UK":6718,"870":6719,"clear":6720,"insort_left":6721,"MH":6722,"pj":6723,"Bj":6724,"J6":6725,"fd":6726,"BO":6727,"FastIO":6728,"int32":6729,"answers":6730,"(':(')":6731,"FT":6732,"e7":6733,"読み込":6734,"bro":6735,"490":6736,"hashi":6737,"~~~~":6738,"NW":6739,"NZ":6740,"F1":6741,"206":6742,"235":6743,"Lx":6744,"full":6745,"_back":6746,"nH":6747,"007":6748,"J3":6749,"Xw":6750,"BP":6751,"F0":6752,"(\"{":6753,"893":6754,"fh":6755,"setdefault":6756,"namespace":6757,"DW":6758,"Uy":6759,"ift":6760,"ったら":6761,"F9":6762,"偶数":6763,"363":6764,"balance":6765,"choice":6766,"F4":6767,"Sw":6768,"amax":6769,"Bl":6770,"pd":6771,")]=":6772,"261":6773,"243":6774,"&&":6775,"441":6776,"train":6777,"Fg":6778,"JH":6779,"LH":6780,"MO":6781,"118":6782,"523":6783,"'{":6784,"788":6785,"T_":6786,"Xq":6787,"interse":6788,"どうか":6789,"ew":6790,"only":6791,"parse":6792,"L5":6793,"JZ":6794,"X7":6795,"islower":6796,"631":6797,"E1":6798,"E9":6799,"kx":6800,"スタ":6801,"セット":6802,"mincost":6803,"Ns":6804,"ごと":6805,"N9":6806,"R0":6807,"R3":6808,"U0":6809,"BZ":6810,"の値":6811,"dist_":6812,"E6":6813,"rat":6814,"#-":6815,"RW":6816,"g0":6817,"RH":6818,"594":6819,"shape":6820,"balls":6821,"DO":6822,"J0":6823,"階乗":6824,"246":6825,"unittest":6826,"XZ":6827,"TO":6828,"G1":6829,"かどうか":6830,"inorder":6831,"mr":6832,"pow_":6833,")].":6834,"elements":6835,"Ax":6836,"Fun":6837,"M3":6838,"003":6839,"=[(":6840,"\"*(":6841,"G4":6842,"Q0":6843,"n5":6844,"_root":6845,"770":6846,"ops":6847,"warshall":6848,"G3":6849,"TI":6850,"x_max":6851,"D8":6852,"JO":6853,")).":6854,"525":6855,"qy":6856,"Br":6857,"Bz":6858,"QW":6859,"]='":6860,"Constraints":6861,"856":6862,"Ci":6863,"paths":6864,"swith":6865,"XH":6866,"907":6867,"__x":6868,"QK":6869,"T3":6870,"している":6871,"kazu":6872,"magic":6873,"55357":6874,"qw":6875,"PK":6876,"|]":6877,"308":6878,"Jz":6879,"ctr":6880,"57357":6881,"Created":6882,"U3":6883,"おく":6884,"int_":6885,"37577":6886,"IOWr":6887,"612":6888,"UZ":6889,"IOWrapper":6890,"GY":6891,"331":6892,"に対":6893,"AtCo":6894,"list_a":6895,"sets":6896,"C7":6897,"U7":6898,"gO":6899,"vt":6900,"242":6901,"k0":6902,"denom":6903,"show_":6904,"Am":6905,"pow2":6906,"Sp":6907,"D9":6908,"Q8":6909,"N5":6910,"BV":6911,"Pe":6912,"Q5":6913,"deq":6914,"cnts":6915,"P6":6916,"I4":6917,"fY":6918,"]);":6919,"NH":6920,"_key":6921,"パターン":6922,"BY":6923,"GW":6924,"LZ":6925,"422":6926,"ero":6927,"I0":6928,"R8":6929,"nz":6930,"qK":6931,"bble":6932,"FY":6933,"Q7":6934,"X9":6935,"yd_":6936,"493":6937,"mean":6938,"Pw":6939,"PZ":6940,"Pz":6941,"('#')":6942,"53777":6943,"resh":6944,"solution":6945,"Nb":6946,"PV":6947,"使う":6948,"types":6949,"u_":6950,"999999999999":6951,"FZ":6952,"G7":6953,"]\"):":6954,"gV":6955,"順に":6956,"^^^^^^^^":6957,"All":6958,"search_":6959,"Dx":6960,"MZ":6961,"ople":6962,"Do":6963,"JY":6964,"EPS":6965,"complex":6966,"pin":6967,"せる":6968,"itr":6969,"37355":6970,"NV":6971,"33577":6972,"max2":6973,"Lw":6974,"MV":6975,"PW":6976,"vj":6977,"2112":6978,"Ay":6979,"P5":6980,"str_list":6981,"CZ":6982,"Pl":6983,"SO":6984,"UH":6985,"ong":6986,"GK":6987,"u2":6988,"\"),":6989,"stru":6990,"165":6991,"az":6992,"I8":6993,"Lz":6994,"_3":6995,"h3":6996,"vvvvvvvv":6997,"composition":6998,"ものを":6999,"D0":7000,"J1":7001,"Pk":7002,"Ry":7003,"g8":7004,"U9":7005,"slo":7006,"822":7007,"vY":7008,"res2":7009,"g4":7010,"fq":7011,"gZ":7012,"rotate":7013,"素因数分解":7014,"Uz":7015,"\":\"":7016,"場合は":7017,"7773":7018,"Bx":7019,"G0":7020,"Gz":7021,"QY":7022,"[:(":7023,"AE":7024,"R7":7025,"Xm":7026,"print_":7027,"']:":7028,"SY":7029,"2147483647":7030,"AGC":7031,"801":7032,"multiple":7033,"610":7034,"860":7035,"G5":7036,"なく":7037,"dp0":7038,"candidates":7039,"vK":7040,"57533":7041,"990":7042,"dn":7043,"max_v":7044,"label":7045,"iw":7046,"kan":7047,"roll":7048,"e4":7049,"カウント":7050,"Lj":7051,"881":7052,"MK":7053,"Q9":7054,"291":7055,"MW":7056,"EOF":7057,"FO":7058,"ia":7059,"ident":7060,"135":7061,"uz":7062,"floyd_":7063,"Ac":7064,"gW":7065,"C9":7066,"Mx":7067,"floyd_warshall":7068,"F5":7069,"FK":7070,"dZ":7071,"ids":7072,"1000000000000000000":7073,"A6":7074,"D7":7075,"Qy":7076,"で割":7077,"heck":7078,"382":7079,"U5":7080,"UW":7081,"取る":7082,"_black":7083,"Cz":7084,"Xj":7085,"Qj":7086,"fm":7087,"Key":7088,"GZ":7089,"csr_":7090,"column":7091,"AtCoder":7092,"55737":7093,"された":7094,"394":7095,"foo":7096,"Dy":7097,"Ti":7098,"U2":7099,"376":7100,"one_":7101,"NS":7102,"]=='.':":7103,"'...":7104,"831":7105,"Ts":7106,"Xx":7107,"false":7108,"west":7109,"866":7110,"wb":7111,"coor":7112,"single":7113,"D4":7114,"you":7115,"TW":7116,"g5":7117,"E4":7118,"lista":7119,"Bin":7120,"TV":7121,"Uq":7122,"malle":7123,"C4":7124,"Tz":7125,"G6":7126,"])//":7127,"andard":7128,"post":7129,"JV":7130,"R4":7131,"UO":7132,"vz":7133,"max1":7134,"678":7135,"53733":7136,"Ds":7137,"Rs":7138,"425":7139,"land":7140,"988":7141,"Bit":7142,"vZ":7143,"tn":7144,"Rz":7145,"task":7146,"Ra":7147,"Uw":7148,"penal":7149,"/*":7150,"N6":7151,"yl":7152,"の個数":7153,"initial":7154,"flag2":7155,"Mi":7156,"jump":7157,"265":7158,"csr_matrix":7159,"Ge":7160,"bh":7161,"_card":7162,"LW":7163,"bad":7164,"&=":7165,"quest":7166,"odd_":7167,"kill":7168,"\"]:":7169,"236":7170,"Ez":7171,"F7":7172,"_bound":7173,"N7":7174,"S4":7175,"001":7176,"])>":7177,"neighbor":7178,"C_":7179,"Ux":7180,"508":7181,"CV":7182,"v9":7183,"369":7184,"158":7185,"LK":7186,"XO":7187,"people":7188,"local":7189,"*/":7190,"DZ":7191,"QV":7192,"tj":7193,"cious":7194,"EY":7195,"H0":7196,"RZ":7197,"Sz":7198,"Wor":7199,"でも":7200,"face":7201,"already":7202,"FW":7203,"vq":7204,"568":7205,"方向":7206,"sunuke":7207,"JW":7208,"modpow":7209,"kabu":7210,"Jy":7211,"M7":7212,"fZ":7213,"ように":7214,"ックス":7215,"行目":7216,"391":7217,"n9":7218,"sss":7219,"################################################################":7220,"D5":7221,"Px":7222,"rest_":7223,"B6":7224,"F3":7225,"Fy":7226,"35777":7227,"fast":7228,"calculate":7229,"Dz":7230,"Ri":7231,"cZ":7232,"t_list":7233,"wa_":7234,"Qs":7235,"au":7236,"rw":7237,"([\"":7238,"S8":7239,"g9":7240,"Ce":7241,"gj":7242,"hour":7243,"dK":7244,"ichi":7245,"mylist":7246,"P7":7247,"less":7248,"is_ok":7249,"Bytes":7250,"Gq":7251,"I9":7252,"Pq":7253,"1つ":7254,"GV":7255,"RV":7256,"g7":7257,"BytesIO":7258,"QO":7259,"dY":7260,":`":7261,"Fz":7262,"IK":7263,"Pj":7264,"rq":7265,"vh":7266,"mapping":7267,"EOFError":7268,"present":7269,"\"],":7270,"dH":7271,"1599":7272,"Fs":7273,"n8":7274,"===":7275,"Hello":7276,"812":7277,"T9":7278,"bz":7279,"3455":7280,"Rx":7281,"{(":7282,"最初":7283,"インデ":7284,"H_":7285,"J2":7286,"nW":7287,"initialize":7288,"の値を":7289,"__class":7290,"__class__":7291,"Ae":7292,"Ny":7293,"cH":7294,"alice":7295,"LLI":7296,"cur_":7297,"max_n":7298,"Q6":7299,"581":7300,"684":7301,"Jq":7302,"RY":7303,"':'":7304,"73577":7305,"393":7306,"wrap":7307,"(\"#\")":7308,"'*(":7309,"E0":7310,"I3":7311,"37357":7312,"BK":7313,"Check":7314,"します":7315,"'],":7316,"T8":7317,"891":7318,"767":7319,"答え":7320,"final":7321,"取り出す":7322,"FV":7323,"Gy":7324,"一番":7325,"len_s":7326,"Uj":7327,"vV":7328,"53533":7329,"which":7330,"delicious":7331,"plist":7332,"7755":7333,"IZ":7334,"を満た":7335,"max_index":7336,"803":7337,"インデックス":7338,"lq":7339,"alt":7340,"flat":7341,"four":7342,"ぞれ":7343,"Aw":7344,"LIN":7345,"kari":7346,"285":7347,"T7":7348,"aoki":7349,"Tw":7350,"U6":7351,"a_b":7352,"Fe":7353,"dV":7354,"vf":7355,"][\"":7356,"隣接":7357,"それぞれ":7358,"Nk":7359,"PS":7360,"cY":7361,"slv":7362,"再帰":7363,"tmp_ans":7364,"show_flg":7365,":.":7366,"Gu":7367,"HO":7368,"合計":7369,"broken":7370,"683":7371,"primeNum":7372,"show":7373,"T5":7374,"Search":7375,"Ph":7376,"mj":7377,"happy":7378,"ima":7379,"│＊":7380,"＊│":7381,"upper_divisors":7382,"Qq":7383,"built":7384,"D6":7385,"Iz":7386,"_next":7387,"nK":7388,"771":7389,"mina":7390,"repr":7391,"lower_divisors":7392,"DEB":7393,"gp":7394,"R9":7395,"ik":7396,"Factori":7397,"635":7398,"CY":7399,"Jx":7400,"Nq":7401,"sum2":7402,"distan":7403,"516":7404,"Qx":7405,"rnk":7406,"Bw":7407,"受け":7408,"nxt_":7409,"個の":7410,"World":7411,"Lr":7412,"gY":7413,"861":7414,"SortedList":7415,"F6":7416,"Mw":7417,"TK":7418,"):]":7419,"ncr":7420,"Gj":7421,"IY":7422,"XS":7423,"dum":7424,"],-":7425,"\"%":7426,"M6":7427,"305":7428,"]!=-":7429,"C5":7430,"Fro":7431,"操作":7432,"shortest":7433,"615":7434,"eratosthenes":7435,"_odd":7436,"Rj":7437,"l4":7438,"m4":7439,"O9":7440,"k5":7441,"DEF":7442,"651":7443,"854":7444,"...,":7445,"んで":7446,"str1":7447,"strs":7448,"read_int_n":7449,"n6":7450,"suma":7451,"310":7452,"It":7453,"vW":7454,"Ij":7455,"Lu":7456,"Pri":7457,"diffe":7458,"sum_w":7459,"build":7460,"I1":7461,"37533":7462,"Lq":7463,"RK":7464,"Rw":7465,"sumA":7466,"I7":7467,"TZ":7468,"終了":7469,"14159":7470,"fK":7471,"べる":7472,"Cj":7473,"))[":7474,"version":7475,"H9":7476,"Xp":7477,"(',":7478,"correct":7479,"を計算":7480,"7757":7481,"Last":7482,"UE":7483,"v6":7484,"3454":7485,"I6":7486,"Jj":7487,"new_x":7488,")[:":7489,"319":7490,"Bq":7491,"square":7492,"Dj":7493,"Tj":7494,"kyori":7495,"shortest_path":7496,"vd":7497,"maxA":7498,"823":7499,"QE":7500,"テスト":7501,"isupper":7502,"通り":7503,"%%":7504,"Bp":7505,"Jw":7506,"S9":7507,"Cr":7508,"HK":7509,"3433":7510,"583":7511,"bubble":7512,"DFS":7513,"asum":7514,"q_":7515,"E_":7516,"Fu":7517,"Uo":7518,"k4":7519,"dev":7520,"Nr":7521,"Py_":7522,"game":7523,"Returns":7524,"AAAAAAAAAAAAAAAAAAAAAAAAAAAAAAAAAAAAAAAAAAAAAAAAAAAAAAAAAAAAAAAAAAAAAAAAAAAAAAAAAAAAAAAAAAAAAAAAAAAAAAAAAAAAAAAAAAAAAAAAAAAAAAAAAAAAAAAAAAAAAAAAAAAAAAAAAAAAAAAAAAAAAAAAAAAAAAAAAAAAAAAAAAAAAAAAAAAAAAAAAAAAAAAAAAAAAAAAAAAAAAAAAAAAAAAAAAAAAAAAAAAAAAAAAAAAAAAAAAAAAAAAAAAAAAAAAAAAAAAAAAAAAAAAAAAAAAAAAAAAAAAAAAAAAAAAAAAAAAAAAAAAAAAAAAAAAAAAAAAAAAAAAAAAAAAAAAAAAAAAAAAAAAAAAAAAAAAAAAAAAAAAAAAAAAAAAAAAAAAAAAAAAAAAAAAAAAAAAAAAAAAAAAAAAAAAAAAAAAAAAAAAAAAAAAAAAAAAAAAAAAAAAAAAAAAAAAAAAAAAAAAAAAAAAAAAAAAAAAAAAAAAAAAAAAAA":7525,"Qw":7526,"R6":7527,"[,":7528,"ako":7529,"2nd":7530,"masu":7531,"268":7532,"ways":7533,"O8":7534,"sta":7535,"lable":7536,"lst1":7537,"Lt":7538,"disc":7539,"Sj":7540,"公倍数":7541,"900":7542,"Aq":7543,"SV":7544,"st_size":7545,"LazySegTree":7546,"T6":7547,"が同じ":7548,"_cum":7549,"'+'":7550,"cities":7551,"Gw":7552,"Qe":7553,"ah":7554,"d_list":7555,"871":7556,"eration":7557,"'][":7558,"+-+-+-+-+-+-+-+-+-+-+-+-":7559,"+-+-+-+-+-+-+-+-+-+-+-+-+-+-+-+-+-+-+-+-+-+-+-+-+-+-+-+-":7560,"#-+-+-+-+-+-+-+-+-+-+-+-+-+-+-+-+-+-+-+-+-+-+-+-+-+-+-+-+-":7561,"Af":7562,"kz":7563,"100001":7564,"heights":7565,"directed":7566,"00000000000000000000000000000000000000000000000000000000000000000000000000000000000000000000000000000000000000000000000000000000000000000000000000000000000000000000000000000000000000000000000000000000000000000000000000000000000000000000000000000000000000000000000000000000000000000000000000000000000000000000000000000000000000000000000000000000000000000000000000000000000000000000000000000000000000000000000000000000000000000000000000000000000000000000000000000000000000000000000000000000000000000000000000000000":7567,"SZ":7568,"bus":7569,"mf":7570,"sear":7571,"(*(":7572,"hantei":7573,"Nx":7574,"O4":7575,"を表":7576,"次の":7577,"tem":7578,"vowe":7579,"Args":7580,"Xo":7581,"1199":7582,"Jo":7583,"Xr":7584,"g6":7585,"xlist":7586,"304":7587,"read_float":7588,"dz":7589,"kj":7590,"木の":7591,"Fq":7592,"Je":7593,"148":7594,"198":7595,"Bt":7596,"pref":7597,"F_":7598,"C6":7599,"R5":7600,"Time":7601,"Ut":7602,"にな":7603,"まり":7604,"削除":7605,"ional":7606,"576":7607,"504":7608,"abc0":7609,"kl":7610,"())-":7611,"minedge":7612,"Bf":7613,"先頭":7614,"Gx":7615,"7557":7616,"Lh":7617,"とい":7618,"?????":7619,"v5":7620,"Ni":7621,"kot":7622,"valid":7623,"ses":7624,"Sa":7625,"スタート":7626,"Au":7627,"typing":7628,"bZ":7629,"数値":7630,"324":7631,"35337":7632,"Nw":7633,"gq":7634,"hr":7635,"dama":7636,"more":7637,"argsort":7638,"OZ":7639,"時間":7640,"Ms":7641,"[])":7642,"action":7643,"yp":7644,"Ho":7645,"Nt":7646,"Xl":7647,"trans":7648,"Ao":7649,"Lm":7650,"ndp":7651,"itions":7652,"bY":7653,"全部":7654,"res1":7655,"53737":7656,"gn":7657,"v7":7658,"lst2":7659,"For":7660,"Rq":7661,"ader":7662,"bob":7663,"XE":7664,"moves":7665,"bq":7666,"border":7667,"S7":7668,"iro":7669,"コン":7670,"HE":7671,"Out":7672,"Uu":7673,"call":7674,"maxa":7675,"Sr":7676,"])[":7677,"idx1":7678,"DK":7679,"Gs":7680,"サイ":7681,"898":7682,"used_":7683,"mallest":7684,"va":7685,"の最短距離":7686,"Tx":7687,"kW":7688,"Cont":7689,"LIS":7690,"Cx":7691,"ban":7692,"含ま":7693,"ans3":7694,"Vs":7695,"()}":7696,"gest":7697,"BE":7698,"bK":7699,"compile":7700,"Positive":7701,"form":7702,"入力例":7703,"sosu":7704,"\"])":7705,"snuke":7706,"Fx":7707,"even_":7708,"h9":7709,"一つ":7710,"DEBUG":7711,"h7":7712,"ansl":7713,"Us":7714,"CAL":7715,"HY":7716,"_check":7717,"=\",":7718,"INT_":7719,"auto":7720,"gyaku_kaijo":7721,"<<(":7722,"play":7723,"に変換":7724,"Solve":7725,"Fj":7726,"Xu":7727,"pz":7728,"Draw":7729,"mK":7730,"入れ":7731,"33377":7732,"lazy_":7733,"]]==":7734,"kr":7735,"yu":7736,"indexes":7737,"vote":7738,"空白":7739,"991":7740,"num_of_":7741,"fstat":7742,"55577":7743,"77355":7744,"Ll":7745,"Qo":7746,"context":7747,"73533":7748,"55355":7749,"114":7750,"segment":7751,"history":7752,"される":7753,"_cand":7754,"Ur":7755,"のみ":7756,"))==":7757,"rous":7758,"('')":7759,"37377":7760,"mY":7761,"min_val":7762,"numlist":7763,"=[\"":7764,"222":7765,"hZ":7766,"('?":7767,"OO":7768,"cK":7769,"431":7770,"Cq":7771,"H3":7772,"trees":7773,"!')":7774,"maxv":7775,"group_":7776,"1111111111111111":7777,"S5":7778,"Ty":7779,"mz":7780,"328":7781,"positive":7782,"Fw":7783,"both":7784,"Pu":7785,"_arr":7786,"dange":7787,"real":7788,"reached":7789,"Qi":7790,"TA":7791,"ey":7792,"(\",":7793,"Mq":7794,"済み":7795,"temp1":7796,"H7":7797,"binary_search":7798,"direct":7799,"646":7800,"weights":7801,"Jr":7802,"]}":7803,"prec":7804,"stair":7805,"retu":7806,"inv_":7807,"Mt":7808,"problem":7809,"Pt":7810,"Ru":7811,"W1":7812,"Cu":7813,"7753":7814,"h8":7815,"dpx":7816,"EK":7817,"wall":7818,"node_list":7819,"mula":7820,"_ls":7821,"fj":7822,"bunbo":7823,"]%=":7824,"57577":7825,"1233":7826,"515":7827,"Qr":7828,"cV":7829,"fV":7830,"m8":7831,"nZ":7832,"s_i":7833,"Id":7834,"Nu":7835,"ority":7836,"258":7837,"player":7838,"vowel":7839,"Su":7840,"Tq":7841,"shift":7842,"choose":7843,"Neg":7844,"]\",":7845,"標準":7846,"876":7847,"wp":7848,"202":7849,"prev_":7850,"Fr":7851,"Mr":7852,"hx":7853,"k9":7854,"Type":7855,"lcs":7856,"member":7857,"Zero":7858,"mq":7859,"sorted_list":7860,"Main":7861,"oc":7862,"attack":7863,"hY":7864,"h6":7865,"なければ":7866,"ink":7867,"bet":7868,"stable":7869,"776":7870,"77533":7871,"逆元テーブル":7872,"('.')":7873,"値の":7874,"bellman":7875,"Rr":7876,"EZ":7877,"MB":7878,"Sx":7879,"注意":7880,"5735":7881,"pypy":7882,"H6":7883,"Ix":7884,"dated":7885,"求め":7886,"192":7887,"707":7888,"Xe":7889,"vu":7890,"32233":7891,"3456":7892,"fz":7893,"orith":7894,"med":7895,"event":7896,"contains":7897,"586":7898,"island":7899,"ign":7900,"Ad":7901,"Qt":7902,"Sq":7903,"kK":7904,"XYZ":7905,"S6":7906,"m6":7907,"行う":7908,"_bin":7909,"Js":7910,"O0":7911,"e_":7912,"coordin":7913,"Hy":7914,"k8":7915,"summ":7916,"7353":7917,"380000":7918,"33357":7919,"min_index":7920,"pick":7921,"argum":7922,"Eu":7923,"y_list":7924,"77377":7925,"rui":7926,"nV":7927,"prv":7928,"入力は":7929,"DIV":7930,"にある":7931,"Ir":7932,"||":7933,"範囲":7934,"468":7935,"Du":7936,"STR":7937,"CG":7938,"W3":7939,"have":7940,"Iy":7941,"場所":7942,"chars":7943,"inputData":7944,"!=-":7945,"現在":7946,"Arr":7947,"mins":7948,"five":7949,"takahashi":7950,"distances":7951,"OY":7952,"freq":7953,"hz":7954,"225":7955,"prob":7956,"Eq":7957,"Ji":7958,"878":7959,"factorial_list":7960,"nY":7961,"いない":7962,"全探索":7963,"apply":7964,"648":7965,"mZ":7966,"公約数":7967,"検索":7968,"e5":7969,"DX":7970,"変数":7971,"ment_":7972,"expe":7973,"xxx":7974,"kq":7975,"リストに":7976,"考える":7977,"mV":7978,"3535":7979,"438":7980,"Dp":7981,"W8":7982,"h5":7983,"hV":7984,"l_list":7985,"m5":7986,"floyd":7987,"odds":7988,"&(":7989,"lZ":7990,"hihi":7991,"getcontext":7992,"_q":7993,"sum_list":7994,"gcd_":7995,"inds":7996,"kV":7997,"32344":7998,"ei":7999,"の長さ":8000,"utes":8001,"x_min":8002,"Iq":8003,"m9":8004,"ール":8005,"]]-":8006,"l5":8007,"532":8008,"max_x":8009,"quick":8010,"e8":8011,"ライ":8012,"H5":8013,"Mu":8014,"r_list":8015,"stones":8016,"its":8017,"rain":8018,"updated":8019,"415":8020,"Hz":8021,"],[-":8022,"consi":8023,"0b":8024,"amount":8025,"UVW":8026,"yakusu":8027,"816":8028,"y_max":8029,"********":8030,"kZ":8031,"Jt":8032,"lj":8033,"ABD":8034,"typedef":8035,"brary":8036,"NX":8037,"_update":8038,"n7":8039,"sib":8040,"Dr":8041,"MQ":8042,"1800":8043,"s_l":8044,"IndexError":8045,"next_x":8046,"dangerous":8047,"MAX_N":8048,"SA":8049,"cmp":8050,"wx":8051,"ween":8052,"k7":8053,"106":8054,"h4":8055,"('{":8056,"276":8057,"imple":8058,"GG":8059,"Hq":8060,"の2":8061,"str_":8062,"\"\":":8063,"2222":8064,"Wz":8065,"BFS":8066,"dct":8067,"1011":8068,"_to_n":8069,"kt":8070,"ants":8071,"division":8072,"p5":8073,"lis_":8074,"O5":8075,"Xt":8076,"iz":8077,"operation":8078,"stk":8079,"()).":8080,"208":8081,"prim":8082,"Ford":8083,"vR":8084,"ran1":8085,"ran2":8086,"32232":8087,"53755":8088,"pointer":8089,"wy":8090,"xmax":8091,"orithm":8092,"suf":8093,"a_s":8094,"checker":8095,"'?'":8096,"hn":8097,"を取得":8098,"125":8099,"argmax":8100,"error_print":8101,"O1":8102,"()))))":8103,"*((":8104,"Ha":8105,"ch_":8106,"Aut":8107,"K1":8108,"water":8109,"探す":8110,"176":8111,"maxx":8112,"compare":8113,"]]))":8114,"eb":8115,"ass":8116,"fac_list":8117,"300000":8118,"EW":8119,"_edge":8120,"tell":8121,"extra":8122,"標準入力":8123,"NUM":8124,"改行":8125,"814":8126,"Gt":8127,"Io":8128,"O7":8129,"dpy":8130,"------------":8131,"うち":8132,"mp_":8133,"Standard":8134,"letters":8135,"Lp":8136,"たい":8137,"種類":8138,"結果":8139,"vc":8140,"v_list":8141,"ddn":8142,"remainder":8143,"Binary":8144,"5544":8145,"item__":8146,"57733":8147,"PQR":8148,"warshall_":8149,"421":8150,"Iw":8151,"55533":8152,"]=-":8153,"flag1":8154,"pie":8155,"faces":8156,"B_list":8157,"Dq":8158,"ップ":8159,"maxs":8160,"えて":8161,"patterns":8162,"385":8163,"HAL":8164,"_can":8165,"スペース区切り":8166,"426":8167,"j3":8168,"連続":8169,"ESS":8170,"の数字":8171,"Gc":8172,"intersection":8173,"を満たす":8174,"354":8175,"HV":8176,"Iu":8177,"O3":8178,"i5":8179,"k6":8180,"vg":8181,"二分":8182,"()-":8183,")+'":8184,"Yz":8185,"cat":8186,"142":8187,"Hw":8188,"Ct":8189,"bV":8190,"l8":8191,"いい":8192,"(\"?":8193,"selected":8194,"NJ":8195,"eff":8196,"506":8197,"\"-\"":8198,"penalty":8199,"989":8200,"Sd":8201,"_result":8202,"mW":8203,"以外":8204,"max_i":8205,"vari":8206,"_info":8207,"difference":8208,"kotae":8209,"hK":8210,"731":8211,"O6":8212,"elm":8213,"l6":8214,"take":8215,"LOCAL":8216,"free":8217,"kaibun":8218,"_10_to_n":8219,"aq":8220,"の頂点":8221,"Ue":8222,"hite":8223,"ずつ":8224,"32112":8225,",=":8226,"77357":8227,"SRL":8228,":=":8229,"O2":8230,"max_idx":8231,")=":8232,"OW":8233,"kY":8234,"476":8235,"Hj":8236,"ta_":8237,"重複":8238,"53537":8239,"Qp":8240,"53557":8241,"csum":8242,"778":8243,"32212":8244,"428":8245,"Ej":8246,"NC":8247,"kp":8248,"new_y":8249,"Answer":8250,"sv":8251,"condition":8252,"bW":8253,"dW":8254,"!!":8255,"GRE":8256,"Rt":8257,"_even":8258,"しい":8259,"目の":8260,"mods":8261,"hat":8262,"iv":8263,"seed":8264,"frac":8265,"Df":8266,"s_num":8267,"NL":8268,"seki":8269,"471":8270,"6544":8271,"384":8272,"がない":8273,"nec":8274,"tak":8275,"Cf":8276,"startswith":8277,"Dire":8278,"789":8279,"Stable":8280,"XJ":8281,"185":8282,"readInts":8283,"読み込み":8284,"lV":8285,"形式":8286,"361":8287,"equal":8288,"したい":8289,"922":8290,"yt":8291,"3000":8292,"Ie":8293,"使用":8294,"formula":8295,"Sn":8296,"stone":8297,"55337":8298,"53757":8299,"行列":8300,"aps":8301,"cW":8302,"良い":8303,"ear":8304,"184":8305,"acum":8306,"dataset":8307,"consist":8308,"warshall_floyd":8309,"l9":8310,"export":8311,"ROUND_HAL":8312,"ROUND_HALF_":8313,"Fen":8314,"()[::-":8315,"sur":8316,"272":8317,"Np":8318,"acos":8319,"number_list":8320,"Y3":8321,"+=\"":8322,"////":8323,"interval":8324,"bit_":8325,"Bn":8326,"rail":8327,"AM":8328,"QQ":8329,"設定":8330,"list3":8331,"low_":8332,"Bellman":8333,"ような":8334,":',":8335,"Oz":8336,"最も":8337,"5600":8338,"35377":8339,"searched":8340,"'}":8341,"minv":8342,"585":8343,"Ey":8344,"Oy":8345,"log10":8346,"Tu":8347,"near":8348,"Group":8349,"Hx":8350,"ox":8351,"という":8352,"cket":8353,"max_len":8354,"plan":8355,"75377":8356,"gv":8357,"keep":8358,"970":8359,"BF":8360,"s4":8361,"値が":8362,"dish":8363,"[\"\"":8364,"DR":8365,"Oq":8366,"g_":8367,"hc":8368,"を表す":8369,"anced":8370,"arp":8371,"')+":8372,"propag":8373,"reshape":8374,"Y4":8375,"mit":8376,"fW":8377,"astype":8378,"min_a":8379,"algorithm":8380,"Bb":8381,"str2":8382,"damage":8383,"1を":8384,"状態":8385,"))])":8386,"598":8387,"Oj":8388,"init_":8389,"MC":8390,"flags":8391,"Ew":8392,"PJ":8393,"avai":8394,"_ford":8395,"Ft":8396,"IJK":8397,"辞書":8398,"finish":8399,">(":8400,"選ぶ":8401,"s_len":8402,"sublist":8403,"Xa":8404,"ABCDEF":8405,"lK":8406,"348":8407,"selection":8408,"Ab":8409,"a_sum":8410,"ATER":8411,"blist":8412,"moved":8413,"TS":8414,"li_":8415,"])])":8416,"index_":8417,"145":8418,"ing_":8419,"971":8420,"Hi":8421,"ABCD":8422,"pay":8423,"new_h":8424,"55555555":8425,"Dt":8426,"LESS":8427,"PL":8428,"よい":8429,"356":8430,"aka":8431,"nCk":8432,";}":8433,"Y5":8434,"apple":8435,"hig":8436,"6666":8437,"_non":8438,"b_i":8439,"3434":8440,"s_map":8441,"struct":8442,"hW":8443,"列挙":8444,"prices":8445,"sert_":8446,"Color":8447,"316":8448,"JJ":8449,"Te":8450,"s_count":8451,"57737":8452,"frag":8453,"1999":8454,"m7":8455,"とこ":8456,"ことが":8457,"Ii":8458,"5775":8459,"typen":8460,"typename":8461,"RG":8462,"tp_":8463,"を追加":8464,"index2":8465,"sides":8466,"K8":8467,"あれば":8468,"input_raw":8469,"855":8470,"Ta":8471,"]]]":8472,"Ui":8473,"l7":8474,"dered":8475,"bbb":8476,"Cb":8477,"Mp":8478,"10001":8479,"++++":8480,"ather":8481,"GREATER":8482,"XL":8483,"sli":8484,"R_":8485,"'-'":8486,"bellman_ford":8487,"720":8488,"RGB":8489,"inl":8490,"残り":8491,"3353":8492,"901":8493,"boundary":8494,"851":8495,"時は":8496,"ときは":8497,"IJKLM":8498,":(-":8499,"KZ":8500,"Score":8501,")^":8502,"vQ":8503,"57337":8504,"val2":8505,"a_l":8506,"53337":8507,"686":8508,"Scan":8509,"tbl":8510,"IJKLMNO":8511,"Ow":8512,"qx":8513,"とか":8514,"lens":8515,"modint":8516,"RX":8517,"filen":8518,"'[":8519,"EF":8520,"yr":8521,"stream":8522,"DC":8523,"JPY":8524,"gd":8525,"From":8526,"alc":8527,"gG":8528,"p8":8529,"自分":8530,"input_method":8531,"623":8532,"AQ":8533,"Hu":8534,"TL":8535,"qa":8536,"PQRST":8537,"hd":8538,"next_y":8539,"Es":8540,"MU":8541,"Tt":8542,"ual":8543,"5535":8544,"taro":8545,"Vz":8546,"V9":8547,"hed":8548,"Matrix":8549,"Na":8550,"33355":8551,"115":8552,"195":8553,"GHIJKLMNO":8554,"AKI":8555,"SB":8556,"ize":8557,"lmi":8558,"max_h":8559,"Ko":8560,"arr2":8561,"302":8562,"GHIJKLMNOPQRST":8563,"};":8564,"kei":8565,"452":8566,"some":8567,"inner":8568,")**(":8569,"\"...\")":8570,"j_":8571,"ナス":8572,"hole":8573,"2nn":8574,"Jc":8575,"hm":8576,"vL":8577,"lst_":8578,"していく":8579,"Da":8580,"subset":8581,"Directed":8582,"lk":8583,"33533":8584,"region":8585,"UVWXYZ":8586,"Bal":8587,"XQ":8588,"xの":8589,"数が":8590,"mass":8591,"cake":8592,"Cn":8593,"NF":8594,"Z2":8595,"Z4":8596,"高さ":8597,"alind":8598,"929":8599,"lW":8600,"txy":8601,"(\"{}\".":8602,"Rf":8603,"V0":8604,"Z7":8605,"e6":8606,"conson":8607,"#%%":8608,"tab":8609,"a_1":8610,",),":8611,"tmp_list":8612,"ACGT":8613,"target_list":8614,"ALL":8615,"(\".\")":8616,"Z6":8617,"M_":8618,"fut":8619,"8400":8620,"W_":8621,"{}:":8622,"buy":8623,"Uf":8624,"sibling":8625,"386":8626,"XG":8627,"_flg":8628,"but":8629,"時に":8630,"led":8631,"8800":8632,"idx2":8633,"ところ":8634,"wait":8635,"Jf":8636,"rf":8637,"nth":8638,"cial":8639,"919":8640,"Eo":8641,"cells":8642,"mp_def":8643,"を見":8644,"4444":8645,"highe":8646,"Zz":8647,"ABCDEFGHIJKLMNOPQRST":8648,"Cv":8649,"LB":8650,"test_入力例":8651,"=((":8652,"DS":8653,"優先":8654,"int_list":8655,"[],[]":8656,"_color":8657,"124":8658,"y_min":8659,"Lb":8660,"())+":8661,"usuu":8662,"new_w":8663,"PF":8664,"rgb":8665,"facts":8666,"_li":8667,"リストの":8668,"314":8669,"729":8670,"1024":8671,"passed":8672,"ukei":8673,"COD":8674,"Xf":8675,"けて":8676,"5454":8677,"diff_":8678,"582":8679,"836":8680,"gF":8681,"library":8682,"record":8683,"Dn":8684,"bas":8685,"i番目":8686,"sor":8687,"1232":8688,"higher":8689,"stud":8690,"exact":8691,"'%":8692,"Lc":8693,"()))]":8694,"dim":8695,"next_pos":8696,"max_sum":8697,"286":8698,"55753":8699,"Find_":8700,"Nf":8701,"Ox":8702,"Gi":8703,"Pp":8704,"55537":8705,"911":8706,"3432":8707,"33757":8708,"TFTFTFTFTFTFTFTF":8709,"950":8710,"Oo":8711,"Vis":8712,"fig":8713,"Negative":8714,"CB":8715,"Hr":8716,"j9":8717,"wd":8718,"割り":8719,"a_count":8720,"35577":8721,"discard":8722,"between":8723,"UJ":8724,"original":8725,"V5":8726,"lh":8727,"到達":8728,"expr":8729,"の数を":8730,"Ot":8731,"ging":8732,"Ee":8733,"Z8":8734,"Dv":8735,"Gd":8736,"unc":8737,"6787":8738,"otal":8739,"group_members":8740,"W9":8741,"作成":8742,"ches":8743,"read_ints":8744,"satis":8745,"UQ":8746,"bar":8747,"そう":8748,"arri":8749,"53753":8750,"alindro":8751,"($":8752,"Mk":8753,"W0":8754,"Z1":8755,"pk":8756,"です":8757,"57353":8758,"7775":8759,"Gf":8760,"K5":8761,"j8":8762,"read_func":8763,"????????????????????????????????":8764,"K0":8765,"2233":8766,"8887":8767,"ABCDEFGHIJKLMNOPQRSTUVWXYZ":8768,"939":8769,"LX":8770,"xmin":8771,"ard_":8772,"]-(":8773,"1の":8774,"she":8775,"だと":8776,"2399":8777,"convert":8778,"consonant":8779,"NR":8780,"Sb":8781,"UR":8782,"Z0":8783,"oe":8784,"future":8785,"EQU":8786,"K4":8787,"lY":8788,"yb":8789,"encoding":8790,"374":8791,"comput":8792,"http":8793,"情報":8794,"det":8795,"(-(":8796,"MR":8797,"初期値":8798,"untime":8799,"getenv":8800,"ごとに":8801,"xc":8802,"終わ":8803,"add__":8804,"Xc":8805,"z0":8806,"thir":8807,"57773":8808,"LQ":8809,"Uk":8810,"iy":8811,"j4":8812,"x_i":8813,"MJ":8814,"Bc":8815,"Sk":8816,"XF":8817,"xu":8818,"coord":8819,"special":8820,"Cp":8821,"3735":8822,"ppp":8823,"power_func":8824,"の最大値":8825,"K9":8826,"Tp":8827,"MMMM":8828,"V3":8829,"Z9":8830,"ameter":8831,"ACK":8832,"lunlun":8833,"Balanced":8834,"EQUAL":8835,"dic2":8836,"Z5":8837,"lazy_segtree":8838,"769":8839,"Bm":8840,"mul__":8841,"all_group_members":8842,"Db":8843,"gess":8844,"Char":8845,"Find_Root":8846,"BR":8847,"793":8848,"charact":8849,"\"?\"":8850,"727":8851,"group_count":8852,"city_":8853,"norm":8854,"Lf":8855,"hlist":8856,"ent_":8857,"monster":8858,"outputData":8859,"ROUND_HALF_UP":8860,"Xg":8861,"403":8862,"435":8863,"<(":8864,"skill":8865,"ほう":8866,"57537":8867,"idx_":8868,"Dic":8869,"V7":8870,"4400":8871,"]+(":8872,"capac":8873,"なか":8874,"方が":8875,"ffff":8876,"Ws":8877,"ccc":8878,"Bk":8879,"ript":8880,"??????":8881,"_before":8882,"719":8883,"Ev":8884,"zero_":8885,"JF":8886,"K3":8887,"Runtime":8888,"w_list":8889,"Visit":8890,"W7":8891,"1400":8892,"06d":8893,"ときの":8894,"hH":8895,"れない":8896,"チェ":8897,"指定":8898,"logging":8899,"826":8900,"gue":8901,"77577":8902,"his":8903,"prof":8904,"([-":8905,"Y0":8906,"umi":8907,"longest":8908,"やつ":8909,"sei":8910,"75733":8911,"GR":8912,"K7":8913,"P_":8914,"veni":8915,"に対して":8916,"Er":8917,"Kw":8918,"Lk":8919,"Z3":8920,"()+":8921,")]+":8922,"Ck":8923,"i6":8924,"adjacent":8925,"1415926":8926,"_nonzero":8927,"718":8928,"hyo":8929,"プル":8930,"Pg":8931,"amin":8932,"goukei":8933,"march":8934,"'-':":8935,"Gv":8936,"JQ":8937,"z4":8938,"また":8939,"dist2":8940,"2つ":8941,"Os":8942,"6400":8943,"#.":8944,"Ng":8945,"SQ":8946,"W5":8947,"zj":8948,"ponent":8949,"heap化":8950,"Ou":8951,"672":8952,"argest":8953,"短経路":8954,"min_i":8955,"A_i":8956,"miss":8957,"box_col":8958,"Ak":8959,"('%":8960,"und_":8961,"cands":8962,"チェック":8963,"min_dist":8964,"conveni":8965,"しておく":8966,"x5":8967,"ptn":8968,"4d":8969,"rand_":8970,"diction":8971,"406":8972,"connection":8973,"1行":8974,"Jp":8975,"{{":8976,"problems":8977,"ning":8978,"のうち":8979,"53373":8980,"is_same":8981,"Scanner":8982,"W6":8983,"super":8984,"imag":8985,"]+\"":8986,"498":8987,"Distance":8988,"*(-":8989,"ZV":8990,"kinds":8991,"Uv":8992,"上限":8993,"地点":8994,"uld":8995,"Size":8996,"IH":8997,"'#')":8998,"sympy":8999,"\"-\":":9000,"q9":9001,"\"][":9002,"Par":9003,"5655":9004,"53357":9005,"データセット":9006,"\"%(":9007,"Nh":9008,"Tf":9009,"WY":9010,"siz":9011,"ING":9012,"non_":9013,"_string":9014,"まだ":9015,"how":9016,"Et":9017,"Mc":9018,"q7":9019,"q8":9020,"z9":9021,"Ca":9022,"Pv":9023,"繰り":9024,"274":9025,"4544":9026,"j5":9027,"Divis":9028,"........":9029,"によ":9030,"6566":9031,"sml":9032,"reachable_to_":9033,"BQ":9034,"V4":9035,"rel":9036,"]['":9037,"3573":9038,"1_":9039,"Nv":9040,"sive":9041,"dic1":9042,"deleteFirst":9043,"Pc":9044,"z7":9045,"isprime":9046,"=[[-":9047,"\"[":9048,"Ht":9049,"u0":9050,"37353":9051,"402":9052,"reachable_from_":9053,"flatten":9054,"DF":9055,"Y7":9056,"r4":9057,"input_str":9058,"Gb":9059,"Ld":9060,"Yy":9061,"yaku":9062,"6766":9063,"max_cnt":9064,"new_list":9065,":])))":9066,"q4":9067,"37537":9068,"getN":9069,"avg":9070,"AJ":9071,"Qf":9072,"]^":9073,"east":9074,"nlist":9075,"p7":9076,"Dijkstra":9077,"Contest":9078,"scan":9079,"99999":9080,"35733":9081,"tax":9082,"55555":9083,"Lg":9084,"Xh":9085,"は0":9086,"(\"#\",":9087,"Mv":9088,"Nc":9089,"Rv":9090,"かを":9091,"Now":9092,"5677":9093,"roads":9094,"937":9095,"W4":9096,"書き":9097,"dp3":9098,"koch":9099,"bis":9100,")))))":9101,"value_":9102,"kakudo":9103,"module":9104,"1文字":9105,"Gk":9106,"Md":9107,"idai":9108,"complexity":9109,"DJ":9110,"各頂点":9111,"jx":9112,"asa":9113,"ucli":9114,"999999999":9115,"org_":9116,"701":9117,"alindrome":9118,"927":9119,"clist":9120,"Code":9121,"5654":9122,"row1":9123,"IJ":9124,"Lv":9125,"マイ":9126,"chmin":9127,"a_2":9128,"ABC0":9129,"Ah":9130,"Ba":9131,"Bh":9132,"K6":9133,"Zy":9134,"xw":9135,"末尾":9136,"uru":9137,"maxnum":9138,"targets":9139,"Xv":9140,"ical":9141,"no_":9142,"57777":9143,"check_list":9144,"loop_":9145,"100100":9146,"3777":9147,"を出力":9148,"insert_":9149,"modinv_list":9150,"don":9151,"p9":9152,"rhs":9153,"inv_t":9154,"next_h":9155,"available":9156,"G_":9157,"On":9158,"rantime":9159,"505":9160,"food":9161,"マイナス":9162,"Ei":9163,"count_nonzero":9164,"Y9":9165,"j6":9166,"encode":9167,"3199":9168,"]!=\"":9169,"'+':":9170,"('#'":9171,"Ef":9172,"XC":9173,"dow":9174,"'':":9175,"OS":9176,"BIG":9177,"Gh":9178,"が存在":9179,"new_dice":9180,"mergeSort":9181,"Qv":9182,"TR":9183,"Xd":9184,"bg":9185,"nan":9186,"stc":9187,"3211":9188,"=[(-":9189,"nlargest":9190,"layer0":9191,"NIL":9192,"スコ":9193,"sche":9194,"_city":9195,"merge_sort":9196,"gth":9197,"lmax":9198,"245":9199,"178":9200,"Nd":9201,"Pn":9202,"Tk":9203,"jun":9204,"cnt_list":9205,"lca":9206,"mono":9207,"ans_l":9208,"Ug":9209,"j7":9210,"zx":9211,"))**":9212,"KV":9213,"Nm":9214,"Pf":9215,"Total":9216,"dai":9217,"Ys":9218,"cls":9219,"__get":9220,"8888":9221,"frm":9222,"_candi":9223,"BS":9224,"min_x":9225,"903":9226,"Dc":9227,"べき":9228,"CR":9229,"EH":9230,"ful":9231,"を行う":9232,"1399":9233,"capacity":9234,"Ga":9235,"Mh":9236,"tg":9237,"ymin":9238,"\"#\")":9239,"スコア":9240,"Uh":9241,"__MOD":9242,"sum_b":9243,"submit":9244,"\"##":9245,"Tv":9246,"z5":9247,"aba":9248,"QJ":9249,"nal":9250,"Op":9251,"Res":9252,"inputList":9253,"33755":9254,"2d":9255,"Ag":9256,"Fv":9257,"Ua":9258,"_new":9259,",[]":9260,"h_max":9261,"z8":9262,"確定":9263,"Xb":9264,"sai":9265,"end_":9266,"Ln":9267,"Y8":9268,"qr":9269,"146":9270,"_counts":9271,"\";":9272,"35537":9273,"lower_bound":9274,"リストを":9275,"_gcd":9276,"ene":9277,"Uc":9278,"bの昇順":9279,"1回":9280,"722":9281,"969":9282,"_op":9283,"連結":9284,"coef":9285,"53333":9286,"]!='":9287,"'...')":9288,"AI":9289,"V6":9290,"Yx":9291,"の総":9292,"month":9293,"596":9294,"?????????":9295,"TP":9296,"できない":9297,"Yj":9298,"t4":9299,"forward":9300,"_cy":9301,"will":9302,"pppppppppppppppp":9303,"Cc":9304,"DQ":9305,"q5":9306,"succ":9307,"dule":9308,"ans_2":9309,"Aa":9310,"Zw":9311,"2799":9312,"bの降順":9313,"Ub":9314,"WE":9315,"Yw":9316,"上げ":9317,"defin":9318,"HQ":9319,"XR":9320,"ih":9321,"しか":9322,"つける":9323,"factorials":9324,"33733":9325,"貪欲":9326,"in_n":9327,"parity":9328,"Ks":9329,"ZIP":9330,"37557":9331,"s_dict":9332,"gole":9333,"\"+\":":9334,"''''''''''''''''":9335,"Jv":9336,"対象":9337,"重み":9338,"min1":9339,"finished":9340,"替え":9341,"row2":9342,"計算用":9343,"Ky":9344,"Ww":9345,"i番目の":9346,"まず":9347,"min_idx":9348,"deleteLast":9349,"60000":9350,"821":9351,"LG":9352,"Oe":9353,"Rc":9354,"oy":9355,"index1":9356,"Yi":9357,"確認":9358,"leader":9359,"[:],":9360,"cumul":9361,"Length":9362,"7f":9363,"ios":9364,"past":9365,"descript":9366,"highest":9367,"でない":9368,"制限":9369,"seven":9370,"dijk":9371,"val1":9372,"cursor":9373,"##############":9374,"472":9375,"918":9376,"Ku":9377,"reward":9378,"trunc":9379,"__getitem__":9380,"957":9381,"gar":9382,"ymax":9383,"967":9384,"Hk":9385,"Nl":9386,"記録":9387,")]*":9388,"5433":9389,"permutation":9390,"max_A":9391,"ally":9392,"RRR":9393,"=\"\".":9394,"Pd":9395,"zr":9396,"圧縮":9397,"max_c":9398,"Dk":9399,"Sl":9400,"bur":9401,"での":9402,"文字列を":9403,"linklist":9404,"7J":9405,"IINF":9406,"934":9407,"Oi":9408,"Snuke":9409,"が1":9410,"57373":9411,"最小公倍数":9412,"__MOD__":9413,"5566":9414,"Fb":9415,"zoku":9416,"als":9417,"\")+":9418,"apsack":9419,"Dl":9420,"Each":9421,"PG":9422,"YE":9423,"_ind":9424,"8987":9425,"ことで":9426,"Ordered":9427,"740":9428,"Iv":9429,"_all":9430,"asin":9431,"diffs":9432,"4344":9433,"tile":9434,"1e18":9435,"4000":9436,"Kr":9437,"Sv":9438,"Vy":9439,"10f":9440,"jobs":9441,"sqr":9442,"xyc":9443,"pts":9444,"description":9445,"Mg":9446,"_ab":9447,"dro":9448,"qj":9449,"られる":9450,"使わ":9451,"iterator":9452,"a_min":9453,"Wx":9454,"cnt_b":9455,"1900":9456,"node_size":9457,"ans_1":9458,"PN":9459,"fv":9460,"gcds":9461,"_cycle":9462,"CQ":9463,"Vx":9464,"sieve_of_":9465,"}{":9466,"のノード":9467,"tele":9468,"gram":9469,"Ic":9470,"Zx":9471,"156":9472,"3575":9473,"guess":9474,"FJ":9475,"196":9476,"55755":9477,"ratio":9478,"75737":9479,"Eb":9480,"UTF":9481,"c_i":9482,"randrange":9483,"ここから":9484,"TJ":9485,"__add__":9486,"\"\",":9487,"usive":9488,"_white":9489,"784":9490,"に行":9491,"parti":9492,"?\":":9493,"_matrix":9494,"hk":9495,"coins":9496,"8877":9497,"v_odd":9498,"984":9499,"Gp":9500,"hv":9501,"zw":9502,"162":9503,"2500":9504,"Make":9505,"create":9506,"Ip":9507,"YW":9508,"55757":9509,"3775":9510,"save":9511,"Weight":9512,"consists":9513,"されている":9514,"645":9515,"getvalue":9516,"35573":9517,"最小の":9518,"bran":9519,"tap":9520,"にして":9521,"org_inp":9522,"Fp":9523,"Ul":9524,"_X":9525,"syo":9526,"714":9527,"=''.":9528,"Rm":9529,"調べる":9530,"resid":9531,"mod1":9532,"dict_":9533,"Xn":9534,"rfind":9535,"メモ":9536,"ifact":9537,"th_":9538,"57753":9539,"_by_":9540,"23344":9541,"747":9542,"33753":9543,"++){":9544,"dice1":9545,"rbst":9546,"asc":9547,"peri":9548,"qp":9549,"requi":9550,"572":9551,"ONLIN":9552,"i_list":9553,"nil":9554,"z6":9555,"\"\"\"\"":9556,"next_w":9557,"house":9558,"Pb":9559,"_search":9560,"yx":9561,"32234":9562,"342":9563,"LN":9564,"しま":9565,"947":9566,"Vo":9567,"Y6":9568,"yg":9569,"数える":9570,"338":9571,"592":9572,"Sf":9573,"6800":9574,"10112":9575,"を作る":9576,"の位置":9577,"35737":9578,"OE":9579,"TQ":9580,"3210":9581,"604":9582,"502":9583,"365":9584,"aaaa":9585,"m_list":9586,"ッチ":9587,"ans_array":9588,"solver":9589,"third":9590,"Um":9591,"VZ":9592,"_lis":9593,"順列":9594,"**-":9595,"html":9596,"doub":9597,"evens":9598,"jw":9599,"findall":9600,"cmath":9601,"2212":9602,"paint":9603,"BJ":9604,"Mf":9605,"Tb":9606,"i9":9607,"maxn":9608,"378":9609,"getList":9610,"Hf":9611,"gJ":9612,"なし":9613,"Heap":9614,"Next":9615,"んだ":9616,"routes":9617,"53773":9618,"Bd":9619,"Dm":9620,"GQ":9621,"Ml":9622,"Vw":9623,"rj":9624,"tans":9625,"input1":9626,"55777":9627,"LOG":9628,"OrderedDict":9629,"'<":9630,"Ec":9631,"FQ":9632,"候補":9633,"op2":9634,"するか":9635,"#[":9636,"932":9637,"CX":9638,"GJ":9639,"Hc":9640,"with_":9641,"が与えられる":9642,"linked":9643,"Fk":9644,"Mm":9645,"]]*":9646,"i7":9647,"実行":9648,"mov":9649,"35373":9650,"Fd":9651,"Pm":9652,"zs":9653,"arr1":9654,"a_num":9655,"outh":9656,"1415926535":9657,"/%":9658,"Cd":9659,"WZ":9660,"plus_":9661,"受け取る":9662,"orth":9663,"__r":9664,"findroot":9665,"964":9666,"の番号":9667,"oper":9668,"134":9669,"++.":9670,"959":9671,"Table":9672,"Wo":9673,"js":9674,"クト":9675,"余り":9676,")];":9677,"hes":9678,"a_cnt":9679,"H_list":9680,"Use":9681,"u9":9682,"が属する":9683,"の計算":9684,"ABs":9685,"75555":9686,"DL":9687,"Hp":9688,"store":9689,"('{:.":9690,"lipboard":9691,"SJ":9692,"UL":9693,"port":9694,"res_":9695,"LLIN":9696,"vertex_start":9697,"vertex_end":9698,"_NUM":9699,"759":9700,"Cl":9701,"Hm":9702,"q6":9703,"t9":9704,"u3":9705,"の和":9706,"compr":9707,"stdc":9708,"without":9709,"73333":9710,"Mult":9711,"VI":9712,"に追加":9713,"ビット":9714,"and_":9715,"750":9716,"Sol":9717,"ample":9718,"gm":9719,"出現":9720,"inm":9721,"55353":9722,"188":9723,"~~~~~~~~":9724,"Cm":9725,"q_list":9726,"tgt":9727,"xk":9728,"names":9729,"max_ans":9730,"min_diff":9731,"conver":9732,"BellmanFord":9733,"gk":9734,"が0":9735,"116":9736,"[''":9737,"r9":9738,"Sm":9739,"Wy":9740,"の配列":9741,"Fact":9742,"functions":9743,"999999":9744,"logN":9745,"v_even":9746,"_find":9747,"t8":9748,"tolist":9749,"Ud":9750,"1799":9751,"calcul":9752,"を超":9753,"並び":9754,"**.":9755,"today":9756,"392":9757,"prefix":9758,"'.',":9759,"すると":9760,"adj_list":9761,"_nodes":9762,"sti":9763,"Fennec":9764,"Tn":9765,"_or":9766,"めて":9767,"saidai":9768,"(\"#\"":9769,"_box":9770,"lines_input":9771,"EX":9772,"Equal":9773,"Yq":9774,"kak":9775,"))%(":9776,"update_":9777,"@@@@":9778,"IX":9779,"clock":9780,"sel_":9781,"tow":9782,"35357":9783,"RBG":9784,"Cycle":9785,"Ik":9786,"YV":9787,"flip":9788,"rN":9789,"正解":9790,"5567":9791,"num_b":9792,"bag":9793,"_dum":9794,"MN":9795,"個数を":9796,"represent":9797,"808":9798,"insort_right":9799,"('{}:":9800,"Yn":9801,"8988":9802,"query_":9803,"含まれる":9804,"Kx":9805,"OQ":9806,"hf":9807,"uo":9808,"にお":9809,"のは":9810,"的に":9811,"uler":9812,"max_gcd":9813,"954":9814,":%":9815,"CJ":9816,"Rp":9817,"Same":9818,"で与えられる":9819,"ACL":9820,"461":9821,"Hv":9822,"Oc":9823,"Sat":9824,"Wq":9825,"l_max":9826,"zan":9827,"▒▒":9828,"3553":9829,"x_1":9830,"GA":9831,"Rl":9832,"_sub":9833,"ティ":9834,"inn":9835,"(\"{:.":9836,"changes":9837,"seconds":9838,"list2d":9839,"Gm":9840,"YZ":9841,"ARGS":9842,"variable":9843,"\"}":9844,"383":9845,"Fm":9846,"gQ":9847,"close":9848,"ignore":9849,"CL":9850,"EQ":9851,"(){":9852,"num3":9853,"top_":9854,"442":9855,"LIR_":9856,"defined":9857,"Vj":9858,"未満":9859,"stand":9860,"toS":9861,"372":9862,"w_max":9863,"min_pos":9864,"argmin":9865,"\"+\"+":9866,"spect":9867,"RQ":9868,"iN":9869,"t5":9870,"zc":9871,"一致":9872,"33557":9873,"cost_":9874,"matched":9875,"282":9876,"ais":9877,"5554":9878,"mii":9879,"prime_factor":9880,"works":9881,"Td":9882,"37777":9883,"remaining":9884,"9999999999":9885,"identity":9886,"'>":9887,"712":9888,"online":9889,"abb":9890,"278":9891,"8766":9892,"???????????":9893,"57333":9894,"DM":9895,"IQ":9896,"SX":9897,"Yr":9898,"57375":9899,"partition":9900,"Proble":9901,"ではない":9902,"CP":9903,"En":9904,"Rk":9905,"fft":9906,"op1":9907,"input_data":9908,"1個":9909,"953":9910,"Gn":9911,"HAB":9912,"ove":9913,"w4":9914,"\",\"\")":9915,"hanako":9916,"=%":9917,"含む":9918,"間に":9919,"fixed":9920,"dictionary":9921,"OH":9922,"SD":9923,"まる":9924,"])<":9925,"Od":9926,"sub__":9927,"Tl":9928,"tq":9929,"u8":9930,"zen":9931,"res_list":9932,"306":9933,"max_pos":9934,"57335":9935,"greater":9936,"N_list":9937,"o3":9938,"を格納":9939,"33537":9940,"r_query":9941,"53775":9942,"smaller":9943,"コンテスト":9944,"<<=":9945,"Im":9946,"578":9947,"5477":9948,"4567":9949,"sum_A":9950,"YK":9951,"minn":9952,"question":9953,"YNe":9954,"に属する":9955,"35557":9956,"changed":9957,"events":9958,"744":9959,"Dis":9960,"FH":9961,"RJ":9962,"egcd":9963,"boo":9964,"just":9965,"test_input":9966,"stairs":9967,"Vq":9968,"acc_":9969,"nexts":9970,"div__":9971,"km":9972,"れます":9973,"タプル":9974,"modulo":9975,"&-":9976,"Star":9977,"時の":9978,"CRE":9979,"かる":9980,"73537":9981,"getlist":9982,"\"##\"":9983,"sieve_of_eratosthenes":9984,"5e":9985,"717":9986,"Cg":9987,"Card":9988,"UX":9989,"slice":9990,"inity":9991,"frame":9992,"misc":9993,"FLA":9994,"PA":9995,"cnt0":9996,"aizu":9997,"smr":9998,"Idx":9999,"rmin":10000,"zZ":10001,")]]":10002,"atan2":10003,":[":10004,"Fh":10005,"^(":10006,"単位":10007,"77353":10008,"numList":10009,"最大公約数":10010,"internal":10011,"Vector":10012,"bridges":10013,"Ib":10014,"cmax":10015,"近い":10016,"__repr":10017,"day_":10018,"ddprint":10019,"books":10020,"YNeos":10021,"__repr__":10022,"\"<":10023,"=',":10024,"💩💩":10025,"lenS":10026,"<=(":10027,"HJ":10028,"nai":10029,"55557":10030,"positions":10031,"should":10032,"^^^^^^^^^^^^^^^^":10033,"955":10034,"lar":10035,"____":10036,"iss":10037,")*(-":10038,"ときに":10039,"Output":10040,"711":10041,"oi":10042,"job":10043,"ans_tmp":10044,"8192":10045,"vvvvvvvvvvvvvvvv":10046,"period":10047,"Oa":10048,"Rb":10049,"SU":10050,"えない":10051,"制約":10052,"反転":10053,"Priority":10054,"NB":10055,"の取得":10056,"724":10057,"OJ":10058,"への最短距離":10059,"深さ":10060,"35757":10061,"703":10062,"53735":10063,"rooms":10064,"サイズ":10065,"PM":10066,"lap":10067,"73557":10068,"Dg":10069,"Wj":10070,"x9":10071,"もし":10072,"max_l":10073,"mething":10074,"Hn":10075,"PB":10076,"_loop":10077,"辺の":10078,"496":10079,"weather":10080,"Kz":10081,"PT":10082,"_add":10083,"alf":10084,"sf":10085,"xe":10086,"rock":10087,"INV":10088,"location":10089,"Ea":10090,"[((":10091,"試合":10092,"former":10093,"answer_list":10094,"10000000000":10095,"soin":10096,"Ep":10097,"Tup":10098,"WS":10099,"ial":10100,"など":10101,"thing":10102,"does":10103,"mod_inv":10104,"alphabets":10105,"LMI":10106,"37757":10107,"aves":10108,"pena":10109,"f_inf":10110,"912":10111,"914":10112,"います":10113,"lity":10114,"ab_list":10115,"642":10116,"A_max":10117,"MAXN":10118,"compon":10119,"doubling":10120,"Wa":10121,"lang":10122,"rh":10123,"すれば":10124,"4566":10125,"815":10126,"Fl":10127,"ular":10128,"3221":10129,"071":10130,"924":10131,"PU":10132,"Zj":10133,"seri":10134,"8899":10135,"494":10136,"頂点数":10137,"SortedSet":10138,"Ov":10139,"hmax":10140,"35533":10141,"make_modinv_list":10142,"Tmp":10143,"っち":10144,"は1":10145,"33737":10146,"_minus":10147,"u4":10148,"3334":10149,")]+=":10150,"77733":10151,"black_":10152,"Problem":10153,"'##":10154,":\"":10155,"fen":10156,"yc":10157,"らない":10158,"lll":10159,"search_list":10160,"push_back":10161,"::-":10162,"ZK":10163,"u5":10164,"vlist":10165,"を使う":10166,"行に":10167,"574":10168,"arry":10169,"iii":10170,"something":10171,"knapsack":10172,"'@":10173,"eucli":10174,"やす":10175,"atter":10176,"Il":10177,"Rn":10178,"w9":10179,"複数の":10180,"sters":10181,"appro":10182,"maxL":10183,"t_num":10184,"53353":10185,"_area":10186,"NULL":10187,"CF":10188,"xf":10189,"見て":10190,"('/":10191,"Ed":10192,"Red":10193,"iq":10194,"y5":10195,"max_w":10196,"kosu":10197,"3f":10198,"DT":10199,"r5":10200,"足す":10201,"eru":10202,"37337":10203,"194":10204,"docs":10205,"node_id":10206,")``":10207,"980":10208,"p_i":10209,"併合":10210,"iness":10211,"stu":10212,"664":10213,"*=(":10214,"#################":10215,"uniq":10216,"branch":10217,"CREF":10218,"PriorityQueue":10219,"HS":10220,"Qb":10221,"vb":10222,"848":10223,"3773":10224,"\"=":10225,"Jm":10226,"Zq":10227,"ans_max":10228,"len_t":10229,"35753":10230,"5200":10231,"Jk":10232,"s6":10233,"Fn":10234,"Temp":10235,"77537":10236,"suit":10237,"compute":10238,"944":10239,"chan":10240,"s_1":10241,"55373":10242,"500000":10243,"AU":10244,"MG":10245,"Wk":10246,"_temp":10247,"iK":10248,"AAAAAAAAAAAAAAAAAAAAAAAAAAAAAAAAAAAAAAAAAAAAAAAAAAAAAAAAAAAAAAAAAAAAAAAAAAAAAAAAAAAAAAAAAAAAAAAAAAAAAAAAAAAAAAAAAAAAAAAAAAAAAAAAAAAAAAAAAAAAAAAAAAAAAAAAAAAAAAAAAAAAAAAAAAAAAAAAAAAAAAAAAAAAAAAAAAAAAAAAAAAAAAAAAAAAAAAAAAAAAAAAAAAAAAAAAAAAAAAAAAAAAAAAAAAAAAAAAAAAAAAAAAAAAAAAAAAAAAAAAAAAAAAAAAAAAAAAAAAAAAAAAAAAAAAAAAAAAAAAAAAAAAAAAAAAAAAAAAAAAAAAAAAAAAAAAAAAAAAAAAAAAAAAAAAAAAAAAAAAAAAAAAAAAAAAAAAAAAAAAAAAAAAAAAAAAAAAAAAAAAAAAAAAAAAAAAAAAAAAAAAAAAAAAAAAAAAAAAAAAAAAAAAAAAAAAAAAAAAAAAAAAAAAAAAAAAAAAAAAAAAAAAAAAAAAAAAAAAAAAAAAAAAAAAAAAAAAAAAAAAAAAAAAAAAAAAAAAAAAAAAAAAAAAAAAAAAAAAAAAAAAAAAAAAAAAAAAAAAAAAAAAAAAAAAAAAAAAAAAAAAAAAAAAAAAAAAAAAAAAAAAAAAAAAAAAAAAAAAAAAAAAAAAAAAAAAAAAAAAAAAAAAAAAAAAAAAAAAAAAAAAAAAAAAAAAAAAAAAAAAAAAAAAAAAAAAAAAAAAAAAAAAAAAAAAAAAAAAAAAAAAAAAAAAAAAAAAAAAAAAAAAAAAAAAAAAAAAAAAAAAAAAAAAAAAAAAAAAAAAAAAAAAAAAAAAAAAAAAAAAAAAAAAAAAAAAAAAAAAAAAAAAAAAAAAAAAAAAAAAAAAAAAAAAAAAAAAAAAAAAAAAAAAAAAAAAAAAAAAAAAAAAAAAAAAAAAAAAAAAAAAAAAAAAAAAAAAAAAAAAAAAAAAAAAAAAAAAAAAAAAAAAAAAAAAAAAAAAAAAAAAAAAAAAAAAAAAAAAAAAAA":10249,"RU":10250,"かつ":10251,"may":10252,"57557":10253,"('?',":10254,"977":10255,"Em":10256,"Ig":10257,"s_c":10258,"exists":10259,"']*":10260,"Ze":10261,"t6":10262,"infinity":10263,"----------":10264,"solved":10265,"sentence":10266,"\"]*":10267,"RT":10268,"gain":10269,"r8":10270,"new_score":10271,"されたリスト":10272,"Hb":10273,"Iter":10274,"r6":10275,"sA":10276,"t7":10277,"zK":10278,"__mul__":10279,"proc":10280,"crement":10281,"Ek":10282,"Nn":10283,"w7":10284,"inside":10285,"prime_factors":10286,"LFR":10287,"dummy":10288,"754":10289,"960":10290,"絶対":10291,"]==\".\"":10292,"sugar":10293,"lls":10294,"3555":10295,"必要がある":10296,"'',":10297,"！！":10298,"==(":10299,"tmp_s":10300,"SEG":10301,"Fc":10302,"Ih":10303,"_V":10304,"エリ":10305,"art":10306,"dio":10307,"]=='.'":10308,"',['":10309,"Start":10310,"790":10311,"x7":10312,"なが":10313,"点を":10314,"entry":10315,"093":10316,"tank":10317,"exec":10318,"dice2":10319,"\"-\"+":10320,"0000000000000000000000000000000000000000000000000000000000000000000000000000000000000000000000000000000000000000000000000000000000000000000000000000000000000000000000000000000000000000000000000000000000000000000000000000000000000000000000000000000000000000000000000000000000000000000000000000000000000000000000000000000000000000000000000000000000000000000000000000000000000000000000000000000000000000000000000000000000000000000000000000000000000000000000000000000000000000000000000000000000000000000000000000000000000000000000000000000000000000000000000000000000000000000000000000000000000000000000000000000000000000000000000000000000000000000000000000000000000000000000000000000000000000000000000000000000000000000000000000000000000000000000000000000000000000000000000000000000000000000000000000000000000000000000000000000000000000000000000000000000000000000000000000000000000000000000000000000000000000000000000000000000000000000000000000000000000000000000000000000000000000000000000000000000000000000000000000000000000000":10321,"NP":10322,"inputInt":10323,"asu":10324,"174":10325,"------------------------------------------------":10326,"Auto":10327,"Bg":10328,"LU":10329,"Qc":10330,"Tc":10331,"fk":10332,"__future":10333,"allow":10334,"228":10335,"b_cnt":10336,"lines_export":10337,"__future__":10338,"Ja":10339,"span":10340,"ashi":10341,"key_":10342,"37733":10343,"\",\"\").":10344,"}:{":10345,"749":10346,"Rh":10347,"Tm":10348,"Zo":10349,"への":10350,"Ia":10351,"+='":10352,"pool":10353,"57757":10354,"xg":10355,"7766":10356,"min_value":10357,"subs":10358,"全ての":10359,"764":10360,"Range":10361,"ZW":10362,"[{}":10363,"やる":10364,"above":10365,"id_":10366,"204":10367,"396":10368,"s_set":10369,"directions":10370,"outputDataList":10371,"940":10372,"Kj":10373,"LP":10374,"最短経路":10375,"77777":10376,"wrong":10377,"ならば":10378,"Mn":10379,"ifac":10380,"assertEqual":10381,"Dd":10382,"zk":10383,"appear":10384,"throw":10385,"Gg":10386,"Qk":10387,"Rd":10388,"Ye":10389,"s5":10390,"smallest":10391,"]+'":10392,"iln":10393,"Ol":10394,"ied":10395,"qe":10396,"？？":10397,"profit":10398,"partial":10399,"onlinejudge":10400,"Qn":10401,"p6":10402,"ans_min":10403,"ccw":10404,"inclusive":10405,"solv":10406,"yakusuu":10407,"913":10408,"kit":10409,"rmax":10410,"vol":10411,"A_1":10412,"99999999999":10413,"DVSR":10414,"Parent":10415,"3332":10416,"minute":10417,"sum_num":10418,"_dup":10419,"の要素を":10420,"isp":10421,"訪問":10422,"Log":10423,"Dep":10424,"FG":10425,"1097":10426,"use_":10427,"list_A":10428,"koho":10429,"trace":10430,"780":10431,"VK":10432,"XB":10433,"li1":10434,"nowx":10435,"]))%":10436,"data2":10437,"s_a":10438,"77753":10439,"STX":10440,"DBG":10441,"1211":10442,"]=='?":10443,"fileno":10444,"DB":10445,"Jb":10446,"Oh":10447,"Sto":10448,"X_dum":10449,"aN":10450,"cba":10451,"num_v":10452,"base_10_to_n":10453,"iron":10454,"must":10455,"Hl":10456,"o8":10457,"x8":10458,"1e10":10459,"-{":10460,"FAC":10461,"s8":10462,"挿入":10463,"ends":10464,"_cal":10465,"dfs2":10466,"_T":10467,"dxy":10468,"478":10469,"Lst":10470,"で初期化":10471,"proces":10472,"35755":10473,".\"\"\"":10474,"HM":10475,"yk":10476,"getInt":10477,"53355":10478,"_cards":10479,"X_dumy":10480,"u7":10481,"向グラフ":10482,"s_2":10483,"Decre":10484,"fPtr":10485,"AutoDecre":10486,"AutoDecrefPtr":10487,"949":10488,"Dif":10489,"TG":10490,"yz":10491,"に入":10492,"sel":10493,"count_1":10494,"lowest":10495,"6567":10496,"Height":10497,"o0":10498,"進数":10499,"')]*":10500,"BU":10501,"XA":10502,"ラス":10503,"ank":10504,"stx":10505,"hea":10506,")},":10507,"CSF":10508,"f0f0f0f0":10509,"713":10510,"930":10511,">;":10512,"23322":10513,"文字目":10514,"SG":10515,"ted":10516,"vers":10517,"475":10518,"beta":10519,"tmp_sum":10520,"i2s":10521,"OUT":10522,"\")[":10523,"=[[[":10524,"37755":10525,"_walk":10526,"candy":10527,"dots":10528,"828":10529,"917":10530,"Any":10531,"kumi":10532,"ped":10533,"値は":10534,"Inv":10535,"skl":10536,"ONLINE_":10537,"\">":10538,"Tg":10539,"nmax":10540,"oz":10541,"を求め":10542,"0x33333333":10543,"されたリストa":10544,",,":10545,"uj":10546,"加算":10547,"hex":10548,"example":10549,"126":10550,"\"\"))":10551,"shop":10552,"8000":10553,"CI":10554,"qz":10555,"数列":10556,"ating":10557,"186":10558,"datas":10559,"min_v":10560,"A_B":10561,"Qa":10562,"b_count":10563,"cul":10564,"qc":10565,"separ":10566,"])<=":10567,"8787":10568,"696":10569,"idxs":10570,"Modint":10571,"\")]*":10572,"二分探索":10573,"Pre":10574,"r7":10575,"エラ":10576,"分割":10577,"33353":10578,"cost1":10579,"Vf":10580,"でに":10581,"クエリ":10582,"s_input":10583,"55773":10584,",...,":10585,"n_c":10586,"r_b":10587,"とり":10588,"の文字":10589,"del_":10590,"tmp3":10591,"5455":10592,"091":10593,"MII":10594,"DG":10595,"_dist":10596,"iX":10597,"r_n":10598,"000000000":10599,"736":10600,"concat":10601,"kkk":10602,"760":10603,":'":10604,"TX":10605,"')[":10606,"is_b":10607,"ss2nn":10608,"new_s":10609,"building":10610,"756":10611,"Flo":10612,"Hd":10613,"jsp":10614,"xys":10615,"node2":10616,"57755":10617,"min_c":10618,"++;":10619,"55375":10620,"55735":10621,"qn":10622,"296":10623,"57735":10624,"から最小":10625,"base_":10626,"File":10627,"aok":10628,"kc":10629,"stdio":10630,"s_max":10631,"recursive":10632,"_best_":10633,"nega":10634,"bat":10635,"lper":10636,"u6":10637,"inputMap":10638,"2100":10639,"Jd":10640,"Kt":10641,"RC":10642,"高い":10643,"spf":10644,"there":10645,"n_1":10646,"shu":10647,"要素x":10648,"最大の":10649,"933":10650,"Calc":10651,"くなる":10652,"())**":10653,"iple":10654,"8979":10655,")+[":10656,"_cn":10657,"next_p":10658,"environ":10659,"}}":10660,"ージ":10661,"分ける":10662,"a_lst":10663,"arguments":10664,"Hh":10665,"Qm":10666,"RN":10667,"次元配列":10668,"_row":10669,"kar":10670,"lib":10671,"r_i":10672,"kaisu":10673,"Change":10674,"speed":10675,"Gl":10676,"pS":10677,"smax":10678,"minA":10679,"factri":10680,"{}{}":10681,"37753":10682,"sigma":10683,"9999999999999":10684,"BN":10685,"w8":10686,"want":10687,"付き":10688,"先に":10689,"3335":10690,"hight":10691,"a_ls":10692,"'*'":10693,"END_":10694,"generate":10695,"dash":10696,"持つ":10697,"t_i":10698,"pare":10699,"1000001":10700,"開始":10701,"erd":10702,"kosuu":10703,"Om":10704,"qV":10705,"w6":10706,"a_n":10707,"beki":10708,"Jh":10709,"SF":10710,"simple":10711,"比較":10712,")]):":10713,"op3":10714,"cost2":10715,"monsters":10716,"read_all":10717,"input_lines":10718,"print_function":10719,"11111111111111111111111111111111":10720,"qY":10721,"分け":10722,"Com":10723,"s_n":10724,"Factorization":10725,"coordinate":10726,"fix_":10727,"read_str_n":10728,"Ver":10729,"Zr":10730,"qb":10731,"uro":10732,"ために":10733,"以下の形式":10734,"単位元":10735,"835":10736,"KY":10737,"hori":10738,"上の":10739,"isTest":10740,"896":10741,"min_count":10742,"OF_":10743,"381":10744,"XN":10745,"bst":10746,"hin":10747,"jz":10748,"()],":10749,"294":10750,"sym":10751,"blacks":10752,"_vertex":10753,"iY":10754,"たら":10755,"sed_":10756,"spac":10757,"lft":10758,"ex2":10759,"]]):":10760,"preplace":10761,"最後に":10762,"Eg":10763,"TB":10764,"TC":10765,"iの":10766,"qZ":10767,"yv":10768,"445":10769,"node_num":10770,"submiss":10771,"connected_num":10772,"Function":10773,"Visited":10774,"submissions":10775,"wm":10776,"))*(":10777,"least":10778,"score_":10779,"計算量":10780,"+{}":10781,"SN":10782,"UU":10783,"WI":10784,"h_i":10785,"sから":10786,"maps":10787,"6767":10788,"signed":10789,"transp":10790,"当に":10791,"count_b":10792,"dps":10793,"cnt_a":10794,"562":10795,"string_list":10796,"9600":10797,"ML":10798,"Sg":10799,"iから":10800,"qt":10801,"左から":10802,"sil":10803,"の場合は":10804,"argument":10805,"heapreplace":10806,"Amax":10807,"Eh":10808,"Ql":10809,"f_list":10810,"o5":10811,"以降":10812,"cks":10813,"max_k":10814,"burger":10815,"8e":10816,"けない":10817,"replacement_":10818,"wari":10819,"of_found":10820,"hyou":10821,"read_float_n":10822,"replacement_of_found":10823,"-{}":10824,"FU":10825,"_parent":10826,"_rev":10827,"ov":10828,"必ず":10829,"splitlines":10830,"482":10831,"'))))":10832,"drop":10833,"920":10834,"RP":10835,"ング":10836,"53375":10837,"num_1":10838,"spaces":10839,"EJ":10840,"IC":10841,"右に":10842,"leaves":10843,"33777":10844,"_two":10845,"gate":10846,"033":10847,"462":10848,"Kv":10849,"Vr":10850,"kb":10851,"wit":10852,"sure":10853,"enter":10854,"expected":10855,"VY":10856,"mA":10857,"ちら":10858,"37737":10859,"dense":10860,"1234567":10861,"TEXT":10862,"0から":10863,"uw":10864,"が入":10865,"生成":10866,"順番":10867,"ani":10868,"listB":10869,"lamp":10870,"tmp_max":10871,"5456":10872,"node1":10873,"これで":10874,"reachable_to_end":10875,"reachable_from_start":10876,"Jl":10877,"_path":10878,"o7":10879,"at_start":10880,"33337":10881,"s_b":10882,"convenient":10883,"Vi":10884,"Wp":10885,"方を":10886,"aries":10887,"32334":10888,"cur_node":10889,"a_dict":10890,"ttt":10891,"optional":10892,"RCH":10893,"高速":10894,"line1":10895,"list3d":10896,"797":10897,"RF":10898,"WQ":10899,"y9":10900,"yの":10901,"のが":10902,"後ろ":10903,"))`":10904,"11112":10905,"]=='#'":10906,"dijkstr":10907,"END_OF_":10908,"`.":10909,"hum":10910,"とも":10911,"max_list":10912,")]#":10913,"nsmallest":10914,"color_list":10915,"で割った":10916,"END_OF_TEXT":10917,"30000":10918,"4100000":10919,"Hg":10920,"aList":10921,"73777":10922,"n_y":10923,"最大値を":10924,"input_methods":10925,"heap化されたリストa":10926,"973":10927,"Ki":10928,"_ep":10929,"tz":10930,"を使":10931,"元テーブル":10932,"maerd":10933,"sysread":10934,"toshi":10935,"y_i":10936,"77737":10937,"tical":10938,"逆元テーブル計算用":10939,"Kn":10940,"o4":10941,"od_":10942,"success":10943,"CM":10944,"EL":10945,"Mint":10946,"WB":10947,"sco":10948,"あと":10949,"638":10950,"逆元テーブル計算用テーブル":10951,"Row":10952,"Vb":10953,"iling":10954,"know":10955,"ーシ":10956,"logical":10957,"choco":10958,"923":10959,"HF":10960,"008":10961,"'#'):":10962,"BLACK":10963,"'(':":10964,"=<":10965,"Get":10966,"TN":10967,"o9":10968,"xB":10969,"maxl":10970,"note":10971,"440000":10972,"min_y":10973,"^{":10974,"x6":10975,"zn":10976,"max_y":10977,"9999999":10978,"csf":10979,"aft":10980,"uZ":10981,"stor":10982,"120000":10983,"part_":10984,"'*':":10985,"Begin":10986,"710":10987,"HI":10988,"_L":10989,"_re":10990,"4800":10991,"ference":10992,"char_list":10993,"Points":10994,"983":10995,"lent":10996,"lose":10997,"min_d":10998,"GX":10999,"JUD":11000,"oj":11001,"keisuu":11002,"606":11003,"]==\"?\":":11004,"2001":11005,"\"...\"":11006,"coordinates":11007,"1d":11008,";;":11009,"_line":11010,"_inf":11011,"xA":11012,"(\"<":11013,"linalg":11014,"triangle":11015,"Rg":11016,"異なる":11017,"allow_":11018,"ITE":11019,"Edges":11020,"取り出す時は":11021,"expect":11022,"\"]))":11023,"を用":11024,"this_":11025,"max_s":11026,"ls2":11027,"plat":11028,"貪欲法":11029,"GD":11030,"b_c":11031,"ラン":11032,"waru":11033,"与えられます":11034,"BTC":11035,"??????????????":11036,"\"(\":":11037,"JA":11038,"](":11039,"_now":11040,"_of":11041,"閉路":11042,"printf":11043,"A_sum":11044,"SSS":11045,"zahyo":11046,"を作成":11047,"ans_b":11048,"hid":11049,"rown":11050,"fee":11051,"(\"#\"*":11052,"greed":11053,"ead":11054,"を探す":11055,"input_num":11056,"max_right":11057,"MARCH":11058,"PyPy":11059,"すべての":11060,"Depth":11061,".*":11062,"Wt":11063,"uY":11064,"まま":11065,"変更":11066,"左端":11067,"選択":11068,"combs":11069,"408":11070,"newlist":11071,"aの昇順":11072,"によって":11073,"910":11074,"QS":11075,"_range":11076,"_readline":11077,"ting":11078,"group_num":11079,"SortedDict":11080,"多い":11081,"ans_a":11082,"dic_":11083,"::::":11084,"fileobject":11085,"truncate":11086,"0001":11087,"x_2":11088,"BBB":11089,"Zf":11090,"に更新":11091,"rease":11092,"(\"+":11093,"sharp":11094,"character":11095,"Og":11096,"(\"/":11097,"1110":11098,"]==\"#\"":11099,"sizes":11100,"&(-":11101,"Wi":11102,"cg":11103,"右端":11104,"n_q":11105,"two_":11106,"Loop":11107,"cook":11108,"(\">":11109,"77337":11110,"952":11111,"Ya":11112,"_type":11113,"lint":11114,"see":11115,"resp":11116,"())[:-":11117,"))[::-":11118,"lear":11119,"iostream":11120,"Math":11121,"すでに":11122,"a_li":11123,"からなる":11124,"EG":11125,"Za":11126,"ステ":11127,"dia":11128,"nag":11129,"platform":11130,"JU":11131,"Sub":11132,"WN":11133,"\",\".":11134,"loops":11135,"slove":11136,"XU":11137,"_pre":11138,"kh":11139,"w5":11140,"くる":11141,"の合計":11142,"atch":11143,")]==":11144,"_list_":11145,"buff_readline":11146,"r_min":11147,"ly_":11148,"s9":11149,"vm":11150,"xq":11151,"yC":11152,"はない":11153,"参考":11154,"spot":11155,"check2":11156,"aの降順":11157,"jl":11158,"tre":11159,"exponent":11160,"6788":11161,"ylist":11162,"listed":11163,"])>=":11164,"34544":11165,"is_p":11166,"[[]]":11167,"JUDGE":11168,"her":11169,"wz":11170,"前の":11171,"(\"=":11172,"5656":11173,"Nodes":11174,"条件を満たす":11175,"451":11176,"DU":11177,"El":11178,"Jg":11179,"sume":11180,"tmp_a":11181,"CEIL":11182,"CNT":11183,"Dou":11184,"mig":11185,"y7":11186,"lay":11187,"'#']":11188,"KW":11189,"Vp":11190,"]#":11191,"_py":11192,"xz":11193,"の最小値":11194,"slime":11195,"928":11196,":[]":11197,"Kq":11198,"OX":11199,"Vt":11200,"y6":11201,"max_dist":11202,"xh":11203,"引く":11204,"約数を":11205,"])),":11206,"subtra":11207,"Inverse":11208,"A_2":11209,"akes":11210,"view":11211,"JT":11212,"wq":11213,"ゴール":11214,"出し":11215,"小数":11216,"7735":11217,"172":11218,"8788":11219,")*((":11220,"min_p":11221,"n_x":11222,"ans_lst":11223,"Second":11224,"よりも":11225,"csgraph_from_":11226,"Factorial":11227,"なかった":11228,"_candidate":11229,"csgraph_from_dense":11230,"QD":11231,"_buffer":11232,"\"/":11233,"End":11234,"Qh":11235,"Vg":11236,"xと":11237,"602":11238,"346":11239,"37773":11240,"c_max":11241,"ii2":11242,"\"*\":":11243,"labels":11244,"inv_fact":11245,"schedule":11246,"743":11247,"Kf":11248,"_load":11249,"}$":11250,"temp_list":11251,"joint":11252,"ruisekiwa":11253,"'##'":11254,"966":11255,":]+":11256,":]]":11257,"Qg":11258,"_in_":11259,"ki_":11260,"o_":11261,"seat":11262,"ans0":11263,"decomposition":11264,"ctest":11265,"isOK":11266,"5432":11267,"starmap":11268,"doctest":11269,"new_node":11270,"l_i":11271,"EO":11272,"jr":11273,"jv":11274,"sB":11275,"xo":11276,"y8":11277,"yB":11278,"~-":11279,"8989":11280,"min_n":11281,"LSI":11282,"ってる":11283,"prime_factorization":11284,"root_x":11285,"または":11286,"400000":11287,"pub":11288,"wmax":11289,"みたい":11290,"代入":11291,"辺を":11292,"list_s":11293,"dp_x":11294,"cost_list":11295,"','')":11296,"7200":11297,"ROUND_CEIL":11298,"ROUND_CEILING":11299,"FX":11300,"Zu":11301,"_diff":11302,"実装":11303,"205":11304,"neta":11305,"result_list":11306,"iim":11307,"3444":11308,"要素数":11309,"なくて":11310,"student":11311,"748":11312,"QX":11313,"Slist":11314,"Wc":11315,"input2":11316,"maxlen":11317,"bucket":11318,"radius":11319,"Zb":11320,"534":11321,"2016":11322,"7877":11323,"必要な":11324,"QP":11325,"Qd":11326,"Zp":11327,"iip":11328,"zq":11329,"つの":11330,"5434":11331,"a_int":11332,"jud":11333,"COUN":11334,"euclid":11335,"_points":11336,"iL":11337,"south":11338,"__len":11339,"maxh":11340,"sumlist":11341,"ab_":11342,"flag_":11343,"175":11344,"b_sum":11345,"delta_":11346,"from_start":11347,"ほうが":11348,"0x3333333333333333":11349,"JD":11350,"Yf":11351,"Zv":11352,"538":11353,"tour":11354,"qiita":11355,"kitai":11356,"'/":11357,"50000":11358,"FA":11359,"stri":11360,"ことを":11361,"Beginner":11362,"726":11363,"Vu":11364,"を更新":11365,"alst":11366,"1j":11367,"Dig":11368,"EC":11369,"Va":11370,"gray":11371,"}]":11372,"くだ":11373,"前に":11374,"point_list":11375,"階乗の":11376,"OB":11377,"sab":11378,"ただ":11379,"解説":11380,"重さ":11381,"');":11382,"tmp_score":11383,"ucas":11384,"potent":11385,"happiness":11386,"Parse":11387,"Vk":11388,"続く":11389,"][:]":11390,"55553":11391,"twor":11392,"に行く":11393,"7e":11394,":{}":11395,"HA":11396,"Jn":11397,"Yt":11398,"置き":11399,"])!=":11400,"-=(":11401,"asarray":11402,"min_sum":11403,"35353":11404,"ans_str":11405,"msg":11406,"evalu":11407,"bonus":11408,"隣接リスト":11409,":{":11410,"OG":11411,"instr":11412,"removed":11413,"coin_":11414,"then":11415,"4433":11416,"vertical":11417,"252":11418,"memo2":11419,"]%(":11420,"Add":11421,"DN":11422,"QF":11423,"Yv":11424,"vali":11425,"CN":11426,"fri":11427,"lue":11428,"バー":11429,"77557":11430,"look":11431,"such":11432,"sub_":11433,"div2":11434,":{}\".":11435,"Yp":11436,"o6":11437,"zb":11438,"hello":11439,"LI1":11440,"tree_":11441,"の最小値を":11442,"9f":11443,"BM":11444,"CU":11445,"Wu":11446,"dll":11447,"zt":11448,"des":11449,"min_price":11450,"_cut":11451,"votes":11452,"jh":11453,"rk":11454,"のインデックス":11455,"正直":11456,"結合":11457,"score_list":11458,"outputs":11459,"Bingo":11460,"XI":11461,"bra":11462,"ケース":11463,"==>":11464,"dpi":11465,"298":11466,"to_end":11467,"CODE":11468,"Yb":11469,"そこ":11470,"定義":11471,"another":11472,"ac_list":11473,"77757":11474,"zyx":11475,"Grid":11476,"proper":11477,"piece":11478,"#++++":11479,"']),":11480,"ILL":11481,"KN":11482,"card_":11483,"mg":11484,"じゃ":11485,"最短距離":11486,"retval":11487,"')):":11488,"LEN":11489,"Result":11490,"kuri":11491,"slen":11492,"anima":11493,"????????????????????":11494,"read_int_list":11495,"切り上げ":11496,"逆元のリスト":11497,"keisuu_":11498,"animals":11499,"9e":11500,"L_list":11501,"Wh":11502,"XP":11503,"carry":11504,"jit":11505,"()==":11506,"872":11507,"phase":11508,"_children":11509,"732":11510,"nR":11511,"ベクト":11512,"])%(":11513,"fici":11514,"=[],[]":11515,"NOW":11516,"\"))))":11517,"ベクトル":11518,"QC":11519,"Vv":11520,"jZ":11521,"mat_":11522,"tmp_b":11523,">>(":11524,"commands":11525,"これは":11526,"終点":11527,"1223":11528,"12212":11529,"usa":11530,"2232":11531,"2234":11532,"divi":11533,"goods":11534,"cA":11535,"ency":11536,"10e":11537,"min2":11538,"dic_c":11539,"Divisors":11540,"+((":11541,"4f":11542,"Bor":11543,"Class":11544,"二部":11545,"前処理":11546,"sais":11547,"75533":11548,"ここで":11549,"???????????????":11550,"IE":11551,"zp":11552,"の情報":11553,"__readline":11554,"isdigit":11555,"unused":11556,"__len__":11557,"']))":11558,"0e":11559,"4e":11560,"MSRL":11561,"の倍数":11562,"法では":11563,"無理":11564,"retlist":11565,"sum_of_":11566,"reds":11567,"has_":11568,"all_apply":11569,"(!":11570,"箇所":11571,"section":11572,"(\"##":11573,"now_x":11574,"min_distance":11575,"from_iterable":11576,"Cir":11577,"Vn":11578,"zW":11579,"enable":11580,"maxval":11581,"12112":11582,"6677":11583,"-----":11584,"c_sum":11585,"_sushi":11586,"LRD":11587,"fastio":11588,"Zh":11589,"_file":11590,"ちょ":11591,"桁目":11592,"enc":11593,"srq":11594,"並び替え":11595,"qv":11596,"__sub__":11597,"also":11598,"tag":11599,"substring":11600,"sosuu":11601,"'+'+":11602,"find_row":11603,"elap":11604,"GU":11605,"f_i":11606,"hgf":11607,"だった":11608,"appea":11609,"ity_":11610,"1210":11611,"fail":11612,"8767":11613,"max_d":11614,"a_array":11615,"53335":11616,"*-*-":11617,"lis2":11618,"tuples":11619,"word_list":11620,"LMIIS":11621,"2_":11622,"_no":11623,"jt":11624,"セグ":11625,"12232":11626,"tower":11627,"s_in":11628,"791":11629,"loop_start":11630,"_with":11631,"sink":11632,"menu":11633,"で割り":11634,"'...'":11635,"dijkstra_":11636,"RM":11637,"cst":11638,"mlist":11639,"nes":11640,"north":11641,"wH":11642,"\")==":11643,"dpb":11644,"1817":11645,"[[[[":11646,"bin_str":11647,"ranks":11648,"============":11649,"mlk":11650,"licates":11651,"751":11652,"JX":11653,"Kp":11654,"OC":11655,"iIn":11656,"全体":11657,"管理":11658,"())[":11659,"diag":11660,"loss":11661,"week":11662,"b_1":11663,"COM":11664,"\"*\"":11665,"monoid":11666,"926":11667,"Ka":11668,"QL":11669,"どちら":11670,"のマス":11671,"書か":11672,"mary":11673,"**(-":11674,"topo":11675,"1419":11676,"&#":11677,"FD":11678,"arc":11679,"countA":11680,"35553":11681,"mize":11682,"のときは":11683,"compress":11684,"4u":11685,"bi_":11686,"ible":11687,"引数":11688,"本当に":11689,"ail":11690,"check1":11691,"Nums":11692,"TestCase":11693,"operations":11694,"ONLINE_JUDGE":11695,"5b":11696,"GP":11697,"dprint":11698,"こう":11699,"dp_y":11700,"helper":11701,"isSame":11702,"networ":11703,"reachable_from":11704,"200001":11705,"nxt_v":11706,"C_list":11707,"Kg":11708,"Wm":11709,"cmin":11710,"nの":11711,"oct":11712,"あまり":11713,"stage":11714,"33232":11715,"max_p":11716,"max_distance":11717,"xy2":11718,"55335":11719,"SortedKey":11720,"closure":11721,"(\">\")":11722,"SortedKeyList":11723,"5a":11724,"b_num":11725,"kame":11726,"qo":11727,"zd":11728,"ョン":11729,"品物":11730,"named":11731,"_hand":11732,"BRR":11733,"XM":11734,"_D":11735,"wZ":11736,"mapint":11737,"33212":11738,"dis_":11739,"chmax":11740,"max_b":11741,"p2D":11742,"9200":11743,"zont":11744,"qm":11745,"は素数":11746,"DP法では":11747,"Tuple":11748,"貪欲法か":11749,"本当に貪欲法か":11750,"eg":11751,"ton":11752,"させる":11753,"len1":11754,"line2":11755,"operate":11756,"func_":11757,"492":11758,")==(":11759,"ii2ss":11760,"JR":11761,"SM":11762,"Wb":11763,"Wv":11764,"を入れる":11765,"ume":11766,")+\":":11767,"i_map":11768,"S_LIST":11769,"before_":11770,"puz":11771,"左側":11772,"33333":11773,"BI":11774,"JP":11775,"Mon":11776,"dlist":11777,"nas":11778,"示す":11779,"35355":11780,"prime_decomposition":11781,"Indexed":11782,"_both_":11783,"UC":11784,"_M":11785,"_offset":11786,"と同じ":11787,"ポイン":11788,"in1":11789,"num_a":11790,"53573":11791,"_small":11792,"syou":11793,"braries":11794,"要素を":11795,"www":11796,"小数点":11797,"8b":11798,"FE":11799,"KA":11800,"iD":11801,"n_b":11802,"アル":11803,"S_MAP":11804,"arrived":11805,"HC":11806,"pap":11807,"個目":11808,"endswith":11809,"index_list":11810,"s_sum":11811,"a_lcm":11812,"n_s":11813,"整数の入力":11814,"examD":11815,"(+":11816,"6a":11817,"FP":11818,"cG":11819,"s7":11820,"の組み合わせ":11821,"anum":11822,"325":11823,"INFTY":11824,"dist_u":11825,"しまう":11826,"srqpon":11827,",)":11828,"-~":11829,"iA":11830,"tlist":11831,"utsrqpon":11832,"tmps":11833,"537577":11834,"last_d":11835,"examC":11836,"TFTFTFTFTFTFTFTFTFTFTFTFTFTFTFTF":11837,"(\"<\")":11838,"mlkji":11839,"utsrqponmlkji":11840,"(('":11841,"TOD":11842,"Zt":11843,"ボール":11844,"trailing":11845,"wvutsrqponmlkji":11846,"hgfed":11847,"+\"\\":11848,"_R":11849,"dA":11850,"kf":11851,"vlist_":11852,"に含まれる":11853,"count_a":11854,"min_b":11855,"840000":11856,"abcde":11857,"kaisuu":11858,"personal":11859,"bubble_sort":11860,"sheet":11861,"ください":11862,"Asum":11863,"JG":11864,"iM":11865,"r_max":11866,"446":11867,"max_point":11868,"c_1":11869,"dfs_from_start":11870,"dfs_to_end":11871,"MAX_INT":11872,"wvutsrqponmlkjihgfed":11873,"bcnt":11874,"mut":11875,"sY":11876,"メント":11877,"今回":11878,"[];":11879,"4432":11880,"Primes":11881,"Const":11882,"sgn":11883,"components":11884,"FN":11885,"Kl":11886,"uq":11887,"██":11888,"value_list":11889,"優先探索":11890,"(\"=\")":11891,"gI":11892,"kuro":11893,"wV":11894,"切れる":11895,"ish":11896,"-------":11897,"max_length":11898,"LI2":11899,"doc":11900,"inpm":11901,"tie":11902,"WHITE":11903,":,":11904,"<==>":11905,"FB":11906,"_graph":11907,"yq":11908,"部屋":11909,"()[:":11910,"00ff":11911,"pad":11912,"_case":11913,"77755":11914,"wei":11915,"read_col":11916,"input_int":11917,"55775":11918,"memory":11919,"channe":11920,"2f":11921,"9b":11922,"rgt":11923,"の制限":11924,"ダメ":11925,"anst":11926,"count0":11927,"maxim":11928,"dam":11929,"t_len":11930,"nowy":11931,"zyxwvutsrqponmlkjihgfed":11932,"UA":11933,"Yh":11934,"の更新":11935,"data1":11936,"r_cnt":11937,"3001":11938,"lgn":11939,"////////":11940,"終わり":11941,"GRA":11942,"gX":11943,"zl":11944,"返します":11945,"違う":11946,"reversed_":11947,"row_list":11948,"Base_10_to_n":11949,"HG":11950,"Wl":11951,"pip":11952,"|(":11953,"どこ":11954,"構築":11955,"除く":11956,"anti":11957,"stem":11958,"3323":11959,"ex1":11960,"lot":11961,"1529":11962,"557533":11963,"i_input":11964,"いくつ":11965,"825":11966,"aL":11967,"wY":11968,"000000000000000":11969,"good_":11970,"currentCycle":11971,"reachable_from_both_":11972,"reachable_from_both_sides":11973,"QB":11974,"far":11975,"ベル":11976,"round_":11977,"12344":11978,"set1":11979,"1949":11980,"heapL":11981,"num_2":11982,"total_cost":11983,"personal_best_":11984,"QG":11985,"eh":11986,"jY":11987,"zV":11988,"自身":11989,"s_cnt":11990,"y_1":11991,"入力を":11992,"################################################":11993,"my_module":11994,"down_":11995,"-((":11996,"2b":11997,"4b":11998,"Adj":11999,"OI":12000,"後の":12001,"perf":12002,"A_n":12003,"最小値":12004,"initial_":12005,"neighbors":12006,"pieces":12007,"1から":12008,"916":12009,"jb":12010,"oq":12011,"tim":12012,"か判定":12013,"方法":12014,"時点":12015,"lenT":12016,"mess":12017,"dist1":12018,"s2nn":12019,"33335":12020,"35775":12021,"actual":12022,"より大きい":12023,"total_time":12024,"pls":12025,"xZ":12026,"オリ":12027,"何も":12028,"演算":12029,"mine":12030,"cha":12031,"s_h":12032,"35773":12033,"boxes":12034,"最後の":12035,"players":12036,"namedtuple":12037,"Wd":12038,"dur":12039,"らす":12040,"をつ":12041,"inversion":12042,"('',":12043,"acgt":12044,"35555":12045,"の数が":12046,"candies":12047,"#+++++":12048,"HL":12049,"UI":12050,"7767":12051,"73377":12052,"constexpr":12053,"bunshi":12054,"len_S":12055,"jq":12056,"sita":12057,"zY":12058,"33233":12059,"strp":12060,"_fol":12061,"instead":12062,"Board":12063,"Functions":12064,"'==":12065,"948":12066,"Kb":12067,"Kh":12068,"Wn":12069,"iを":12070,"スの":12071,"anten":12072,"onem":12073,"subclass":12074,"icase":12075,"symb":12076,"renzoku":12077,"root_y":12078,"の整数の入力":12079,"繰り返":12080,"Borys":12081,"0の":12082,"UB":12083,"jm":12084,"されて":12085,"thread":12086,"dpa":12087,"datasets":12088,"A_p":12089,"tests":12090,"make_factorial_list":12091,"GBRB":12092,"GBBRR":12093,"(\".\",":12094,"\"@":12095,"Vl":12096,"gP":12097,"zm":12098,"ッド":12099,"counta":12100,"\")\":":12101,"modfactorial_list":12102,"result2":12103,"time_":12104,"get_num":12105,"が属するグループ":12106,"#@":12107,"HD":12108,"fabs":12109,"評価":12110,"3321":12111,"read_values":12112,"examB":12113,"ただし":12114,"+{":12115,"FC":12116,"ItoS":12117,"cntA":12118,"readChar":12119,"75577":12120,"dbg":12121,"hidari":12122,"icnt":12123,"で返す":12124,"に注意":12125,"替える":12126,"398":12127,"w_i":12128,"move_":12129,"mented":12130,"read_line":12131,"dishes":12132,"ARA":12133,"already_":12134,"Flg":12135,"WR":12136,"Wf":12137,"jf":12138,"r_count":12139,"pos2":12140,"a_set":12141,"404":12142,"ttl":12143,"priority":12144,"hands":12145,"FACT":12146,"6b":12147,"JE":12148,"使える":12149,"if_inf":12150,"292":12151,"537533":12152,"l_alp":12153,"value_if_inf":12154,"public":12155,"TODO":12156,"zyxwvutsrqponmlkjihgfedcba":12157,"!\"":12158,"761":12159,"752":12160,"Kk":12161,"させ":12162,"コード":12163,"最終":12164,"enu":12165,"__slo":12166,"isn":12167,"{})":12168,"substr":12169,"??????????":12170,"ストラ":12171,"ARR":12172,"Python3":12173,"silver":12174,"property":12175,"5d":12176,"FM":12177,"_query":12178,"ake":12179,"ending":12180,"('+":12181,"53575":12182,"a_index":12183,"alls":12184,"474":12185,"7776":12186,"extgcd":12187,"layer1":12188,"Zi":12189,"zh":12190,"print_ans":12191,"674":12192,"f0f":12193,"start_index":12194,"配列の":12195,"-------------":12196,"###############":12197,"acnt":12198,"jg":12199,"とる":12200,"回数を":12201,"edge_":12202,"tmp_min":12203,"('#',":12204,"みたいな":12205,")!":12206,"This":12207,"eo":12208,"jV":12209,"得る":12210,"7788":12211,"998":12212,"('#'*":12213,"examA":12214,"JN":12215,"Zs":12216,"ansb":12217,"list4d":12218,"--)":12219,"opp":12220,"now_y":12221,"160000":12222,"lcm_":12223,"Sequence":12224,"したもの":12225,"golem":12226,"strptime":12227,"968":12228,"=')":12229,"ress":12230,"odd_count":12231,"_same":12232,"cases":12233,"出力の制限":12234,"SLs":12235,"towns":12236,"FLAG_":12237,"potential":12238,"Lsq":12239,"QR":12240,"QT":12241,"Rot":12242,"Yu":12243,"clipboard":12244,"iin":12245,"xを":12246,"zv":12247,"フラ":12248,"ansi":12249,"12233":12250,"abs_":12251,"595":12252,"Inf":12253,"'-'+":12254,"ポイント":12255,":][::-":12256,"HX":12257,"Zk":12258,"aV":12259,"xy_":12260,"maxc":12261,"colli":12262,"get_root":12263,"elems":12264,"$-":12265,"AList":12266,"Hash":12267,"Link":12268,"fur":12269,"つまり":12270,"getNM":12271,"number_of_":12272,"_num_list":12273,"common_":12274,"signs":12275,"Stack":12276,"の要素数":12277,"ostream":12278,"(\"?\",":12279,"'<':":12280,"IB":12281,"Km":12282,"cN":12283,"hg":12284,"qf":12285,"もう":12286,"ls1":12287,"childs":12288,"delete_":12289,"のに":12290,"w_count":12291,"35735":12292,"taken":12293,"ts__":12294,"bigger":12295,"Some":12296,"sqrt_":12297,"逆元のリストを返す":12298,"z_":12299,"こっち":12300,"mate":12301,"__call":12302,"548":12303,"hou":12304,"空白区切り":12305,"__slots__":12306,"FLAG_LOG":12307,"__call__":12308,"KE":12309,"lus":12310,"せん":12311,"ペア":12312,"(\"\",":12313,"('<":12314,"key2":12315,"getRoot":12316,"count_dict":12317,"is_prime_":12318,"[\"\"]":12319,"#-*-":12320,"_plus":12321,"jn":12322,"なり":12323,"の方が":12324,"team":12325,"]))))":12326,"type_":12327,"場合の":12328,"ameters":12329,"enemy":12330,"animal":12331,"682":12332,"b_max":12333,"qk":12334,"だったら":12335,"mari":12336,"1039":12337,"34566":12338,"min_r":12339,"calculation":12340,"Circle":12341,"zontal":12342,"GL":12343,"HR":12344,"_one":12345,"()))[":12346,"abbb":12347,"6656":12348,"params":12349,"generator":12350,"scanf":12351,"_duplicates":12352,"message":12353,"0f":12354,"HN":12355,"QA":12356,"aC":12357,"iB":12358,"yf":12359,"zf":12360,"w_cnt":12361,"max_key":12362,"builtins":12363,"paper":12364,"Path":12365,"tor":12366,"dicts":12367,"current_node":12368,"Libraries":12369,"AKIHAB":12370,"GF":12371,"bai":12372,"gest_":12373,"lean":12374,"mod逆元のリストを返す":12375,"YesNo":12376,"542":12377,"SLL":12378,"Zm":12379,"cdef":12380,"gB":12381,"sW":12382,"えた":12383,"ans4":12384,"countB":12385,"life":12386,"10011":12387,"vvv":12388,"スペース区切りの整数の入力":12389,"respon":12390,":{},":12391,"Pair":12392,"eprint":12393,"fmo":12394,"l_s":12395,"uh":12396,"向き":12397,"選んだ":12398,"ato":12399,"aru":12400,"cnt_1":12401,"acm":12402,"popcnt":12403,"cons":12404,"ched_bo":12405,"Judge":12406,"suffix":12407,"_folded":12408,"({'":12409,"IU":12410,"Two":12411,"YX":12412,"ect":12413,"snu":12414,"ret2":12415,"mod_list":12416,"tern":12417,"next_i":12418,"2111":12419,"active":12420,"最大値":12421,"FILL":12422,"rle":12423,"}-{":12424,"very":12425,"362":12426,"wick":12427,"normal":12428,"書き換":12429,"cumulative":12430,"VE":12431,"_total":12432,"rsl":12433,"ゼロ":12434,"()))+[":12435,"1237":12436,"data_list":12437,"peak":12438,"diff_list":12439,"ならない":12440,"ILs":12441,"build_":12442,"collision":12443,"KJ":12444,"bsum":12445,"c_num":12446,"thresh":12447,"lace":12448,"dp_table":12449,"col_":12450,"1657":12451,"grp":12452,"976":12453,"_tra":12454,"X_list":12455,"_mat":12456,"bmax":12457,"map_int":12458,"6655":12459,"key1":12460,"ched_":12461,"Remove":12462,"フラグ":12463,"One":12464,"QI":12465,"aY":12466,"カード":12467,"負の":12468,"nums_":12469,"880000":12470,"495":12471,"min_ans":12472,"min_left":12473,"gosen":12474,"Fib":12475,"dfs_d":12476,"]=='?':":12477,"4334":12478,"941":12479,"OM":12480,"_delete":12481,"jd":12482,"であれば":12483,"minx":12484,"6667":12485,"''))":12486,"_big":12487,"added":12488,"37735":12489,"からの":12490,"b_l":12491,"KS":12492,"どの":12493,"加える":12494,"sort_":12495,"[:])":12496,"version_info":12497,"haten":12498,"approxi":12499,"765":12500,"Erat":12501,"HT":12502,"Vh":12503,"iC":12504,"kd":12505,"latter":12506,"pY":12507,"rz":12508,"rng":12509,"slow":12510,"tex":12511,"\")])":12512,"]+\"...\")":12513,"INCREF":12514,"data_":12515,"finditer":12516,"cumsum_":12517,"discount":12518,"の数は":12519,"以上の":12520,"lines_result":12521,"pow_k":12522,"Raise":12523,"Py_INCREF":12524,"approximate":12525,"8C":12526,"に入れる":12527,"増やす":12528,"足場":12529,"1249":12530,"]))]":12531,")->":12532,"methods":12533,"IME":12534,"の中で":12535,"quick_sort":12536,"Constants":12537,"2D":12538,">&":12539,"Kc":12540,"VJ":12541,"WF":12542,"Zl":12543,"aが":12544,"cakes":12545,"直線":12546,"come":12547,")])))":12548,"7787":12549,"cnt3":12550,"tmp_c":12551,"34344":12552,"pow__":12553,"count_2":12554,"globals":12555,"の最小公倍数":12556,"存在しない":12557,"入力は以下の形式":12558,"0を":12559,"EU":12560,"ua":12561,"保存":12562,"素数を":12563,"dali":12564,"geta":12565,"73733":12566,"guide":12567,"9F":12568,"_4":12569,"nul":12570,"qh":12571,"xC":12572,"クリ":12573,"ger_":12574,"listS":12575,"240000":12576,"program":12577,"cum_sum":12578,"shuff":12579,"GM":12580,"GN":12581,"Vm":12582,"WO":12583,"kJ":12584,"かの":12585,"endregion":12586,"uel":12587,"ct2":12588,"1619":12589,"parts":12590,"is_visited":12591,"counters":12592,"における":12593,"NMI":12594,"hai":12595,"read_list":12596,"outer":12597,"distance_list":12598,"nin":12599,"tY":12600,"何回":12601,"利用":12602,"右側":12603,"attr":12604,"1049":12605,"6654":12606,"8876":12607,"avl_":12608,")&(":12609,"Move":12610,"3e":12611,"EB":12612,"TEST":12613,"VQ":12614,"WC":12615,"iR":12616,"jc":12617,"nL":12618,"zed":12619,"intn":12620,"3345":12621,"53553":12622,"\":\",":12623,"s_x":12624,"の入力を":12625,"木の高さ":12626,"****************":12627,"extract":12628,"fst":12629,"pZ":12630,"げる":12631,"クル":12632,"半分":12633,"('>":12634,"{}\\":12635,"577377":12636,"577733":12637,"sum_n":12638,"box_row":12639,"postorder":12640,"saiki":12641,"migi":12642,"sabun":12643,"DA":12644,"VH":12645,"選ば":12646,"高橋":12647,"tmp_num":12648,"2969":12649,"=[];":12650,"solve2":12651,"*=-":12652,"n_cols":12653,"ない場合":12654,"kane":12655,"perf_counter":12656,"Cur":12657,"cash":12658,"rlist":12659,"フォ":12660,"ints_":12661,"mai":12662,"])][":12663,"ct1":12664,"sumB":12665,">=(":12666,"max_diff":12667,"timedelta":12668,"533377":12669,"ここに":12670,",:]":12671,"936":12672,"minc":12673,"nee":12674,"2153":12675,"入力の":12676,"6d":12677,"8d":12678,"915":12679,"wlist":12680,"関係":12681,"ansA":12682,"dfs1":12683,"n_2":12684,"next_point":12685,"b_min":12686,"len_keys":12687,"768":12688,"gD":12689,"iT":12690,"nA":12691,"uV":12692,"yet":12693,"ダイ":12694,"価値":12695,"on_":12696,"5556":12697,"=[{":12698,"all_list":12699,"min_time":12700,"home":12701,"DP2":12702,"b_index":12703,"foot":12704,"の最大公約数":12705,"Kd":12706,"hop":12707,"rY":12708,"パス":12709,"奇数の":12710,"s_w":12711,"next_town":12712,"west_":12713,"create_":12714,">-":12715,"JC":12716,"qsize":12717,"回り":12718,"角形":12719,"1013":12720,"7789":12721,"1500":12722,"REP":12723,"root_v":12724,"Warsh":12725,"blocks":12726,"duplic":12727,"最初の":12728,"tZ":12729,"たど":12730,"数は":12731,"into":12732,"'.')":12733,"75537":12734,"converter":12735,"965":12736,"kisu":12737,"lucas":12738,"pnt":12739,"次に":12740,"in_list":12741,"st2":12742,"exc":12743,"1277":12744,"874":12745,"1567":12746,"57775":12747,"aoki_":12748,"010":12749,"40000":12750,"956":12751,"IA":12752,"Name":12753,"OL":12754,"_get":12755,"dT":12756,"yh":12757,"プライ":12758,"==[":12759,"33344":12760,"edge_list":12761,"533733":12762,"mydict":12763,"_bool":12764,"Buil":12765,"auran":12766,"Author":12767,"0x0":12768,"5c":12769,"gE":12770,"kes":12771,"みる":12772,"alle":12773,"_train":12774,"サイクル":12775,"ch_col":12776,"Ele":12777,"l_a":12778,"oa":12779,"rA":12780,"tin":12781,"arra":12782,"6967":12783,"final_":12784,"ソート済み":12785,"OUTPUT":12786,"6c":12787,"GGI":12788,"日目":12789,"station":12790,"ret1":12791,"\")*":12792,"excl":12793,"1453":12794,"new_dp":12795,"adj_table":12796,"evaluate":12797,"_log":12798,"の個数を":12799,"時計":12800,"oro":12801,"rec_":12802,"sim":12803,"fibo":12804,"news":12805,"A_N":12806,"ans_i":12807,"kake":12808,"Price":12809,"'=":12810,"WJ":12811,"_sum_":12812,"qd":12813,"のindex":12814,"unsigned":12815,"ddd":12816,"------":12817,"s_index":12818,"486":12819,"formation":12820,"p_cnt":12821,"={'#':":12822,"},{":12823,"TestClass":12824,"いたら":12825,"を計算する":12826,"オリティ":12827,"プライオリティ":12828,"QN":12829,"_dp":12830,"jK":12831,"rZ":12832,"xV":12833,"[]):":12834,"358":12835,"conf":12836,"states":12837,"始点sから":12838,"appeared":12839,"dijkstra_heap":12840,",'.':":12841,"WT":12842,"mx_":12843,"表示":12844,"pred":12845,"list_1":12846,"minDist":12847,"mochi":12848,"poss":12849,"9987":12850,"modcomb":12851,"226":12852,"n_a":12853,"train_":12854,"mountain":12855,"プライオリティキュー":12856,"='.',":12857,"AAA":12858,"num_c":12859,"poly":12860,"5927":12861,"dict1":12862,"bins":12863,"sub2":12864,"S_2":12865,"KeyError":12866,"nB":12867,"wJ":12868,"ません":12869,"何個":12870,"小さ":12871,"dead":12872,"1069":12873,"55333":12874,"cnt_2":12875,"nei":12876,"starts":12877,"xy1":12878,"37335":12879,"['']":12880,"series":12881,"7b":12882,"aT":12883,"et_":12884,"king":12885,"sN":12886,"のか":12887,"lea":12888,"leg":12889,"1153":12890,"640000":12891,"array_result":12892,"ils":12893,"invfact":12894,"c_min":12895,"33720":12896,"0x55555555":12897,"Floyd":12898,"YD":12899,"cB":12900,"dpr":12901,"mys":12902,"ris":12903,"sell":12904,"apples":12905,"3343":12906,"55573":12907,"cnt_w":12908,"abi":12909,"exchange":12910,"olved":12911,"1867":12912,"8889":12913,"jou":12914,")))%":12915,"23444":12916,"d_min":12917,"置き換":12918,"Gre":12919,"Opt":12920,"jyo":12921,"zg":12922,"を配列":12923,"count_max":12924,"post_":12925,"90909":12926,"868":12927,"get_input":12928,"...]":12929,"Func":12930,"正直者":12931,"2e":12932,"Yl":12933,"mans":12934,"was":12935,"yw":12936,"固定":12937,"変換":12938,"maxNum":12939,"readints":12940,"opti":12941,"10012":12942,"1439":12943,"now2":12944,"max_color":12945,"new_a":12946,"_mapping":12947,"('.',":12948,"集合に属する":12949,"方向に":12950,"COUNT":12951,")\"\"\"":12952,"1が":12953,"5k":12954,"WD":12955,"e_list":12956,"iu":12957,"sV":12958,"list_b":12959,"count3":12960,"53555":12961,"verage":12962,"00000000000000000000":12963,"next_index":12964,"73757":12965,"topological":12966,"8c":12967,"_parents":12968,"bv":12969,"のものを":12970,"を削除":12971,"ルート":12972,"ori_":12973,"moj":12974,"662":12975,"1699":12976,"Div":12977,"shuffle":12978,"Big":12979,"FL":12980,"OA":12981,"tV":12982,"に格納":12983,"クストラ":12984,"スライ":12985,"2099":12986,"ipe":12987,"5039":12988,"2110":12989,"lrd":12990,"ダイクストラ":12991,")*-":12992,"_and":12993,"omi":12994,"枚数":12995,"disp":12996,"8789":12997,"max_1":12998,"c_2":12999,"Black":13000,"S_1":13001,"TM":13002,"ned":13003,"の座標":13004,"rtn":13005,"A_cnt":13006,"RRS":13007,"出力する":13008,"(\"#\"*(":13009,"variables":13010,"greedy":13011,"7d":13012,"alis":13013,"snum":13014,"yV":13015,"累乗":13016,"解く":13017,"tmpx":13018,"out_":13019,"get_sum":13020,"num_str":13021,"ans_dict":13022,"password":13023,"STAR":13024,"p_min":13025,"33775":13026,"\"<\":":13027,"2000000":13028,"Cal":13029,"Yk":13030,"Ym":13031,"_lcm":13032,"uous":13033,"くっ":13034,"出て":13035,"1409":13036,"533755":13037,"shou":13038,"pythonで":13039,"others":13040,"conditions":13041,"many":13042,"9Z":13043,"aA":13044,"bB":13045,"ーの":13046,"])[::-":13047,")]-":13048,"5545":13049,"rtype":13050,"prepare":13051,"100010":13052,"flg2":13053,"A_sorted":13054,"10110":13055,"rbst_":13056,"そのまま":13057,"&!":13058,"WL":13059,"ared":13060,"cnd":13061,"equ":13062,"streak":13063,"337577":13064,"Yd":13065,"k_list":13066,"nc_":13067,"用意":13068,"('=')":13069,"reads":13070,"]]>":13071,"485":13072,"tmp_1":13073,"に変換して":13074,"QM":13075,"WG":13076,"cps":13077,"dmax":13078,"、-":13079,"getInput":13080,"limii":13081,"score2":13082,"quot":13083,"d_max":13084,"shita":13085,"までで":13086,"UnionFindTree":13087,"Fizz":13088,"7w":13089,"<-":13090,"rV":13091,"ansList":13092,"kek":13093,"6789":13094,"1469":13095,"min_A":13096,"next_nodes":13097,"が存在する":13098,"べき乗":13099,"Zn":13100,"[*":13101,"_zero":13102,"mss":13103,"null":13104,"xに更新":13105,"捨て":13106,"電球":13107,"one_cnt":13108,"1427":13109,"a_idx":13110,"8389":13111,"say":13112,"l_cnt":13113,"hanten":13114,"IndexedTree":13115,"symbol":13116,"$,":13117,"ZH":13118,"arest":13119,"gusu":13120,"xG":13121,"線分":13122,"decrement":13123,"len2":13124,"1213":13125,"8039":13126,"conn":13127,"trl":13128,"458":13129,"i_1":13130,"num_of":13131,"disable":13132,"prime_numbers":13133,"3685477":13134,"728":13135,"9C":13136,"WX":13137,"none":13138,"phi":13139,"を入力":13140,"イド":13141,"行ける":13142,"\")\"":13143,"dame":13144,"s_pos":13145,"sump":13146,"37775":13147,"divid":13148,"より小さい":13149,"multiply":13150,"Blue":13151,"_cumsum":13152,"の総数":13153,"'(":13154,"011":13155,"YS":13156,"wu":13157,"矛盾":13158,"())])":13159,"mind":13160,"unding":13161,"checking":13162,"score1":13163,"ION":13164,"リスト取得":13165,"0400":13166,"Buzz":13167,"962":13168,"WM":13169,"hun":13170,"とした":13171,"ンス":13172,"選び":13173,"list_num":13174,"53535":13175,"olution":13176,"set_a":13177,"':',":13178,"2269":13179,"matri":13180,"533577":13181,"dump":13182,"get_size":13183,"_to_key":13184,"以上の最小":13185,"filename":13186,"ーション":13187,"*)":13188,"785":13189,"9d":13190,"EM":13191,"JL":13192,"Zd":13193,"[('":13194,"yel":13195,"に戻":13196,"1033":13197,"1145":13198,"1319":13199,"'.'):":13200,"d_i":13201,"####################":13202,"loop_num":13203,"LCA_":13204,"LazySegmentTree":13205,"TypeError":13206,"935":13207,"Imple":13208,"iS":13209,"ワープ":13210,"map_":13211,"edg":13212,"804":13213,"c_n":13214,"_after":13215,"i_2":13216,"abc127":13217,"Integer":13218,"LCA":13219,"スタート地点":13220,"Diff":13221,"782":13222,"8y":13223,"VS":13224,"og":13225,"counting":13226,"sumi":13227,"22344":13228,"5419":13229,"temp_sum":13230,"275":13231,"846":13232,"n_str":13233,"straight":13234,"divisor_list":13235,"tail_":13236,"runrun":13237,"958":13238,"aH":13239,"kH":13240,"inde":13241,"seed_":13242,"diment":13243,"6676":13244,"get_read_func":13245,"num_dict":13246,"に変更":13247,"エラト":13248,"(~":13249,"7z":13250,"Yc":13251,"で表":13252,"・・":13253,"inputNum":13254,"5307":13255,"assume":13256,"Unite":13257,"calc_score":13258,"BinaryIndexedTree":13259,"337203685477":13260,"5j":13261,"tlr":13262,"(\"*":13263,"1217":13264,"today_":13265,"tmpans":13266,"s_tmp":13267,"restauran":13268,"find_shortest":13269,"までの距離":13270,"337203685477580":13271,"kisuu":13272,"rates":13273,"保持":13274,"anag":13275,"ansC":13276,"tou":13277,"2079":13278,"LCS":13279,"examE":13280,"rotate_":13281,"characters":13282,"ステネ":13283,"エラトステネ":13284,"';":13285,"0m":13286,"Euler":13287,"VC":13288,"aJ":13289,"gN":13290,"sR":13291,"decess":13292,"1289":13293,"2011":13294,"matches":13295,"a_tmp":13296,"533737":13297,"patty":13298,"diff2":13299,"357377":13300,"destination":13301,"divider":13302,"#--------------------------------":13303,"9w":13304,"EA":13305,"KH":13306,"KP":13307,"iW":13308,"sL":13309,"ansa":13310,"list0":13311,"ites":13312,"')*":13313,"1424":13314,"tmp_x":13315,"2333":13316,"KIHB":13317,"MMMMMMMM":13318,"}]')":13319,"8777":13320,"PAT":13321,"ZL":13322,"eye":13323,"gC":13324,"nN":13325,"sList":13326,"vH":13327,"wL":13328,"いける":13329,"inspect":13330,"coup":13331,"()))[::-":13332,"minnum":13333,"faction":13334,"prog":13335,"rival":13336,"AOJ":13337,"_prime":13338,"37573":13339,"que2":13340,"2211":13341,"]))+":13342,"\".\"):":13343,"invf":13344,"しても":13345,"の時は":13346,"played":13347,"concaten":13348,"$)":13349,"Aの":13350,"With":13351,"ZO":13352,"cnum":13353,"vI":13354,"whole":13355,"があれば":13356,"素数の":13357,"(\"{:":13358,"set_val":13359,"usiro":13360,"2457":13361,"1429":13362,"1627":13363,"orem":13364,"355377":13365,"pattern_":13366,"計算する":13367,"linked_list":13368,"2n":13369,"KC":13370,"dmp":13371,"imon":13372,"を考える":13373,"クラス":13374,"証言":13375,"inint":13376,"))),":13377,"')==":13378,"1459":13379,"2819":13380,"SRR":13381,"zzzz":13382,"7x":13383,"YB":13384,"が必要":13385,"295":13386,"powmod":13387,"c_odd":13388,"8269":13389,"sub1":13390,"A_set":13391,"kaijyo":13392,"])+\"":13393,"all_prod":13394,"5667":13395,"回数が":13396,"+%":13397,"JS":13398,"KD":13399,"ZG":13400,"bA":13401,"57553":13402,"1369":13403,"()]))":13404,"s_s":13405,"8369":13406,"term":13407,"する時に":13408,"new_v":13409,"l_1":13410,"input_text":13411,"in_str":13412,"propagate_":13413,"6777":13414,"8a":13415,"Item":13416,"b_s":13417,"miti":13418,"sC":13419,"edit":13420,"3719":13421,"1499":13422,"pos1":13423,"すること":13424,"next_n":13425,"b_2":13426,"negs":13427,"LRC":13428,"num_of_input":13429,"922337203685477580":13430,"subtract":13431,"7a":13432,"758":13433,"B_i":13434,"NAB":13435,"psum":13436,"pc_":13437,"tic":13438,"かかる":13439,"があ":13440,"イッチ":13441,"スイッチ":13442,"ranges":13443,"())%":13444,"retsu":13445,"57573":13446,"3299":13447,"),-":13448,"0000000000":13449,"siki":13450,"5099":13451,"LIMI":13452,"cumprod":13453,"5153":13454,"MI_":13455,"students":13456,"各頂点への最短距離":13457,"doesn":13458,"dimentional":13459,"JB":13460,"Zc":13461,"_pair":13462,"turu":13463,"maxw":13464,"()));":13465,"12234":13466,"...)":13467,"agc0":13468,"containing":13469,"行目に":13470,"(|":13471,"6j":13472,"681":13473,"VX":13474,"YP":13475,"dX":13476,"ファ":13477,"inline":13478,"las":13479,"exe":13480,"shif":13481,"sum_max":13482,"num_max":13483,"ans_set":13484,"Print":13485,"35335":13486,"choices":13487,"('?','":13488,"yellow":13489,"-%":13490,"ZX":13491,"ben":13492,"cerr":13493,"gR":13494,"nQ":13495,"右から":13496,"standard":13497,"558":13498,"mozi":13499,"1907":13500,"ch1":13501,"scc":13502,"353377":13503,"addition":13504,"577737":13505,"からの距離":13506,"1123":13507,"hash_":13508,"までに":13509,"merged":13510,"MAX_NUM":13511,"'('":13512,"VR":13513,"VT":13514,"oh":13515,"ana":13516,"arrange":13517,"1279":13518,"kets":13519,"dist_list":13520,"[[],":13521,"JI":13522,"KF":13523,"aS":13524,"mR":13525,"rW":13526,"を1":13527,"ines":13528,"ences":13529,"')':":13530,"ram":13531,"content":13532,"max_e":13533,"a_c":13534,"inp_size":13535,"orders":13536,"入力整数":13537,"ties":13538,"intersect":13539,"(\"?\",\"":13540,"986":13541,"961":13542,"_I":13543,"_g":13544,"_heap":13545,"lH":13546,"pg":13547,"互い":13548,"立っている":13549,"st1":13550,"')'":13551,"320000":13552,"2053":13553,"contest_":13554,"2239":13555,"tempx":13556,"start_point":13557,"('#'*(":13558,"Format":13559,"5y":13560,"762":13561,"946":13562,"KX":13563,"ZU":13564,"iが":13565,"vJ":13566,"zD":13567,"角度":13568,"inlist":13569,"+=((":13570,"rou":13571,"('{}'.":13572,"tmptmp":13573,"]+'...')":13574,"sorted_A":13575,"bisect_key":13576,"thest":13577,"LazySegTree_":13578,"factrial":13579,"('>')":13580,"YG":13581,"hone":13582,"ness":13583,"occ":13584,"を探索":13585,"仮定":13586,"表記":13587,"足し":13588,"maxd":13589,"maxy":13590,"1889":13591,"ch_r":13592,"1789":13593,"config":13594,"invalid":13595,"bitごと":13596,"ので注意":13597,"LLIN_":13598,"などは":13599,"('<')":13600,"seed_primes":13601,"#,":13602,"が行":13603,"そも":13604,"の前":13605,"のべき乗":13606,"考慮":13607,"delit":13608,"2097":13609,"flag3":13610,"scr":13611,"rib":13612,"n_i":13613,"i_n":13614,"\"#\"]":13615,"searchsorted":13616,"_sums":13617,"count_0":13618,"testimon":13619,"読み込んで":13620,"battle":13621,"Vd":13622,"nX":13623,"xS":13624,"でやる":13625,"rans":13626,"once":13627,"dpl":13628,"],\"":13629,"t_count":13630,"t_max":13631,"5049":13632,"odd_list":13633,"852":13634,"7677":13635,"fect":13636,"myinput":13637,"v_cost":13638,"_idx1":13639,"backward":13640,"sentine":13641,"Short":13642,"cmp_to_key":13643,"123456789":13644,",)},":13645,"3回":13646,"9c":13647,"VP":13648,"[''.":13649,"_H":13650,"aR":13651,"aid":13652,"fQ":13653,"har":13654,"ler":13655,"wE":13656,"だめ":13657,"5565":13658,"('##":13659,"summary":13660,"4454":13661,"395":13662,"s_p":13663,"a_new":13664,"y_2":13665,"nagasa":13666,"+\":":13667,"2回":13668,"8j":13669,"YU":13670,"]&":13671,"b_a":13672,"rcnt":13673,"tlen":13674,"zH":13675,"まと":13676,"arc0":13677,"count_bit":13678,"6099":13679,"34567":13680,"edges_":13681,"2837":13682,"diff1":13683,"POW":13684,"blues":13685,"current_position":13686,"hito":13687,"senger":13688,"を格納する":13689,"繰り返し":13690,"7q":13691,"Lmax":13692,"WP":13693,"YH":13694,"ZT":13695,"car":13696,"c11":13697,"大小":13698,"ans_s":13699,"counted":13700,"')])":13701,"535377":13702,"535577":13703,"1859":13704,"t_index":13705,"694":13706,"sum_l":13707,"9877":13708,"sole":13709,"_push":13710,"ushiro":13711,"移動する":13712,"f0f0f0f":13713,"VG":13714,"Zg":13715,"_INT":13716,"nck":13717,"plot":13718,"で最大":13719,"常に":13720,"辺の数":13721,"orange":13722,"rel_":13723,"1009":13724,"1753":13725,"8353":13726,"even_count":13727,"_warp":13728,"75373":13729,"start_time":13730,"cycles":13731,"chosen":13732,"それ以外":13733,"6o":13734,"9j":13735,"9q":13736,"aX":13737,"c_b":13738,"rli":13739,"}=":13740,"enqueue":13741,"as_string":13742,"1489":13743,"2939":13744,"]]-=":13745,"LII":13746,"あるか":13747,"Pow":13748,"iled":13749,"の値が":13750,"二部探索":13751,"EI":13752,"KO":13753,"_u":13754,"aと":13755,"euler":13756,"jdx":13757,"kg":13758,"zX":13759,"の人":13760,"分探索":13761,"fort":13762,"5527":13763,"1260":13764,"]=\"#\"":13765,"1511":13766,"ii2nn":13767,"tmp_y":13768,"'>':":13769,"hN":13770,"yが同じ":13771,"inputFile":13772,"000001":13773,"dpt":13774,"9989":13775,"gcd2":13776,"Exist":13777,"可能な":13778,"boolean":13779,"concatenate":13780,"%.":13781,"KL":13782,"KR":13783,"Top":13784,"VF":13785,"aは":13786,"jH":13787,"nまでの":13788,"vF":13789,"wB":13790,"両方":13791,"関数の":13792,"rol":13793,"1297":13794,"]*((":13795,"2027":13796,"2069":13797,"opponent":13798,"1760":13799,")))+":13800,"edge1":13801,"constru":13802,"337533":13803,"xyi":13804,"sub_list":13805,"lastx":13806,"tmp_2":13807,"read_input":13808,"same_check":13809,"grade":13810,"layer0_idx1":13811,"4a":13812,"Y_":13813,"ZJ":13814,"_at":13815,"ans_num":13816,"tmpa":13817,"35333":13818,"262":13819,"loop_len":13820,":])]":13821,"5443":13822,"lines_as_string":13823,"wa_count":13824,"StoI":13825,"\"/\":":13826,"7y":13827,"c_count":13828,"fru":13829,"rS":13830,"行数":13831,"ison":13832,"rad_":13833,"2689":13834,"pos_list":13835,"get_sieve_of_eratosthenes":13836,"sync_":13837,"like_":13838,"with_stdio":13839,"エラトステネスの":13840,"honest_":13841,"sync_with_stdio":13842,"!)^":13843,"6h":13844,"9y":13845,"Date":13846,"HU":13847,"Vc":13848,"_E":13849,"aM":13850,"p_num":13851,"のコスト":13852,"1059":13853,"moto":13854,"main2":13855,"32211":13856,"1933":13857,"limss":13858,"ply":13859,"8167":13860,"n_to_":13861,"の要素数を":13862,"al_division":13863,"Update":13864,"separated":13865,"786":13866,"Blist":13867,"]|":13868,"aab":13869,"adic":13870,"十分":13871,"]*=":13872,"2039":13873,"_bot":13874,"cums":13875,"sel_col":13876,"duration":13877,"(&":13878,"723":13879,"aset":13880,"nS":13881,"p_count":13882,"pack":13883,"のlist":13884,"ino":13885,"()#":13886,"lia":13887,"li_a":13888,"respect":13889,"ener":13890,"5507":13891,"555377":13892,"553577":13893,"minR":13894,"min_list":13895,"573333":13896,"575377":13897,"573577":13898,"2221":13899,"a_sorted":13900,"577355":13901,"List2":13902,"c_idx":13903,"-(-(":13904,"それぞれの":13905,")>>":13906,"742":13907,"9r":13908,"VD":13909,"_F":13910,"_split":13911,"hate":13912,"lO":13913,"3257":13914,"1879":13915,"8599":13916,"したら":13917,"prior":13918,"box_row_":13919,"elapsed_":13920,"nP":13921,"sH":13922,"えば":13923,"pra":13924,"listb":13925,"return_sorted":13926,"sumb":13927,"result1":13928,"Comp":13929,"arrive":13930,"1680":13931,"=[]):":13932,"577533":13933,"all_sum":13934,"4j":13935,"VL":13936,"lQ":13937,"vE":13938,"vN":13939,"イテ":13940,"消す":13941,"rounding":13942,"3209":13943,"4434":13944,"absol":13945,"a_plus":13946,"c_even":13947,"r_idx":13948,":])):":13949,"connections":13950,"option":13951,"優先度":13952,"14159265358979":13953,"Yg":13954,"ZF":13955,"sinput":13956,"}+{":13957,"左に":13958,"左右":13959,"込む":13960,"gen_":13961,"listを":13962,"ities":13963,"1019":13964,"1979":13965,"5413":13966,"ind2":13967,"6433":13968,"904":13969,"xylist":13970,"lengths":13971,"??????????????????":13972,"SET":13973,"END":13974,"Implemented":13975,")$":13976,"Child":13977,"USE":13978,"YF":13979,"ois":13980,"sX":13981,"wD":13982,"を選ぶ":13983,"時刻":13984,"決める":13985,"見た":13986,"abc_":13987,"3223":13988,"1849":13989,"array2":13990,"min_cnt":13991,"compose":13992,"longest_":13993,"warp_":13994,"(\"-\")":13995,"raises":13996,"AAAAAAAAAAAAAAAAAAAAAAAAAAAAAAAAAAAAAAAAAAAAAAAAAAAAAAAAAAAAAAAAAAAAAAAAAAAAAAAAAAAAAAAAAAAAAAAAAAAAAAAAAAAAAAAAAAAAAAAAAAAAAAAAAAAAAAAAAAAAAAAAAAAAAAAAAAAAAAAAAAAAAAAAAAAAAAAAAAAAAAAAAAAAAAAAAAAAAAAAAAAAAAAAAAAAAAAAAAAAAAAAAAAAAAAAAAAAAAAAAAAAAAAAAAAAAAAAAAAAAAAAAAAAAAAAAAAAAAAAAAAAAAAAAAAAAAAAAAAAAAAAAAAAAAAAAAAAAAAAAAAAAAAAAAAAAAAAAAAAAAAAAAAAAAAAAAAAAAAAAAAAAAAAAAAAAAAAAAAAAAAAAAAAAAAAAAAAAAAAAAAAAAAAAAAAAAAAAAAAAAAAAAAAAAAAAAAAAAAAAAAAAAAAAAAAAAAAAAAAAAAAAAAAAAAAAAAAAAAAAAAAAAAAAAAAAAAAAAAAAAAAAAAAAAAAAAAAAAAAAAAAAAAAAAAAAAAAAAAAAAAAAAAAAAAAAAAAAAAAAAAAAAAAAAAAAAAAAAAAAAAAAAAAAAAAAAAAAAAAAAAAAAAAAAAAAAAAAAAAAAAAAAAAAAAAAAAAAAAAAAAAAAAAAAAAAAAAAAAAAAAAAAAAAAAAAAAAAAAAAAAAAAAAAAAAAAAAAAAAAAAAAAAAAAAAAAAAAAAAAAAAAAAAAAAAAAAAAAAAAAAAAAAAAAAAAAAAAAAAAAAAAAAAAAAAAAAAAAAAAAAAAAAAAAAAAAAAAAAAAAAAAAAAAAAAAAAAAAAAAAAAAAAAAAAAAAAAAAAAAAAAAAAAAAAAAAAAAAAAAAAAAAAAAAAAAAAAAAAAAAAAAAAAAAAAAAAAAAAAAAAAAAAAAAAAAAAAAAAAAAAAAAAAAAAAAAAAAAAAAAAAAAAAAAAAAAAAAAAAAAAAAAAAAAAAAAAAAAAAAAAAAAAAAAAAAAAAAAAAAAAAAAAAAAAAAAAAAAAAAAAAAAAAAAAAAAAAAAAAAAAAAAAAAAAAAAAAAAAAAAAAAAAAAAAAAAAAAAAAAAAAAAAAAAAAAAAAAAAAAAAAAAAAAAAAAAAAAAAAAAAAAAAAAAAAAAAAAAAAAAAAAAAAAAAAAAAAAAAAAAAAAAAAAAAAAAAAAAAAAAAAAAAAAAAAAAAAAAAAAAAAAAAAAAAAAAAAAAAAAAAAAAAAAAAAAAAAAAAAAAAAAAAAAAAAAAAAAAAAAAAAAAAAAAAAAAAAAAAAAAAAAAAAAAAAAAAAAAAAAAAAAAAAAAAAAAAAAAAAAAAAAAAAAAAAAAAAAAAAAAAAAAAAAAAAAAAAAAAAAAAAAAAAAAAAAAAAAAAAAAAAAAAAAAAAAAAAAAAAAAAAAAAAAAAAAAAAAAAAAAAAAAAAAAAAAAAAAAAAAAAAAAAAAAAAAAAAAAAAAAAAAAAAAAAAAAAAAAAAAAAAAAAAAAAAAAAAAAAAAAAAAAAAAAAAAAAAAAAAAAAAAAAAAAAAAAAAAAAAAAAAAAAAAAAAAAAAAAAAAAAAAAAAAAAAAAAAAAAAAAAAAAAAAAAAAAAAAAAAAAAAAAAAAAAAAAAAAAAAAAAAAAAAAAAAAAAAAAAAAAAAAAAAAAAAAAAAAAAAAAAAAAAAAAAAAAAAAAAAAAAAAAAAAAAAAAAAAAAAAAAAAAAAAAAAAAAAAAAAAAAAAAAAAAAAAAAAAAAAAAAAAAAAAAAAAAAAAAAAAAAAAAAAAAAAAAAAAAAAAAAAAAAAAAAAAAAAAAAAAAAAAAAAAAAAAAAAAAAAAAAAAAAAAAAAAAAAAAAAAAAAAAAAAAAAAAAAAAAAAAAAAAAAAAAAAAAAAAAAAAAAAAAAAAAAAAAAAAAAAAAAAAAAAAAAAAAAAAAAAAAAAAAAAAAAAAAAAAAAAAAAAAAAAAAAAAAAAAAAAAAAAAAAAAAAAAAAAAAAAAAAAAAAAAAAAAAAAAAAAAAAAAAAAAAAAAAAAAAAAAAAAAAAAAAAAAAAAAAAAAAAAAAA":13997,",(-":13998,"6y":13999,"7573":14000,"KQ":14001,"Rmin":14002,"dS":14003,"dmin":14004,"hR":14005,"り着":14006,"上から":14007,"成分":14008,"1099":14009,"1027":14010,"num0":14011,"mix":14012,"wrapper":14013,"ively":14014,"]//(":14015,"\"{}":14016,"Can":14017,"_K":14018,"_reverse":14019,"aP":14020,"fold":14021,"katan":14022,"wP":14023,"ずに":14024,"倍数を":14025,"ans_count":14026,"])+(":14027,"atai":14028,"dimen":14029,"thr":14030,"lop":14031,"6029":14032,"1747":14033,"ots":14034,"1527":14035,"adding":14036,"flug":14037,"8699":14038,"newx":14039,"23454":14040,"card_list":14041,"multi_":14042,"最初に":14043,"00ff00ff":14044,"P_list":14045,"SCO":14046,"TKB":14047,"_edges":14048,"nT":14049,"tur":14050,"wG":14051,"でソート":14052,"乗法":14053,"think":14054,"s_r":14055,"2699":14056,"2659":14057,"2357":14058,"2173":14059,"upper_bound":14060,"using_":14061,"test_入力例_1":14062,"時計回り":14063,"n_to_10":14064,"elapsed_time":14065,"060":14066,"6q":14067,"9z":14068,"ZQ":14069,"dG":14070,"iH":14071,"k番目の":14072,"{-":14073,"を0":14074,"参照":14075,"得点":14076,"sum_c":14077,"1269":14078,"2473":14079,"2287":14080,"675":14081,"6947":14082,"2137":14083,"user":14084,"remains":14085,"Tour":14086,"surplus":14087,"の総和":14088,"2個":14089,"vmax":14090,"キー":14091,"遷移":14092,"ified":14093,"inputlist":14094,"__n":14095,"exce":14096,"10010":14097,"537557":14098,"bom":14099,"35535":14100,"MI1":14101,"75573":14102,"alpha2":14103,"として読み込み":14104,"arrival":14105,"tansaku":14106,"human":14107,"WU":14108,"gon":14109,"hako":14110,"sZ":14111,"vA":14112,"vD":14113,"xY":14114,"1087":14115,"(\"\"))":14116,"minutes":14117,"ession":14118,"1847":14119,"t_cnt":14120,"s_min":14121,"currentIndex":14122,"tmp_l":14123,"depths":14124,"Arg":14125,"indicates":14126,"nonzero":14127,"Weighted":14128,"horizontal":14129,"cQ":14130,"fre":14131,"smin":14132,"targ":14133,"考え":14134,"1299":14135,"375577":14136,"2029":14137,"lastA":14138,"っていく":14139,"537377":14140,"neigh":14141,"convolution":14142,"questions":14143,"###############################################################################":14144,"takewhile":14145,"test_入力例_2":14146,"8z":14147,"KU":14148,"hO":14149,"期待":14150,"1250":14151,"??¨":14152,"chun":14153,"fault":14154,"1407":14155,"s_y":14156,"############":14157,"280000":14158,"8359":14159,"next_list":14160,"704":14161,"cnt_r":14162,"標準入力を配列":14163,"二分木":14164,"larger":14165,"Eratosthenes":14166,"標準入力を配列として読み込み":14167,"2進数":14168,"4x":14169,"9k":14170,"9000":14171,"Whole":14172,"_dfs":14173,"_road":14174,"fB":14175,"iV":14176,"lS":14177,"nE":14178,"wK":14179,"islice":14180,"605":14181,"1759":14182,"1488":14183,"2707":14184,"now_num":14185,"]]!=":14186,"560000":14187,"outs":14188,"number_vertex":14189,"digit_sum":14190,"delete_node":14191,"Town":14192,"ESTIV":14193,"次元リスト":14194,"💩💩💩💩":14195,"needed":14196,"3b":14197,"9a":14198,"[~":14199,"uft":14200,"vB":14201,"けば":14202,"であり":14203,"に関":14204,"をする":14205,"相手":14206,"__eq":14207,"to_i":14208,"32110":14209,"ch_c":14210,"22232":14211,"22212":14212,"???????":14213,"1589":14214,"405":14215,"construct":14216,"858":14217,"Order":14218,"donut":14219,"00000000000000000000000000000000000000000000000000000000000000000000000000000000000000000000000000000000000000000000000000000000000000000000000000000000000000000000000000000000000000000000000000000000000000000000000000000000000000000000000000000000000000000000000000000000000000000000000000000000000000000000000000000000000000000000000000000000000000000000000000000000000000000000000000000000000000000000000000000000000000000000000000000000000000000000000000000000000000000000000000000000000000000000000000000000000000000000000000000000000000000000000000000000000000000000000000000000000000000000000000000000000000000000000000000000000000000000000000000000000000000000000000000000000000000000000000000000000000000000000000000000000000000000000000000000000000000000000000000000000000000000000000000000000000000000000000000000000000000000000000000000000000000000000000000000000000000000000000000000000000000000000000000000000000000000000000000000000000000000000000000000000000000000000000000000000000000000000000000000000000000000000000000000000000000000000000000000000000000000000000000000000000000000000000000000000000000000000000000000000000000000000000000000000000000000000000000000000000000000000000000000000000000000000000000000000000000000000000000000000000000000000000000000000000000000000000000000000000000000000000000000000000000000000000000000000000000000000000000000000000000000000000000000000000000000000000000000000000000000000000000000000000000000000000000000000000000000000000000000000000000000000000000000000000000000000000000000000000000000000000000000000000000000000000000000000000000000000000000000000000000000000000000000000000000000000000000000000000000000000000000000000000000000000000000000000000000000000000000000000000000000000000000000000000000000000000000000000000000000000000000000000000000000000000000000000000000000000000000000000000000000000000000000000000000000000000000000000000000000000000000000000000000000000000000000000000000000000000000000000000000000000000000000000000000000000000000000000000000000000000000000":14220,"timer":14221,"__eq__":14222,"!'":14223,"938":14224,"Over":14225,"VAL":14226,"jW":14227,"nG":14228,"rcount":14229,"tK":14230,"無向グラフ":14231,"]:#":14232,"tok":14233,"1637":14234,"bou":14235,"tree_list":14236,"]+=(":14237,"b_idx":14238,"1121":14239,"nibu":14240,"sticks":14241,"じゃない":14242,"channel":14243,"0x5555555555555555":14244,"3y":14245,"8r":14246,"CON":14247,"Pol":14248,"YT":14249,"cS":14250,"ier":14251,"pX":14252,"maxN":14253,"isP":14254,"1300":14255,"734":14256,"8069":14257,"2833":14258,"908":14259,"termin":14260,"d_sum":14261,"_ten":14262,"までの最":14263,"Stdin":14264,"Four":14265,"slope":14266,"teleport":14267,"#================================":14268,"'{}":14269,"TOP":14270,"fuel":14271,"tH":14272,"lowest_":14273,"6011":14274,"fare":14275,"\",\"\"))":14276,"max_r":14277,"quanti":14278,"する関数":14279,"0800":14280,"found_":14281,"obs":14282,"LOCK":14283,"使われて":14284,"\"\"\"\"\"\"\"\"":14285,"dimension":14286,"ESTIVAL":14287,"PAR":14288,"gT":14289,"hT":14290,"rjust":14291,"uW":14292,"xN":14293,"交換":14294,"列の":14295,"掛けて":14296,"meg":14297,"flow_":14298,"6073":14299,"3499":14300,"2657":14301,"posit":14302,"2569":14303,"入力のとき":14304,"blank":14305,"brray":14306,"ための":14307,"BitCount":14308,"'/':":14309,"networkx":14310,"respectively":14311,"quantize":14312,"7r":14313,"_copy":14314,"hQ":14315,"ring":14316,"開催":14317,"atk":14318,"__set":14319,"535733":14320,"57535":14321,"375555":14322,"375377":14323,"373577":14324,"2719":14325,"537337":14326,"ceil_":14327,"]+=[":14328,"rule":14329,"union_find":14330,"inpl_str":14331,"effect":14332,"Optional":14333,"((\"":14334,"7c":14335,"Hig":14336,"ZP":14337,"hX":14338,"mX":14339,"oint":14340,"選んで":14341,"urui":14342,"maxX":14343,")]+[":14344,"!='":14345,"tmplist":14346,"ipart":14347,"s_str":14348,"8287":14349,"652":14350,"100000000000":14351,"clu":14352,"素数判定":14353,"processing":14354,"__setitem__":14355,"#=":14356,")`":14357,"fJ":14358,"wN":14359,"+=-":14360,"1067":14361,"1089":14362,"735577":14363,"5407":14364,"=[],":14365,"#########":14366,"<<\"":14367,"c_l":14368,"353577":14369,"i_str":14370,"していない":14371,"qqq":14372,"_town":14373,"に対する":14374,"threshold":14375,"absolute":14376,"$(":14377,"039":14378,"YQ":14379,"_hash":14380,"bH":14381,"dL":14382,"ej":14383,"rlt":14384,"sou":14385,"なときは":14386,"ひと":14387,"inct":14388,"anser":14389,"5519":14390,"735377":14391,"_ball":14392,"_clear":14393,"current_h":14394,"l_2":14395,"の中身":14396,"ライブ":14397,"使わない":14398,"5r":14399,"6r":14400,"6000":14401,"7j":14402,"YR":14403,"_group":14404,"hG":14405,"mC":14406,"mG":14407,"pK":14408,"wF":14409,"xR":14410,"xW":14411,"dete":14412,"(\"...":14413,"4455":14414,"1487":14415,"INIT":14416,"3517":14417,"input_array":14418,"charge":14419,"ALD":14420,"start_idx":14421,"overlap":14422,"Read":14423,"ノードの":14424,"selection_sort":14425,"Solution":14426,"kekka":14427,"互いに":14428,"2a":14429,"_W":14430,"cF":14431,"g_list":14432,"mH":14433,"nJ":14434,"yR":14435,"にしたい":14436,"を記録":14437,"ポート":14438,"マッチ":14439,"リー":14440,"coeff":14441,"[]]":14442,"tmp_count":14443,"1167":14444,"acinput":14445,"1788":14446,"2917":14447,"primelist":14448,"''):":14449,"a_k":14450,"passenger":14451,"correspon":14452,"partic":14453,"inputDataList":14454,"の2のべき乗":14455,"~~~~~~~~~~~~~~~~":14456,"f0f0f0f0f0f0f0f":14457,"0x0f0f0f0f0f0f0f0f":14458,"1番目":14459,"bac":14460,"ball_":14461,"cD":14462,"mF":14463,"mM":14464,"wW":14465,"inpt":14466,"1090":14467,"dir_":14468,"str_i":14469,"modmul":14470,"1166":14471,"1877":14472,"1367":14473,"6047":14474,"fast_":14475,"2864":14476,"23455":14477,"trial_division":14478,"6V":14479,"7o":14480,"aG":14481,"average":14482,"iP":14483,"qW":14484,"の点":14485,"有向グラフ":14486,"stdev":14487,"3307":14488,"line_":14489,"2467":14490,"5639":14491,"8677":14492,"sum_v":14493,"lasty":14494,"inpls":14495,"SCORE":14496,"ipartite":14497,"5z":14498,"YJ":14499,"YL":14500,"aD":14501,"nを":14502,"rの":14503,"tJ":14504,"見つ":14505,"ati":14506,"1088":14507,"575533":14508,"22233":14509,"892":14510,"1519":14511,"2857":14512,"bit_list":14513,"n_min":14514,"357577":14515,"573557":14516,"Match":14517,"行目には":14518,"quicksort":14519,"Mar":14520,"T_list":14521,"VU":14522,"YO":14523,"_stack":14524,"bX":14525,"bmin":14526,"lC":14527,"lJ":14528,"n以上の最小":14529,"qP":14530,"uQ":14531,"けど":14532,"deci":14533,"ature":14534,"resize":14535,"1221":14536,"1209":14537,"1830":14538,"igo":14539,"6089":14540,"3453":14541,"one_count":14542,"1569":14543,"root2":14544,"xyl":14545,"i_s":14546,"num_min":14547,"lasts":14548,"6299":14549,"ALPH":14550,"change_":14551,"GHT":14552,"columns":14553,"ことができる":14554,"coords":14555,"Parameters":14556,"ZD":14557,"bT":14558,"kin":14559,"oya":14560,"vT":14561,"ずれ":14562,"555733":14563,"575733":14564,"1187":14565,"1888":14566,"735555":14567,"5953":14568,"idx0":14569,"arr_data":14570,"root1":14571,"_blue":14572,"_clipboard":14573,"lis1":14574,"3169":14575,"input_l":14576,"553557":14577,"vwise":14578,"557377":14579,"Max_":14580,"?????????????":14581,")+\":\"+":14582,"1f":14583,"^@":14584,"切る":14585,"):])":14586,"ansB":14587,"str_num":14588,"usage":14589,"1709":14590,"5077":14591,"possi":14592,"2144":14593,"c_puz":14594,"6199":14595,"dy2":14596,"even_list":14597,"base_10":14598,"input_string":14599,"whites":14600,"ってい":14601,"値をxに更新":14602,"hhh":14603,"与えられた":14604,"(\",\"))":14605,"から最小値を":14606,"の最小値を出力":14607,"8F":14608,"Mone":14609,"White":14610,"_price":14611,"cJ":14612,"dx2":14613,"fR":14614,"gM":14615,"jJ":14616,"jdg":14617,"p_max":14618,"ラリ":14619,"1057":14620,"1219":14621,"1239":14622,"c_w":14623,"355577":14624,"facs":14625,"757377":14626,"切り捨て":14627,"の最大値を":14628,"による":14629,"''''''''''''''''''''''''''''''''":14630,"personal_best_scores":14631,"energy":14632,"ライブラリ":14633,"gL":14634,"mn_":14635,"rig":14636,"tN":14637,"との":14638,"に要素x":14639,"の種類":14640,"既に":14641,"親を":14642,"__V":14643,"suml":14644,"],(":14645,"1117":14646,"1973":14647,"2059":14648,"1349":14649,"1307":14650,"1497":14651,"a_minus":14652,"min_dis":14653,"4273":14654,"6899":14655,"8527":14656,"7899":14657,"3443":14658,"kaijou":14659,"RED":14660,"頂点v":14661,"(\"\").":14662,"ss2nnn":14663,"Warshall":14664,"に要素xを追加":14665,"027":14666,"8o":14667,"9o":14668,"A_count":14669,"Lim":14670,"SAF":14671,"gA":14672,"p_n":14673,"printed":14674,"atu":14675,"dag":14676,"IND":14677,"max_even":14678,"parent_or":14679,"8317":14680,"bose":14681,"862":14682,"odd_num":14683,"gokei":14684,"55556":14685,"compar":14686,"action_":14687,"adjacent_list":14688,"parent_or_size":14689,"+',":14690,"dN":14691,"qH":14692,"tpl":14693,"にした":14694,"inte":14695,"debt":14696,"miny":14697,"cntr":14698,"1229":14699,"AAAAAA":14700,"8832":14701,"prime_count":14702,"680000":14703,"i2nn":14704,"配列を":14705,"iew":14706,"bubbleSort":14707,")[:-":14708,"Taka":14709,"blst":14710,"pips":14711,"sQ":14712,"ssp":14713,"wX":14714,"zQ":14715,"の先頭":14716,"桁数":14717,"endif":14718,"1051":14719,"robot":14720,"__true":14721,"countlist":14722,"4447":14723,"2087":14724,"'#',":14725,"ans_temp":14726,"cnt_l":14727,"alphabet_":14728,"convex":14729,"iからj":14730,"で割り切れる":14731,"__truediv__":14732,"Clist":14733,"KT":14734,"L_max":14735,"mB":14736,"yW":14737,"同士":14738,"調整":14739,"coo":14740,"))&":14741,"ulation":14742,"3739":14743,"1870":14744,"5024":14745,"2927":14746,"max_height":14747,"suc":14748,"point_":14749,"row3":14750,"xyr":14751,"720000":14752,"1e5":14753,"price_list":14754,"cube":14755,"(\"%.":14756,"swapcase":14757,"transl":14758,"繰り返す":14759,"ALDS1":14760,"032":14761,"741":14762,"8p":14763,"LAR":14764,"Word":14765,"ZI":14766,"aite":14767,"fmm":14768,"x_a":14769,"満足":14770,"準備":14771,"maxV":14772,"55535":14773,"1303":14774,"2237":14775,"8898":14776,"comb_mod":14777,"dics":14778,"865":14779,"newy":14780,"してい":14781,"uf1":14782,"white_":14783,"int_log":14784,"getIntList":14785,"threading":14786,"Used":14787,"cC":14788,"ez":14789,"プロ":14790,"共通":14791,"意味":14792,"intin":14793,"335377":14794,"maxp":14795,"773577":14796,"num_count":14797,"1231":14798,"Tri":14799,"3253":14800,"2417":14801,"6970":14802,"conb":14803,"1000000000000":14804,"sousa":14805,"文字が":14806,"wik":14807,"examF":14808,"zahyou":14809,"\"\").":14810,"+\"=":14811,"u_alp":14812,"insert_index":14813,"solving":14814,"===============":14815,"Linked":14816,"030":14817,"8x":14818,"KG":14819,"Nとか":14820,"brown":14821,"dB":14822,"mJ":14823,"pcnt":14824,"tA":14825,"フロ":14826,"呼び":14827,"始める":14828,"indeg":14829,"input_clipboard":14830,"3389":14831,"335577":14832,"333577":14833,"775377":14834,"minr":14835,"cnta":14836,"1139":14837,"acs":14838,"ingle":14839,"w_sum":14840,"max_number":14841,"8017":14842,"537537":14843,"framod":14844,"357533":14845,"classmethod":14846,"goto":14847,"000002":14848,"573733":14849,"573737":14850,"5678":14851,"MXI":14852,"isSameGroup":14853,"745":14854,"bJ":14855,"bR":14856,"mmax":14857,"vM":14858,"vO":14859,"intのlist":14860,"10100":14861,"5569":14862,"1264":14863,"11000":14864,"323333":14865,"6653":14866,"6609":14867,"verbose":14868,"1787":14869,"now_index":14870,"8419":14871,"numba_":14872,"nump":14873,"bin_":14874,"diff_x":14875,"n_idx":14876,"sum_i":14877,"get_ints":14878,"A_ARGS":14879,"\"#\"):":14880,"cnt_dict":14881,"頂点の":14882,"mmm":14883,"#######":14884,"implement":14885,"を使って":14886,"無理なときは":14887,"Raises":14888,"でやると":14889,"__VA_ARGS":14890,"Nとかの取得":14891,"__VA_ARGS__":14892,")',":14893,"4q":14894,"5V":14895,"5x":14896,"8q":14897,"9h":14898,":]),":14899,"_th":14900,"_get_":14901,"_dis":14902,"dU":14903,"kB":14904,"l_count":14905,"pJ":14906,"yama":14907,"差分":14908,"len_b":14909,"\")):":14910,"isdecimal":14911,"2297":14912,"6053":14913,"mation":14914,"2377":14915,"n_l":14916,"n_r":14917,"micro":14918,"sum_s":14919,"pass_":14920,"currentframe":14921,"DP1":14922,"553377":14923,"Costs":14924,"まだ使われて":14925,"nesses":14926,"始点sから各頂点への最短距離":14927,"n以上の最小の2のべき乗":14928,"5q":14929,"aQ":14930,"eight":14931,"fE":14932,"iJ":14933,"v_i":14934,"その最小値を出力":14935,"木を":14936,"375733":14937,"2797":14938,"s_sorted":14939,"2380":14940,"places":14941,"000_":14942,"bit_n":14943,"x_y":14944,"6833":14945,"8519":14946,"uf2":14947,"dfk":14948,"_to_int":14949,"のときも":14950,"serv":14951,"これを":14952,"を見つける":14953,"MakeDivisors":14954,"ChangeBase":14955,"Common":14956,"書かれている":14957,"PATH":14958,"delitem":14959,"から最小値を削除":14960,"Money":14961,"9t":14962,"Long":14963,"aW":14964,"bF":14965,"gS":14966,"mD":14967,"pV":14968,"v_num":14969,"対応":14970,"()*":14971,"lef":14972,"len_c":14973,"1050":14974,"countb":14975,"resare":14976,"!=\"":14977,"5488":14978,"1769":14979,"now_node":14980,"MAX_A":14981,"start_i":14982,"文字列の入力":14983,"するかも":14984,"-------------------------------------------------------------":14985,"heap化されたリストaに要素xを追加":14986,"rslt":14987,")<<":14988,"3d":14989,"Hos":14990,"cup":14991,"hE":14992,"hns":14993,"mO":14994,"pW":14995,"r_num":14996,"コピ":14997,"未確定":14998,"算出":14999,"master":15000,"reference":15001,"cntb":15002,"1873":15003,"achi":15004,"que1":15005,"6097":15006,"6949":15007,"]))*":15008,"max_ind":15009,"max_odd":15010,"842":15011,"Ind":15012,"current_w":15013,"リストaの":15014,"xxxx":15015,"pre_order":15016,"connected_":15017,"full_":15018,"is_prime_common":15019,"781":15020,"vG":15021,"wC":15022,"002":15023,"maxvalue":15024,"dij":15025,"')-":15026,"esare":15027,"unvisited":15028,"2089":15029,"2459":15030,"_calc":15031,"next_num":15032,"_sat":15033,"_to_n_":15034,"NEXT":15035,"pypyでやると":15036,"正解するかも":15037,"pythonで無理なときは":15038,"pypyでやると正解するかも":15039,"!(":15040,"4c":15041,"6t":15042,"9x":15043,"945":15044,"ares":15045,"kF":15046,"kT":15047,"nが":15048,"nap":15049,"yS":15050,"yok":15051,"スキ":15052,"体力":15053,"回転":15054,"無限":15055,"in_s":15056,"uth":15057,"ret_":15058,"6709":15059,"1729":15060,"1613":15061,"sam":15062,"trains":15063,"sample_file":15064,"の距離のものを":15065,"になった":15066,"(\",\")":15067,"required":15068,"\">\":":15069,"SAFE":15070,"069":15071,"7t":15072,"_is_":15073,"動か":15074,"塗り":15075,"answ":15076,"sum3":15077,"tmpA":15078,"1159":15079,"ind1":15080,"is_kaibun":15081,"8627":15082,"())))[::-":15083,"頂点の中":15084,"_for_":15085,"selecting":15086,"NotImplemented":15087,"nHr":15088,"#.#.":15089,"YA":15090,"ZC":15091,"_loc":15092,"bN":15093,"nlst":15094,"sP":15095,"ssum":15096,"uJ":15097,"だから":15098,"後に":15099,"繋が":15100,"spec":15101,"2047":15102,"nexty":15103,"mid2":15104,"Default":15105,"553733":15106,"overflow":15107,"----------------------------------":15108,"可能性":15109,"descend":15110,"Solver":15111,"furthest":15112,"START":15113,"base_10_to_n_":15114,"リストaのheap化":15115,"1で":15116,"1は":15117,"FRO":15118,"[\"\".":15119,"bG":15120,"fF":15121,"fH":15122,"iZ":15123,"mQ":15124,"rH":15125,"がj":15126,"てる":15127,"買う":15128,"3347":15129,"minval":15130,"ablog":15131,"set2":15132,"1897":15133,"5653":15134,"557337":15135,"next2":15136,"377755":15137,"357355":15138,"777533":15139,"get_value":15140,"testcase":15141,"uben":15142,"Aij":15143,"each_":15144,"multipli":15145,"入れよう":15146,"1111111111111111111111111111111111111111111111111111111111111111":15147,"hatenablog":15148,"using_method":15149,"の距離のものを探す":15150,"\"]]":15151,"blo":15152,"bri":15153,"hD":15154,"nU":15155,"pP":15156,"rK":15157,"vS":15158,"wQ":15159,"yout":15160,"つなが":15161,"少ない":15162,"方から":15163,"総和":15164,"1063":15165,"assign":15166,"1989":15167,"6689":15168,"7309":15169,"pymain":15170,"6469":15171,"reverse_flag":15172,"3699":15173,"min_t":15174,"8513":15175,"logn":15176,"してください":15177,"7654":15178,"IntLog":15179,"done_list":15180,"System":15181,"受け取り":15182,"propagate":15183,"0j":15184,"9887":15185,"aK":15186,"i個":15187,"mN":15188,"vP":15189,"wI":15190,"うる":15191,"alr":15192,"5499":15193,"3407":15194,"5088":15195,"8707":15196,"8089":15197,"prov":15198,"divisible":15199,"theta_":15200,"trail":15201,"33773":15202,"initiali":15203,"複数文字":15204,"(','))":15205,"without_0":15206,"から最小の距離のものを探す":15207,"時点で":15208,"FourNb":15209,"base_10_to_n_without_0":15210,"716":15211,"nM":15212,"qT":15213,"tmax":15214,"zC":15215,"zai":15216,"])#":15217,"dp_list":15218,"ablist":15219,"acci":15220,"ask":15221,"as_input":15222,"]=((":15223,"22112":15224,"pre_x":15225,"8689":15226,"graph2":15227,"seg_max":15228,"A_sort":15229,"9899":15230,"DEV":15231,"11111":15232,"文字列の":15233,"````":15234,"trial":15235,"1を掛けて":15236,"作成可能":15237,"ごとに分ける":15238,"reachable_to_direct":15239,"reachable_from_direct":15240,"マイナスにして":15241,"が入る":15242,"Defaults":15243,"7u":15244,"Acum":15245,"Mer":15246,"S_i":15247,"iF":15248,"いずれ":15249,"の初期化":15250,"タイ":15251,"公約数を":15252,"増加":15253,"構成":15254,"1093":15255,"33234":15256,"nodup":15257,"left_index":15258,"6627":15259,"dist_from_":15260,"t_sum":15261,"x_root":15262,"S_len":15263,"rev_":15264,"っていない":15265,"Here":15266,"={\"":15267,"rand_ints_":15268,"black_cells":15269,"ながら":15270,"arrays":15271,"rand_ints_nodup":15272,"2の":15273,"6k":15274,"763":15275,"FLO":15276,"ZR":15277,"_5":15278,"_step":15279,"bQ":15280,"hL":15281,"iG":15282,"oW":15283,"wR":15284,"zN":15285,"早い":15286,"段目":15287,"減らす":15288,"1079":15289,"3709":15290,"idou":15291,"1380":15292,"flower":15293,"gcd1":15294,"s_t":15295,"[[(":15296,"y_root":15297,"6599":15298,"combinations_with_replacement_":15299,"root_node":15300,"ipedia":15301,"Callable":15302,"頂点の中から最小の距離のものを探す":15303,"*;":15304,"4t":15305,"K_":15306,"c12":15307,"dJ":15308,"iQ":15309,"mE":15310,"qR":15311,"san":15312,"zG":15313,"一度":15314,"他のときも":15315,"合う":15316,"増える":15317,"printn":15318,"atsu":15319,"1047":15320,"alth":15321,"772":15322,"1259":15323,"375533":15324,"3217":15325,"6719":15326,"pylint":15327,"tempy":15328,"min_factor":15329,"d_1":15330,"i_max":15331,"bias":15332,"powers":15333,"yyy":15334,"kyu":15335,"winner":15336,"どうように":15337,"スペースごとに分ける":15338,"取り出すこと":15339,"とりだ":15340,"witnesses":15341,"heap化されたリストaから最小値を削除":15342,"listをスペースごとに分ける":15343,"まだ使われてない":15344,"他のときもどうように":15345,"他のときもどうように作成可能":15346,"7k":15347,"=}')":15348,"VO":15349,"aB":15350,"kita":15351,"nlis":15352,"sdict":15353,"vX":15354,"zJ":15355,"なん":15356,"の大小":15357,"･)":15358,"())[::-":15359,"ross":15360,"maxHeap":15361,"expl":15362,"1220":15363,"4456":15364,"unity":15365,"6649":15366,"one_list":15367,"popcount_":15368,"a_m":15369,".....":15370,"seg_":15371,"manzoku":15372,"pushする時に":15373,"とすると":15374,"存在する":15375,"transpose":15376,"最大値を取り出す時は":15377,"hnson":15378,"1を掛けて取り出すこと":15379,"マイナスにして入れよう":15380,"pushする時にマイナスにして入れよう":15381,"079":15382,"2N":15383,"R_list":15384,"Sele":15385,"lhs":15386,"mL":15387,"oK":15388,"pL":15389,"qF":15390,"uint64":15391,"vim":15392,"xH":15393,"めた":15394,"魔法":15395,"ded_":15396,"len_a":15397,"3727":15398,"1850":15399,"1840":15400,"1360":15401,"7307":15402,"735733":15403,"temp_ans":15404,"6917":15405,"8909":15406,"8467":15407,"edge2":15408,"6389":15409,"4219":15410,"color_num":15411,"x_v":15412,"A_array":15413,"5233":15414,"7333":15415,"cand2":15416,"Sieve":15417,"EEEE":15418,"Found":15419,"後ろから":15420,"Double":15421,"Shorten":15422,"combinations_with_replacement_count":15423,"029":15424,"8w":15425,"XOR":15426,"bD":15427,"c22":15428,"dD":15429,"eu":15430,"iU":15431,"jP":15432,"sit":15433,"xP":15434,"yG":15435,"remaerd":15436,"rear":15437,"5543":15438,"ext_":15439,"tmp0":15440,"2429":15441,"dist_v":15442,"sca":15443,"beaut":15444,"trx":15445,":]])":15446,"color_":15447,"next_set":15448,"sum_x":15449,"A_lst":15450,"3445":15451,"AND":15452,"start_x":15453,"('-')":15454,"mojiretu":15455,"集合の":15456,"INT_MAX":15457,"soinsu":15458,"GRAY":15459,"まだ使われてない頂点の中から最小の距離のものを探す":15460,"3s":15461,"5u":15462,"Ste":15463,"cP":15464,"pC":15465,"pT":15466,"tS":15467,"を行":15468,"来る":15469,"__next":15470,"abab":15471,"535537":15472,"573533":15473,"!=[]:":15474,"tmp_n":15475,"isOk":15476,"32210":15477,"accept":15478,"6437":15479,"6427":15480,"johnson":15481,"_cmp":15482,"parser":15483,"tast":15484,"0900":15485,"airs":15486,"cand1":15487,"ruise":15488,"my_index":15489,"^^^^^^^^^^^^^^^^^^^^^^^^^^^^^^^^":15490,"vvvvvvvvvvvvvvvvvvvvvvvvvvvvvvvv":15491,"WISE":15492,"translate":15493,"__next__":15494,"(･":15495,".\"":15496,".／":15497,"6Y":15498,"8Q":15499,"fN":15500,"fX":15501,"i_b":15502,"nO":15503,"zT":15504,"うど":15505,"変える":15506,"点の":15507,"inputStr":15508,"())*":15509,"('*":15510,"num4":15511,"1290":15512,"1857":15513,"1811":15514,"op_cnt":15515,"]==[":15516,"2437":15517,"1533":15518,"5657":15519,"2389":15520,"memo1":15521,"III":15522,"wiki":15523,"remaining_":15524,"?????????????????????":15525,"switches":15526,"Peak":15527,"残りの":15528,"rbst1":15529,"friend":15530,"ちょうど":15531,"\"@\":":15532,"null_":15533,"'').":15534,"4o":15535,"6u":15536,"_coprime":15537,"aZ":15538,"hU":15539,"kis":15540,"lX":15541,"xT":15542,"yK":15543,"のを":15544,"in2":15545,"or_":15546,"1031":15547,"335733":15548,"opy":15549,"t_ans":15550,"otes":15551,"max_2":15552,"s_idx":15553,"2529":15554,"comfort":15555,"new_obj":15556,"6269":15557,"dfcp":15558,"match_":15559,"ava":15560,"many_":15561,"best_score":15562,"使用例":15563,"satisfi":15564,"update_condition":15565,"base_n_to_10":15566,"2000000000":15567,"982":15568,"VB":15569,"YAKI":15570,"[\"#\"":15571,"a12":15572,"bL":15573,"jis":15574,"kD":15575,"lA":15576,"yD":15577,"zO":15578,"が与えられます":15579,"を含む":15580,"上位":15581,"ｙｐ":15582,"spl":15583,"__size":15584,"3767":15585,"val_list":15586,"cur2":15587,"1353":15588,"6733":15589,"1764":15590,"5659":15591,"2899":15592,"c_index":15593,"div_list":15594,"ないｙｐ":15595,"234544":15596,"pqr":15597,"(\"#\"+":15598,"ETin":15599,"log2ないｙｐ":15600,"Plus":15601,"の2個":15602,"リストのソート":15603,"................":15604,"keisuu_lower":15605,"wikipedia":15606,")|":15607,"6Z":15608,"hB":15609,"lG":15610,"lcnt":15611,"nF":15612,"sK":15613,"tW":15614,"xX":15615,"yQ":15616,"ちゃ":15617,"にも":15618,"ャン":15619,"55575":15620,"nod":15621,"1280":15622,"37553":15623,"1147":15624,"1350":15625,"3529":15626,"array1":15627,"2199":15628,"min_path":15629,"%=(":15630,"currentNode":15631,"2334":15632,"ndarray":15633,"jibun":15634,"in_order":15635,"であること":15636,"Modu":15637,"において":15638,"EulerTour":15639,"decessors":15640,"満足度":15641,"053":15642,"Fin":15643,"aI":15644,"kO":15645,"qG":15646,"sS":15647,"wO":15648,"偶数の":15649,"進数の":15650,"__contains":15651,"cnt4":15652,"2477":15653,"2273":15654,"list_t":15655,"kais":15656,"points_list":15657,"mod_pow":15658,"circum":15659,"can_reach":15660,"セグメント":15661,"__contains__":15662,")\",":15663,"2次元配列":15664,"_name":15665,"bC":15666,"gU":15667,"hP":15668,"mS":15669,"oO":15670,"yZ":15671,"くん":15672,"に近い":15673,"sequ":15674,"1070":15675,"dpc":15676,"cnt_s":15677,"ac_count":15678,"2040":15679,"1381":15680,"6799":15681,"2711":15682,"805":15683,"adds":15684,"invr":15685,"c_h":15686,"6353":15687,"new_str":15688,"l_sum":15689,"233232":15690,"bytes":15691,"input_tuple":15692,"番目に":15693,"regist":15694,"wa_cnt":15695,"141592653589":15696,"タプルリストのソート":15697,"エラトステネスの篩":15698,"二分木検索":15699,"#...":15700,"0d":15701,"9V":15702,"around":15703,"jF":15704,"mT":15705,"qQ":15706,"rB":15707,"tX":15708,"}{:":15709,"の部分":15710,"上に":15711,"ane":15712,"ido":15713,"321112":15714,"2411":15715,"2409":15716,"t_1":15717,"1659":15718,"mid1":15719,"y_dict":15720,"counter2":15721,"x_tmp":15722,"ascii_letters":15723,"ched_box":15724,"bonacci":15725,"20000000":15726,"oooo":15727,"convolve":15728,"takasa":15729,"_bottom":15730,"LOCKWISE":15731,"とりだせる":15732,"(=":15733,"059":15734,"047":15735,"090":15736,"4D":15737,"dP":15738,"lE":15739,"zP":15740,"}\\":15741,"にできる":15742,"入れて":15743,"count_num":15744,"hei":15745,"735533":15746,"8837":15747,"8807":15748,"1707":15749,"6857":15750,"ans_r":15751,"minus_":15752,"計算を":15753,"start_y":15754,"Reverse":15755,"ようにする":15756,"_inorder":15757,"old_max":15758,"▒▒▒▒":15759,"で最大の2個":15760,"とりだせるお":15761,"で最大の2個とりだせるお":15762,"Lis":15763,"bP":15764,"came":15765,"crr":15766,"dQ":15767,"fG":15768,"nfa":15769,"pQ":15770,"vC":15771,"xD":15772,"が偶数":15773,"でなければ":15774,"進む":15775,"stay":15776,"())#":15777,"list_c":15778,"535737":15779,"3707":15780,"),'":15781,"usk":15782,"2049":15783,"2299":15784,"3049":15785,"2687":15786,"min_j":15787,"min_len":15788,"nextx":15789,"x_diff":15790,"rules":15791,"games":15792,"改行区切り":15793,"basic":15794,"satisfy":15795,"-\":":15796,"5Y":15797,"NLI":15798,"VN":15799,"_up":15800,"kX":15801,"nab":15802,"nb_":15803,"qX":15804,"rsp":15805,"tB":15806,"vU":15807,"xL":15808,"zF":15809,"が空":15810,"任意":15811,"orde":15812,"prv_":15813,"])]=":15814,"len_list":15815,"__iter":15816,"__lt":15817,"775733":15818,"ming":15819,"575537":15820,"6659":15821,"1733":15822,"1432":15823,"6959":15824,"a_sort":15825,"533757":15826,"2830":15827,"_block":15828,"numa":15829,"838":15830,"557537":15831,"sum_val":15832,"A_dict":15833,"=='?":15834,"573537":15835,"755377":15836,"v_to":15837,"コンビ":15838,"コピー":15839,"Modulo":15840,"__iter__":15841,"__lt__":15842,"7Y":15843,"8D":15844,"East":15845,"cE":15846,"dF":15847,"pal":15848,"p_c":15849,"qD":15850,"wT":15851,"zB":15852,"作れる":15853,"左の":15854,"行き":15855,"ntt":15856,"1833":15857,"6678":15858,"6079":15859,"3457":15860,"1473":15861,"5087":15862,"scc_":15863,"2633":15864,"56544":15865,"2832":15866,"min_s":15867,"8377":15868,">>>>":15869,"n_n":15870,"x2000":15871,"inpll":15872,"[\"+":15873,"socket":15874,"\")]*(":15875,"\".\"*(":15876,"複数行":15877,"隣接行列":15878,"pypy3":15879,"satisfaction":15880,"1文字ずつ":15881,"represents":15882,"valid_":15883,"057":15884,"8J":15885,"FUN":15886,"Nの":15887,"ZS":15888,"^-":15889,"nsum":15890,"rsum":15891,"yuk":15892,"reasing":15893,"maxH":15894,"5584":15895,"775533":15896,"minb":15897,"1899":15898,"6619":15899,"5437":15900,"reverse_":15901,"past_":15902,"dices":15903,"aki":15904,"search_map":15905,"960000":15906,"XYC":15907,"')]*(":15908,"mergesort":15909,"_bomb":15910,"bombs":15911,"foods":15912,"require":15913,"'@':":15914,"097":15915,":]==":15916,"Alp":15917,"gcm":15918,"lR":15919,"lsum":15920,"qJ":15921,"qS":15922,"xが":15923,"~(":15924,"をか":15925,"ネーション":15926,"分だけ":15927,"取って":15928,"各データセット":15929,"定理":15930,"幅優先探索":15931,"maru":15932,"deck":15933,"][:-":15934,"radd":15935,"3229":15936,"6607":15937,"1744":15938,"1433":15939,"5969":15940,"3919":15941,"s_d":15942,"3680":15943,"a_L":15944,"2512":15945,"xyu":15946,"233212":15947,"list_x":15948,"make_pair":15949,"GBR":15950,"COST":15951,"ship":15952,"locals":15953,"islands":15954,"__rmul__":15955,"clockwise":15956,"ficient":15957,"getRootID":15958,"Cum":15959,"N個":15960,"cT":15961,"fD":15962,"hJ":15963,"hal":15964,"lF":15965,"lcount":15966,"qU":15967,"を取る":15968,"返り":15969,"impossible":15970,"1044":15971,"countL":15972,"cntB":15973,"884":15974,"1797":15975,"2749":15976,"2909":15977,"8489":15978,"2599":15979,"para":15980,"c_s":15981,"n_h":15982,"233432":15983,"8778":15984,"cuts":15985,"ここまで":15986,"original_":15987,"turtle":15988,"\"(\"":15989,"099":15990,"925":15991,"TMP":15992,"YM":15993,"blow":15994,"cR":15995,"jG":15996,"jO":15997,"lI":15998,"pA":15999,"sT":16000,"xK":16001,"が奇数":16002,"さん":16003,"ている":16004,"を整数":16005,"str_a":16006,"met":16007,"dpsum":16008,"1179":16009,"]*(-":16010,"321012":16011,"1829":16012,"2229":16013,"w_num":16014,"arr_":16015,"prime_num":16016,"A_plus":16017,"even_max":16018,"insertion":16019,"travel":16020,"Element":16021,"が行える":16022,"k番目の値をxに更新":16023,"1列":16024,"5J":16025,"8K":16026,">)":16027,"_last":16028,"imax":16029,"lB":16030,"pN":16031,"tL":16032,"の処理":16033,"レベル":16034,"pres":16035,"+=[(":16036,"12211":16037,"tmpy":16038,"left_sum":16039,"1493":16040,"8479":16041,"2617":16042,"find_c":16043,"perr":16044,"bit全探索":16045,"new_S":16046,"num_r":16047,"6287":16048,"23333":16049,"fileinput":16050,"8776":16051,"最小値を":16052,"eaten":16053,"binarySearch":16054,"LARGE":16055,"スキップ":16056,"ruiseki_":16057,"4r":16058,"8Z":16059,"fet":16060,"jQ":16061,"nD":16062,"qO":16063,"はず":16064,"を法":16065,"内包":16066,"関数を":16067,"):]:":16068,"dpw":16069,"2032":16070,"5939":16071,"8439":16072,"fizz":16073,"findSet":16074,"c_a":16075,"A_minus":16076,"r_int":16077,"9839":16078,"inplm":16079,"Conne":16080,"refle":16081,"sheep":16082,"serial":16083,"たどり着":16084,"コンビネーション":16085,"023":16086,"049":16087,"8k":16088,"aO":16089,"nは":16090,"uU":16091,"u_list":16092,"に到達":16093,"やり":16094,"magi":16095,"1029":16096,"maxcnt":16097,"5479":16098,"6087":16099,"8819":16100,"1700":16101,"3037":16102,"8747":16103,"s_row":16104,"3653":16105,"y_v":16106,"8237":16107,"4519":16108,"5237":16109,"9689":16110,"childre":16111,"5666":16112,"={'":16113,"options":16114,"検索が行える":16115,"variance":16116,"culc":16117,"これで二部探索":16118,"の大小検索が行える":16119,"これで二部探索の大小検索が行える":16120,"([],":16121,"8H":16122,"8V":16123,"80000":16124,"_rank":16125,"c13":16126,"opr":16127,"動小数点":16128,"())//":16129,"ermat":16130,"1809":16131,"asi":16132,"1366":16133,"1317":16134,"8839":16135,"8849":16136,"1483":16137,"1577":16138,"8469":16139,"2824":16140,"8233":16141,"sum_p":16142,"Debug":16143,"zero_list":16144,"7535":16145,"553537":16146,"[],[],[]":16147,"convenience":16148,"複数のデータセット":16149,"LIMIT":16150,"8Y":16151,"LST":16152,"VM":16153,"_answer":16154,"_distance":16155,"lP":16156,"xJ":16157,"色を":16158,"555737":16159,"('[":16160,"noqa":16161,"575737":16162,"373533":16163,"2288":16164,"6037":16165,"3019":16166,"1653":16167,"s_table":16168,"console":16169,"binomi":16170,"memo_":16171,
[...]
