{"version":"1.0","truncation":null,"padding":null,"added_tokens":[{"id":0,"special":true,"content":"[UNK]","single_word":false,"lstrip":false,"rstrip":false,"normalized":false},{"id":1,"special":true,"content":"[CLS]","single_word":false,"lstrip":false,"rstrip":false,"normalized":false},{"id":2,"special":true,"content":"[SEP]","single_word":false,"lstrip":false,"rstrip":false,"normalized":false},{"id":3,"special":true,"content":"[PAD]","single_word":false,"lstrip":false,"rstrip":false,"normalized":false},{"id":4,"special":true,"content":"[MASK]","single_word":false,"lstrip":false,"rstrip":false,"normalized":false}],"normalizer":null,"pre_tokenizer":{"type":"Whitespace"},"post_processor":null,"decoder":null,"model":{"type":"BPE","dropout":null,"unk_token":"[UNK]","continuing_subword_prefix":null,"end_of_word_suffix":null,"fuse_unk":false,"vocab":{"[UNK]":0,"[CLS]":1,"[SEP]":2,"[PAD]":3,"[MASK]":4,"\u0001":5,"\u0002":6,"\u0003":7,"\u0004":8,"\u0005":9,"\u0006":10,"\u0007":11,"\b":12,"\u000e":13,"\u000f":14,"\u0010":15,"\u0011":16,"\u0012":17,"\u0013":18,"\u0014":19,"\u0015":20,"\u0016":21,"\u0018":22,"\u0019":23,"!":24,"\"":25,"#":26,"$":27,"%":28,"&":29,"'":30,"(":31,")":32,"*":33,"+":34,",":35,"-":36,".":37,"/":38,"0":39,"1":40,"2":41,"3":42,"4":43,"5":44,"6":45,"7":46,"8":47,"9":48,":":49,";":50,"<":51,"=":52,">":53,"?":54,"@":55,"A":56,"B":57,"C":58,"D":59,"E":60,"F":61,"G":62,"H":63,"I":64,"J":65,"K":66,"L":67,"M":68,"N":69,"O":70,"P":71,"Q":72,"R":73,"S":74,"T":75,"U":76,"V":77,"W":78,"X":79,"Y":80,"Z":81,"[":82,"\\":83,"]":84,"^":85,"_":86,"`":87,"a":88,"b":89,"c":90,"d":91,"e":92,"f":93,"g":94,"h":95,"i":96,"j":97,"k":98,"l":99,"m":100,"n":101,"o":102,"p":103,"q":104,"r":105,"s":106,"t":107,"u":108,"v":109,"w":110,"x":111,"y":112,"z":113,"{":114,"|":115,"}":116,"~":117,"":118,"":119,"¢":120,"£":121,"¤":122,"¥":123,"§":124,"¨":125,"©":126,"¬":127,"°":128,"±":129,"´":130,"¶":131,"¼":132,"Â":133,"É":134,"×":135,"à":136,"á":137,"â":138,"ã":139,"ç":140,"é":141,"ö":142,"÷":143,"ü":144,"ı":145,"ş":146,"Σ":147,"α":148,"θ":149,"π":150,"φ":151,"ω":152,"ا":153,"ب":154,"ح":155,"ر":156,"س":157,"ل":158,"م":159,"ن":160,"ه":161,"ي":162,"َ":163,"ِ":164,"ّ":165,"ْ":166,"ٰ":167,"ก":168,"ข":169,"ง":170,"จ":171,"ซ":172,"ด":173,"ต":174,"ถ":175,"ท":176,"น":177,"บ":178,"ป":179,"ม":180,"ย":181,"ร":182,"ล":183,"ว":184,"ส":185,"ห":186,"อ":187,"ะ":188,"ั":189,"า":190,"ำ":191,"ี":192,"ึ":193,"ุ":194,"ู":195,"เ":196,"แ":197,"ไ":198,"็":199,"่":200,"้":201,"ậ":202,"ố":203,"ồ":204,"ỗ":205,"ử":206,"​":207,"–":208,"—":209,"―":210,"‘":211,"’":212,"“":213,"”":214,"•":215,"…":216,"※":217,"⁄":218,"⁰":219,"⁴":220,"₌":221,"←":222,"↑":223,"→":224,"↓":225,"⇄":226,"⇒":227,"⇔":228,"∀":229,"∈":230,"−":231,"√":232,"∞":233,"∠":234,"∧":235,"∩":236,"∴":237,"∵":238,"∽":239,"≒":240,"≠":241,"≡":242,"≤":243,"≦":244,"≧":245,"⊂":246,"⊃":247,"⊕":248,"⋀":249,"⋅":250,"⋮":251,"⋯":252,"①":253,"②":254,"━":255,"│":256,"═":257,"║":258,"╔":259,"╗":260,"╚":261,"╝":262,"╠":263,"╣":264,"╦":265,"╩":266,"╬":267,"▒":268,"■":269,"△":270,"▶":271,"○":272,"◯":273,"★":274,"☆":275,"⚪":276,"⚫":277,"✕":278,"✖":279,"✗":280,"✪":281,"❌":282,"➡":283,"⭕":284,"、":285,"。":286,"々":287,"〇":288,"「":289,"」":290,"『":291,"』":292,"【":293,"】":294,"〜":295,"ぁ":296,"あ":297,"い":298,"う":299,"ぇ":300,"え":301,"お":302,"か":303,"が":304,"き":305,"ぎ":306,"く":307,"ぐ":308,"け":309,"げ":310,"こ":311,"ご":312,"さ":313,"ざ":314,"し":315,"じ":316,"す":317,"ず":318,"せ":319,"ぜ":320,"そ":321,"ぞ":322,"た":323,"だ":324,"ち":325,"っ":326,"つ":327,"づ":328,"て":329,"で":330,"と":331,"ど":332,"な":333,"に":334,"ぬ":335,"ね":336,"の":337,"は":338,"ば":339,"ぱ":340,"ひ":341,"び":342,"ぴ":343,"ふ":344,"ぶ":345,"ぷ":346,"へ":347,"べ":348,"ぺ":349,"ほ":350,"ぼ":351,"ぽ":352,"ま":353,"み":354,"む":355,"め":356,"も":357,"ゃ":358,"や":359,"ゆ":360,"ょ":361,"よ":362,"ら":363,"り":364,"る":365,"れ":366,"ろ":367,"わ":368,"を":369,"ん":370,"゙":371,"゚":372,"゜":373,"ァ":374,"ア":375,"ィ":376,"イ":377,"ウ":378,"ェ":379,"エ":380,"ォ":381,"オ":382,"カ":383,"ガ":384,"キ":385,"ギ":386,"ク":387,"グ":388,"ケ":389,"ゲ":390,"コ":391,"ゴ":392,"サ":393,"ザ":394,"シ":395,"ジ":396,"ス":397,"ズ":398,"セ":399,"ゼ":400,"ソ":401,"ゾ":402,"タ":403,"ダ":404,"チ":405,"ッ":406,"ツ":407,"テ":408,"デ":409,"ト":410,"ド":411,"ナ":412,"ニ":413,"ヌ":414,"ネ":415,"ノ":416,"ハ":417,"バ":418,"パ":419,"ヒ":420,"ビ":421,"ピ":422,"フ":423,"ブ":424,"プ":425,"ヘ":426,"ベ":427,"ペ":428,"ホ":429,"ボ":430,"ポ":431,"マ":432,"ミ":433,"ム":434,"メ":435,"モ":436,"ャ":437,"ヤ":438,"ュ":439,"ユ":440,"ョ":441,"ヨ":442,"ラ":443,"リ":444,"ル":445,"レ":446,"ロ":447,"ワ":448,"ン":449,"ヴ":450,"・":451,"ー":452,"一":453,"丁":454,"七":455,"万":456,"丈":457,"三":458,"上":459,"下":460,"不":461,"与":462,"且":463,"世":464,"両":465,"並":466,"个":467,"中":468,"丸":469,"为":470,"主":471,"久":472,"之":473,"乗":474,"乡":475,"乱":476,"亀":477,"了":478,"予":479,"争":480,"事":481,"二":482,"于":483,"互":484,"五":485,"井":486,"交":487,"人":488,"今":489,"介":490,"从":491,"仕":492,"他":493,"付":494,"代":495,"以":496,"仮":497,"仲":498,"件":499,"任":500,"伊":501,"伐":502,"休":503,"会":504,"伝":505,"伴":506,"伸":507,"似":508,"但":509,"位":510,"低":511,"住":512,"体":513,"何":514,"余":515,"作":516,"併":517,"使":518,"例":519,"供":520,"依":521,"価":522,"便":523,"係":524,"保":525,"信":526,"修":527,"個":528,"倍":529,"倒":530,"候":531,"借":532,"値":533,"值":534,"偏":535,"側":536,"偶":537,"偽":538,"傍":539,"備":540,"催":541,"傾":542,"働":543,"像":544,"億":545,"優":546,"元":547,"充":548,"兆":549,"先":550,"光":551,"克":552,"児":553,"入":554,"內":555,"全":556,"公":557,"共":558,"兵":559,"其":560,"具":561,"典":562,"兼":563,"内":564,"円":565,"冊":566,"再":567,"冒":568,"写":569,"冪":570,"冷":571,"准":572,"几":573,"処":574,"凸":575,"出":576,"刀":577,"分":578,"切":579,"刈":580,"列":581,"则":582,"初":583,"判":584,"別":585,"利":586,"到":587,"制":588,"券":589,"刻":590,"則":591,"削":592,"前":593,"剣":594,"剰":595,"割":596,"力":597,"功":598,"加":599,"助":600,"労":601,"効":602,"勇":603,"勉":604,"動":605,"勝":606,"勢":607,"勤":608,"包":609,"化":610,"北":611,"匹":612,"区":613,"十":614,"千":615,"升":616,"半":617,"卓":618,"单":619,"南":620,"単":621,"印":622,"危":623,"即":624,"却":625,"厄":626,"压":627,"原":628,"厳":629,"去":630,"参":631,"及":632,"友":633,"双":634,"反":635,"収":636,"发":637,"取":638,"受":639,"变":640,"口":641,"古":642,"叩":643,"召":644,"可":645,"台":646,"右":647,"号":648,"司":649,"各":650,"合":651,"同":652,"名":653,"后":654,"吐":655,"向":656,"君":657,"吟":658,"否":659,"含":660,"吸":661,"吾":662,"告":663,"周":664,"呪":665,"味":666,"呼":667,"命":668,"和":669,"品":670,"員":671,"唯":672,"唱":673,"商":674,"問":675,"善":676,"喚":677,"喰":678,"営":679,"嘘":680,"噌":681,"器":682,"四":683,"回":684,"因":685,"団":686,"困":687,"囲":688,"図":689,"围":690,"固":691,"国":692,"土":693,"圧":694,"在":695,"地":696,"均":697,"坏":698,"型":699,"埋":700,"域":701,"執":702,"基":703,"堀":704,"報":705,"場":706,"堺":707,"塊":708,"塔":709,"塗":710,"塞":711,"填":712,"境":713,"増":714,"增":715,"壁":716,"壊":717,"士":718,"売":719,"変":720,"复":721,"夏":722,"外":723,"多":724,"夢":725,"大":726,"天":727,"太":728,"夫":729,"央":730,"失":731,"奇":732,"奥":733,"女":734,"奴":735,"好":736,"如":737,"妙":738,"始":739,"委":740,"威":741,"嫌":742,"嬉":743,"子":744,"字":745,"存":746,"孤":747,"学":748,"宅":749,"安":750,"完":751,"定":752,"宜":753,"宝":754,"実":755,"客":756,"宣":757,"室":758,"宰":759,"害":760,"家":761,"容":762,"宿":763,"寄":764,"密":765,"察":766,"審":767,"対":768,"寿":769,"封":770,"専":771,"射":772,"尋":773,"導":774,"小":775,"少":776,"就":777,"尺":778,"尻":779,"尽":780,"尾":781,"局":782,"居":783,"屈":784,"届":785,"屋":786,"展":787,"属":788,"層":789,"履":790,"山":791,"岐":792,"岩":793,"島":794,"崩":795,"巡":796,"巣":797,"工":798,"左":799,"巨":800,"差":801,"己":802,"巻":803,"市":804,"布":805,"希":806,"席":807,"帯":808,"帰":809,"帳":810,"常":811,"幅":812,"幣":813,"干":814,"平":815,"年":816,"幸":817,"幾":818,"広":819,"序":820,"底":821,"店":822,"度":823,"座":824,"庫":825,"庭":826,"延":827,"建":828,"式":829,"引":830,"弥":831,"弦":832,"弧":833,"弱":834,"張":835,"強":836,"弹":837,"弾":838,"当":839,"录":840,"形":841,"彩":842,"影":843,"彼":844,"往":845,"径":846,"待":847,"很":848,"律":849,"後":850,"徒":851,"従":852,"得":853,"御":854,"復":855,"循":856,"微":857,"心":858,"必":859,"忘":860,"応":861,"念":862,"怒":863,"怖":864,"思":865,"性":866,"怪":867,"怯":868,"恒":869,"悪":870,"悲":871,"情":872,"惇":873,"惜":874,"想":875,"意":876,"愚":877,"感":878,"態":879,"慣":880,"慮":881,"憶":882,"成":883,"戦":884,"戻":885,"所":886,"手":887,"才":888,"打":889,"払":890,"执":891,"扱":892,"承":893,"技":894,"把":895,"抑":896,"投":897,"折":898,"抜":899,"択":900,"抱":901,"押":902,"抽":903,"担":904,"拒":905,"拘":906,"拠":907,"拡":908,"括":909,"拾":910,"持":911,"指":912,"挙":913,"挟":914,"振":915,"挿":916,"捉":917,"捕":918,"捜":919,"捨":920,"掃":921,"排":922,"掛":923,"採":924,"探":925,"接":926,"掻":927,"揃":928,"提":929,"插":930,"換":931,"握":932,"損":933,"搬":934,"撃":935,"撤":936,"播":937,"操":938,"擲":939,"支":940,"改":941,"攻":942,"放":943,"故":944,"敗":945,"教":946,"散":947,"数":948,"整":949,"敵":950,"數":951,"文":952,"料":953,"斜":954,"斬":955,"断":956,"新":957,"方":958,"施":959,"旅":960,"无":961,"既":962,"日":963,"旦":964,"旧":965,"早":966,"时":967,"昇":968,"明":969,"易":970,"映":971,"昨":972,"是":973,"昼":974,"時":975,"普":976,"晴":977,"暗":978,"暫":979,"曜":980,"曲":981,"更":982,"書":983,"替":984,"最":985,"月":986,"有":987,"望":988,"朝":989,"期":990,"木":991,"未":992,"末":993,"本":994,"札":995,"杉":996,"材":997,"束":998,"条":999,"来":1000,"杯":1001,"東":1002,"松":1003,"板":1004,"枚":1005,"果":1006,"枝":1007,"枠":1008,"柄":1009,"染":1010,"柱":1011,"査":1012,"标":1013,"校":1014,"株":1015,"根":1016,"格":1017,"桁":1018,"案":1019,"棒":1020,"棟":1021,"森":1022,"検":1023,"業":1024,"極":1025,"楽":1026,"概":1027,"構":1028,"様":1029,"標":1030,"模":1031,"権":1032,"横":1033,"橋":1034,"橙":1035,"機":1036,"欄":1037,"次":1038,"欲":1039,"止":1040,"正":1041,"此":1042,"歩":1043,"歴":1044,"死":1045,"殊":1046,"残":1047,"殴":1048,"段":1049,"殺":1050,"母":1051,"毎":1052,"比":1053,"氏":1054,"気":1055,"水":1056,"求":1057,"汎":1058,"汚":1059,"決":1060,"沢":1061,"油":1062,"治":1063,"況":1064,"泊":1065,"法":1066,"泡":1067,"注":1068,"洗":1069,"活":1070,"流":1071,"浅":1072,"浮":1073,"海":1074,"消":1075,"深":1076,"混":1077,"添":1078,"済":1079,"減":1080,"渡":1081,"温":1082,"測":1083,"満":1084,"源":1085,"準":1086,"溜":1087,"滅":1088,"滞":1089,"漏":1090,"演":1091,"漸":1092,"潔":1093,"潜":1094,"潰":1095,"火":1096,"灯":1097,"灰":1098,"点":1099,"為":1100,"無":1101,"然":1102,"焼":1103,"照":1104,"煩":1105,"熟":1106,"燃":1107,"爆":1108,"片":1109,"版":1110,"物":1111,"特":1112,"犬":1113,"状":1114,"狙":1115,"独":1116,"狭":1117,"狼":1118,"猫":1119,"献":1120,"猿":1121,"獲":1122,"率":1123,"玉":1124,"环":1125,"现":1126,"現":1127,"球":1128,"理":1129,"璧":1130,"環":1131,"甘":1132,"生":1133,"産":1134,"用":1135,"田":1136,"由":1137,"男":1138,"町":1139,"画":1140,"界":1141,"畑":1142,"留":1143,"略":1144,"番":1145,"異":1146,"疑":1147,"疲":1148,"発":1149,"登":1150,"白":1151,"的":1152,"皿":1153,"益":1154,"監":1155,"盤":1156,"目":1157,"直":1158,"相":1159,"盾":1160,"省":1161,"県":1162,"真":1163,"眺":1164,"着":1165,"瞬":1166,"矛":1167,"矢":1168,"知":1169,"短":1170,"石":1171,"砂":1172,"研":1173,"砕":1174,"破":1175,"確":1176,"礎":1177,"示":1178,"社":1179,"祈":1180,"祖":1181,"神":1182,"祥":1183,"票":1184,"禁":1185,"福":1186,"离":1187,"种":1188,"科":1189,"秒":1190,"秘":1191,"称":1192,"移":1193,"程":1194,"税":1195,"種":1196,"稼":1197,"積":1198,"穴":1199,"究":1200,"空":1201,"突":1202,"窓":1203,"立":1204,"竜":1205,"端":1206,"競":1207,"笑":1208,"符":1209,"第":1210,"筆":1211,"等":1212,"答":1213,"策":1214,"箇":1215,"算":1216,"管":1217,"箱":1218,"節":1219,"範":1220,"築":1221,"篩":1222,"簡":1223,"籍":1224,"米":1225,"粋":1226,"粒":1227,"精":1228,"系":1229,"約":1230,"納":1231,"紐":1232,"純":1233,"紙":1234,"級":1235,"素":1236,"索":1237,"累":1238,"細":1239,"終":1240,"組":1241,"経":1242,"結":1243,"絞":1244,"絡":1245,"給":1246,"統":1247,"絵":1248,"絶":1249,"継":1250,"続":1251,"維":1252,"網":1253,"綺":1254,"綻":1255,"総":1256,"緑":1257,"緒":1258,"線":1259,"締":1260,"編":1261,"緩":1262,"練":1263,"縦":1264,"縫":1265,"縮":1266,"績":1267,"繋":1268,"繰":1269,"组":1270,"结":1271,"续":1272,"置":1273,"羅":1274,"羊":1275,"美":1276,"群":1277,"義":1278,"羽":1279,"翌":1280,"習":1281,"老":1282,"考":1283,"者":1284,"耐":1285,"聞":1286,"肢":1287,"肩":1288,"育":1289,"背":1290,"能":1291,"脱":1292,"脳":1293,"腕":1294,"膨":1295,"自":1296,"臭":1297,"至":1298,"致":1299,"興":1300,"舗":1301,"舞":1302,"航":1303,"般":1304,"船":1305,"良":1306,"色":1307,"节":1308,"花":1309,"若":1310,"苦":1311,"英":1312,"范":1313,"茶":1314,"荷":1315,"菓":1316,"落":1317,"葉":1318,"蓮":1319,"蔵":1320,"薬":1321,"藤":1322,"虱":1323,"蛇":1324,"蛙":1325,"蟻":1326,"行":1327,"街":1328,"衝":1329,"衡":1330,"表":1331,"被":1332,"装":1333,"裏":1334,"裕":1335,"補":1336,"複":1337,"襲":1338,"西":1339,"要":1340,"覆":1341,"見":1342,"規":1343,"視":1344,"覗":1345,"覚":1346,"覧":1347,"親":1348,"観":1349,"角":1350,"解":1351,"言":1352,"計":1353,"討":1354,"託":1355,"記":1356,"訪":1357,"設":1358,"許":1359,"証":1360,"評":1361,"試":1362,"詰":1363,"話":1364,"該":1365,"詳":1366,"認":1367,"誕":1368,"語":1369,"誤":1370,"説":1371,"読":1372,"誰":1373,"課":1374,"調":1375,"請":1376,"論":1377,"諦":1378,"講":1379,"識":1380,"警":1381,"議":1382,"记":1383,"论":1384,"证":1385,"象":1386,"負":1387,"貢":1388,"貨":1389,"貪":1390,"貫":1391,"貰":1392,"買":1393,"費":1394,"貼":1395,"賃":1396,"賄":1397,"賞":1398,"質":1399,"購":1400,"贪":1401,"赤":1402,"走":1403,"起":1404,"超":1405,"越":1406,"足":1407,"距":1408,"跡":1409,"跨":1410,"路":1411,"跳":1412,"踏":1413,"身":1414,"車":1415,"軍":1416,"転":1417,"軸":1418,"軽":1419,"較":1420,"載":1421,"输":1422,"辞":1423,"边":1424,"辺":1425,"込":1426,"辿":1427,"迄":1428,"过":1429,"迎":1430,"运":1431,"近":1432,"返":1433,"还":1434,"这":1435,"述":1436,"迷":1437,"追":1438,"退":1439,"送":1440,"逃":1441,"逆":1442,"逐":1443,"递":1444,"途":1445,"通":1446,"速":1447,"造":1448,"連":1449,"週":1450,"進":1451,"遅":1452,"遇":1453,"運":1454,"過":1455,"道":1456,"達":1457,"違":1458,"遠":1459,"遡":1460,"適":1461,"遭":1462,"遷":1463,"選":1464,"遺":1465,"避":1466,"還":1467,"邻":1468,"郎":1469,"部":1470,"都":1471,"配":1472,"酬":1473,"釈":1474,"重":1475,"量":1476,"金":1477,"針":1478,"鉄":1479,"銀":1480,"鋭":1481,"錘":1482,"錯":1483,"録":1484,"鍵":1485,"鎖":1486,"長":1487,"长":1488,"門":1489,"閉":1490,"開":1491,"間":1492,"関":1493,"閾":1494,"闇":1495,"闘":1496,"间":1497,"队":1498,"阪":1499,"防":1500,"阿":1501,"陀":1502,"降":1503,"限":1504,"除":1505,"陥":1506,"陸":1507,"険":1508,"隅":1509,"隈":1510,"階":1511,"隔":1512,"際":1513,"隣":1514,"集":1515,"雑":1516,"離":1517,"難":1518,"雲":1519,"零":1520,"電":1521,"青":1522,"静":1523,"非":1524,"面":1525,"音":1526,"響":1527,"頁":1528,"頂":1529,"項":1530,"順":1531,"須":1532,"頑":1533,"頓":1534,"領":1535,"頭":1536,"頻":1537,"題":1538,"額":1539,"顔":1540,"願":1541,"類":1542,"顧":1543,"颜":1544,"風":1545,"飛":1546,"食":1547,"飲":1548,"飴":1549,"餅":1550,"養":1551,"館":1552,"首":1553,"馬":1554,"駄":1555,"駅":1556,"駒":1557,"験":1558,"高":1559,"鬼":1560,"魔":1561,"魚":1562,"鳩":1563,"鶴":1564,"麗":1565,"黄":1566,"黒":1567,"齢":1568,"龍":1569,"갈":1570,"값":1571,"거":1572,"걸":1573,"경":1574,"꺼":1575,"내":1576,"넣":1577,"는":1578,"다":1579,"도":1580,"동":1581,"뒤":1582,"록":1583,"료":1584,"를":1585,"마":1586,"면":1587,"문":1588,"방":1589,"법":1590,"벤":1591,"변":1592,"보":1593,"부":1594,"블":1595,"빈":1596,"사":1597,"상":1598,"색":1599,"서":1600,"수":1601,"씩":1602,"앞":1603,"야":1604,"어":1605,"에":1606,"용":1607,"우":1608,"위":1609,"을":1610,"음":1611,"이":1612,"인":1613,"일":1614,"있":1615,"작":1616,"장":1617,"재":1618,"저":1619,"점":1620,"접":1621,"제":1622,"종":1623,"좌":1624,"줘":1625,"지":1626,"착":1627,"체":1628,"최":1629,"칸":1630,"큐":1631,"크":1632,"탐":1633,"터":1634,"하":1635,"한":1636,"함":1637,"확":1638,"활":1639,"후":1640,"︎":1641,"️":1642,"！":1643,"＃":1644,"＆":1645,"（":1646,"）":1647,"＊":1648,"＋":1649,"，":1650,"．":1651,"／":1652,"０":1653,"１":1654,"２":1655,"３":1656,"４":1657,"５":1658,"６":1659,"７":1660,"８":1661,"９":1662,"：":1663,"；":1664,"＜":1665,"＝":1666,"＞":1667,"？":1668,"Ａ":1669,"Ｂ":1670,"Ｃ":1671,"Ｄ":1672,"Ｊ":1673,"Ｎ":1674,"Ｕ":1675,"＼":1676,"＾":1677,"＿":1678,"ｃ":1679,"ｄ":1680,"ｈ":1681,"ｉ":1682,"ｊ":1683,"ｋ":1684,"ｌ":1685,"ｍ":1686,"ｎ":1687,"ｐ":1688,"ｑ":1689,"ｓ":1690,"ｔ":1691,"ｕ":1692,"ｖ":1693,"ｗ":1694,"ｘ":1695,"ｙ":1696,"｛":1697,"｝":1698,"～":1699,"｣":1700,"･":1701,"￣":1702,"�":1703,"￿":1704,"in":1705,"()":1706,"int":1707,"or":1708,"an":1709,"li":1710,"for":1711,"if":1712,"ut":1713,"pr":1714,"se":1715,"st":1716,"ma":1717,"inp":1718,"re":1719,"input":1720,"):":1721,"print":1722,"ge":1723,"ran":1724,"range":1725,"())":1726,"==":1727,"en":1728,"de":1729,"ans":1730,"().":1731,"sp":1732,"lit":1733,"split":1734,"co":1735,"mp":1736,"nt":1737,"map":1738,"lse":1739,"ort":1740,"))":1741,"list":1742,"+=":1743,"ur":1744,"else":1745,"er":1746,"um":1747,"10":1748,"ap":1749,"][":1750,"def":1751,"ret":1752,"le":1753,"])":1754,"urn":1755,"return":1756,"imp":1757,"import":1758,"app":1759,"end":1760,"it":1761,"ct":1762,"ue":1763,"on":1764,"00":1765,"at":1766,"append":1767,"len":1768,"lf":1769,"self":1770,"rea":1771,"99":1772,"unt":1773,"__":1774,"ro":1775,"ar":1776,"(\"":1777,"ys":1778,"count":1779,"al":1780,"di":1781,"max":1782,"sys":1783,")]":1784,"th":1785,"()))":1786,"##":1787,"num":1788,"\")":1789,"('":1790,"//":1791,"la":1792,"and":1793,"ion":1794,"**":1795,"[]":1796,"min":1797,"str":1798,"me":1799,"dp":1800,"mo":1801,"():":1802,"hi":1803,"no":1804,"ab":1805,"11":1806,"cnt":1807,"')":1808,"sum":1809,"he":1810,"fro":1811,"]:":1812,"from":1813,"main":1814,"ed":1815,"lin":1816,"lif":1817,"elif":1818,"din":1819,"po":1820,"res":1821,"read":1822,"ex":1823,"line":1824,"],":1825,"<=":1826,"whi":1827,"while":1828,"to":1829,"!=":1830,"lo":1831,"sort":1832,"reak":1833,"break":1834,"tmp":1835,"es":1836,"math":1837,"12":1838,"Tr":1839,"True":1840,"is":1841,"ions":1842,"_list":1843,"ce":1844,"ul":1845,"stdin":1846,"ol":1847,">=":1848,"mb":1849,"mod":1850,"readline":1851,"((":1852,"':":1853,"13":1854,"col":1855,"ra":1856,"id":1857,"set":1858,"[-":1859,"??":1860,"\"\"":1861,"]*":1862,"-=":1863,"ve":1864,"ke":1865,"ig":1866,"ft":1867,"No":1868,"\":":1869,"ac":1870,"####":1871,"ult":1872,"ctions":1873,"--":1874,"abs":1875,"ht":1876,"un":1877,"val":1878,"19":1879,"9999":1880,"),":1881,"left":1882,"us":1883,"da":1884,"ate":1885,"te":1886,"as":1887,"op":1888,"53":1889,"Fa":1890,"ime":1891,"77":1892,"43":1893,"Yes":1894,"([":1895,"20":1896,"que":1897,"np":1898,"ip":1899,"ise":1900,"False":1901,"ight":1902,"cur":1903,"83":1904,"]+":1905,"ch":1906,")):":1907,"63":1908,"23":1909,"cd":1910,"dex":1911,"=[":1912,"[:":1913,"0000":1914,"]-":1915,"47":1916,"17":1917,"ad":1918,"ame":1919,"]=":1920,"67":1921,"cont":1922,"57":1923,"].":1924,"not":1925,"colle":1926,"collections":1927,"exit":1928,"59":1929,"index":1930,"87":1931,"27":1932,"49":1933,"69":1934,"]==":1935,"89":1936,"flo":1937,"(-":1938,"fa":1939,"ver":1940,"29":1941,"bise":1942,"lag":1943,"bisect":1944,"lamb":1945,"lambda":1946,"contin":1947,"continue":1948,"flag":1949,"one":1950,"name":1951,"py":1952,"gcd":1953,"dist":1954,"sorted":1955,"dict":1956,"60":1957,"()]":1958,"temp":1959,"ols":1960,"ind":1961,"right":1962,"up":1963,"18":1964,"get":1965,"si":1966,"ite":1967,"w_":1968,"ck":1969,"__name":1970,"__name__":1971,"iter":1972,"ot":1973,"__main":1974,"__main__":1975,"]))":1976,"OD":1977,"heap":1978,"50":1979,"key":1980,"fact":1981,"33":1982,"ne":1983,")-":1984,"ext":1985,"\",":1986,"24":1987,"]]":1988,"MOD":1989,"verse":1990,"dat":1991,"',":1992,"node":1993,"result":1994,"pop":1995,"21":1996,"strip":1997,"pa":1998,"jo":1999,"arr":2000,"float":2001,"Co":2002,"IN":2003,"max_":2004,"vis":2005,"51":2006,"now":2007,"inf":2008,"80":2009,"40":2010,"sc":2011,"ing":2012,"heapp":2013,"ss":2014,")))":2015,"61":2016,"rt":2017,"reverse":2018,"ff":2019,"rent":2020,"value":2021,"tools":2022,"wer":2023,"idx":2024,"od":2025,")+":2026,"*(":2027,"????":2028,"deque":2029,"41":2030,"s_":2031,"olve":2032,"data":2033,"itertools":2034,"cost":2035,"{}":2036,"art":2037,"il":2038,"100":2039,"81":2040,"prime":2041,"ze":2042,"\"\"\"":2043,"----":2044,"[[":2045,"heapq":2046,"26":2047,"bu":2048,"mat":2049,"=[]":2050,"lim":2051,"30":2052,"next":2053,"ray":2054,"Count":2055,"che":2056,"item":2057,"root":2058,"None":2059,"add":2060,"defa":2061,"default":2062,"AB":2063,"pre":2064,"comb":2065,")//":2066,"LI":2067,"39":2068,"array":2069,"start":2070,"'.":2071,"37":2072,"########":2073,"limit":2074,"factor":2075,"edge":2076,"time":2077,"join":2078,"fun":2079,"aa":2080,"Counter":2081,"fi":2082,"pos":2083,"ree":2084,"ist":2085,"a_":2086,"ls":2087,"ord":2088,"check":2089,"df":2090,"su":2091,"copy":2092,"tot":2093,"*=":2094,"be":2095,"55":2096,"sion":2097,"solve":2098,"\".":2099,"97":2100,"ush":2101,"gr":2102,"numb":2103,"defaultdict":2104,"out":2105,"lst":2106,"able":2107,"ai":2108,"recur":2109,"find":2110,"ty":2111,"*-":2112,"ations":2113,"pe":2114,"recursion":2115,"parent":2116,"000":2117,"total":2118,"recursionlimit":2119,"setrecursionlimit":2120,"INF":2121,"dic":2122,"number":2123,"-*-":2124,"14":2125,"ci":2126,"ore":2127,"enum":2128,"erate":2129,"64":2130,"nu":2131,"15":2132,"ase":2133,"enumerate":2134,"_b":2135,"sq":2136,"''":2137,")%":2138,"factori":2139,"rstrip":2140,"_c":2141,"25":2142,"28":2143,"size":2144,"+-":2145,"100000":2146,"os":2147,"[(":2148,"all":2149,"(*":2150,")*":2151,"bisect_":2152,"qu":2153,"inv":2154,"_num":2155,"mid":2156,"tr":2157,"per":2158,"nx":2159,"+-+-":2160,"pow":2161,":-":2162,"red":2163,"65":2164,"score":2165,"ding":2166,"st_":2167,"List":2168,"]*(":2169,"ok":2170,"bin":2171,"]):":2172,"ent":2173,"90":2174,"heappush":2175,",-":2176,"68":2177,"_count":2178,"mpy":2179,"ld":2180,"48":2181,"99999999":2182,"der":2183,"min_":2184,"lc":2185,"answer":2186,"bo":2187,"utf":2188,"numpy":2189,"point":2190,"fl":2191,"79":2192,"coding":2193,"con":2194,"sqrt":2195,"ll":2196,"45":2197,"do":2198,"%=":2199,"dif":2200,"init":2201,"ep":2202,"buff":2203,"ta":2204,"cum":2205,"ors":2206,"visit":2207,"raw_":2208,"22":2209,"tree":2210,"ri":2211,"lis":2212,"<<":2213,"70":2214,"ack":2215,"factorial":2216,"divis":2217,"combin":2218,"raw_input":2219,"ES":2220,"row":2221,"pi":2222,"pla":2223,"dfs":2224,")/":2225,"44":2226,">>":2227,"buffer":2228,"y_":2229,"aph":2230,"NO":2231,"ter":2232,"memo":2233,"fra":2234,"string":2235,"73":2236,"is_":2237,"93":2238,"bit":2239,"arg":2240,"[::-":2241,"type":2242,"ny":2243,"pat":2244,"table":2245,"88":2246,"use":2247,"..":2248,"counter":2249,"move":2250,"heappop":2251,"ns":2252,"cc":2253,"graph":2254,"66":2255,"c_":2256,"format":2257,"lcm":2258,"MA":2259,"visited":2260,"sh":2261,"d_":2262,"n_":2263,"cal":2264,"AC":2265,"place":2266,"combinations":2267,"31":2268,"of":2269,"diff":2270,"seg":2271,"color":2272,"54":2273,"ceil":2274,"fractions":2275,"dd":2276,"する":2277,"xy":2278,"leng":2279,"lass":2280,"2019":2281,"erat":2282,"58":2283,"36":2284,":]":2285,"zer":2286,"_a":2287,"thon":2288,"x1":2289,"prev":2290,"16":2291,"class":2292,"com":2293,"divisors":2294,"--------":2295,").":2296,"ven":2297,"ken":2298,"funct":2299,"par":2300,"32":2301,"bb":2302,"i_":2303,"bisect_left":2304,"x_":2305,"x2":2306,"42":2307,"length":2308,"ard":2309,"\",\"":2310,"quer":2311,"????????":2312,"fe":2313,"div":2314,"YES":2315,"pl":2316,"dy":2317,"1000":2318,"]+=":2319,"ir":2320,"ABC":2321,"01":2322,"_w":2323,"python":2324,"sub":2325,"date":2326,"=\"":2327,"62":2328,"floor":2329,"redu":2330,"l_":2331,"items":2332,"sa":2333,"reduce":2334,"sert":2335,"func":2336,"prod":2337,"pp":2338,"values":2339,"flg":2340,"s2":2341,"a1":2342,"mi":2343,"mal":2344,"c1":2345,"','":2346,"ance":2347,"tup":2348,"replace":2349,"nums":2350,"ho":2351,"====":2352,"the":2353,"85":2354,"new_":2355,"stack":2356,"tar":2357,"sum_":2358,"dx":2359,"())))":2360,"'#":2361,"pas":2362,"y1":2363,"zip":2364,"ther":2365,"query":2366,"ools":2367,"functools":2368,"bf":2369,"tuple":2370,"erator":2371,"a2":2372,"go":2373,"perm":2374,"c2":2375,"queue":2376,"84":2377,"ps":2378,"ic":2379,"A_":2380,"//=":2381,"[[]":2382,"we":2383,"abc":2384,"56":2385,"new":2386,"put":2387,"fac":2388,"wr":2389,"=(":2390,"next_":2391,"last":2392,"pt":2393,"target":2394,"other":2395,"ak":2396,"DP":2397,"word":2398,"\"#":2399,"91":2400,"07":2401,"y2":2402,"token":2403,"='":2404,"86":2405,"_s":2406,"lr":2407,"_n":2408,"#!":2409,"arch":2410,"52":2411,"tokens":2412,"46":2413,"s1":2414,"ation":2415,"ii":2416,"usr":2417,"cimal":2418,"ans_":2419,"+-+-+-+-":2420,"env":2421,"uct":2422,"path":2423,"71":2424,"LE":2425,"pass":2426,")==":2427,"################":2428,")])":2429,"init__":2430,"__init__":2431,"remove":2432,"]!=":2433,"38":2434,"ST":2435,"roup":2436,"accum":2437,"popleft":2438,"ment":2439,"num_":2440,"fir":2441,"wa":2442,"current":2443,"permut":2444,"03":2445,"WA":2446,"rr":2447,"ulate":2448,"im":2449,"_sum":2450,");":2451,"keys":2452,"]),":2453,"even":2454,"82":2455,"['":2456,"mx":2457,"ju":2458,"09":2459,"スト":2460,"から":2461,"edges":2462,"search":2463,"500":2464,"mon":2465,"ない":2466,"De":2467,"permutations":2468,"group":2469,"product":2470,"numbers":2471,"ou":2472,"ith":2473,"_max":2474,"35":2475,"log":2476,"bc":2477,"operator":2478,"Se":2479,"_i":2480,"loop":2481,"LS":2482,"#!/":2483,"]==\"":2484,"chi":2485,"dig":2486,"999":2487,"parents":2488,"odd":2489,"order":2490,"ob":2491,"accumulate":2492,"34":2493,"std":2494,"can":2495,"78":2496,"->":2497,"lower":2498,"python3":2499,"ha":2500,"kai":2501,"-(":2502,"tmp_":2503,"ki":2504,"b1":2505,"100000000":2506,"mul":2507,"dep":2508,"get_":2509,"f0":2510,"d2":2511,"して":2512,"In":2513,"bl":2514,"r_":2515,"del":2516,"'))":2517,")**":2518,"c0":2519,"cs":2520,"\"))":2521,"rank":2522,"IO":2523,"eld":2524,"ba":2525,"==\"":2526,"75":2527,"und":2528,":])":2529,"[:-":2530,"bal":2531,"base":2532,"by":2533,"args":2534,"]=='":2535,"pair":2536,"bisect_right":2537,"ele":2538,"used":2539,"output":2540,"ax":2541,"']":2542,"98":2543,"b2":2544,"read_":2545,"distance":2546,"ca":2547,"Int":2548,"cl":2549,"fd":2550,"plus":2551,"uf":2552,"_cnt":2553,"alp":2554,"95":2555,"ni":2556,"insert":2557,"minus":2558,"child":2559,"76":2560,"74":2561,"zero":2562,"xx":2563,"dge":2564,"ice":2565,"grid":2566,"adj":2567,"72":2568,"]>":2569,"a_list":2570,"08":2571,"[\"":2572,"1000000007":2573,"ble":2574,"dom":2575,"]%":2576,"make":2577,"random":2578,"sep":2579,"jk":2580,"b_":2581,"1e":2582,"94":2583,"vv":2584,")*(":2585,"96":2586,"reversed":2587,"MAX":2588,"zy":2589,"10000":2590,"**(":2591,"'''":2592,"update":2593,"]<":2594,"et":2595,"dis":2596,"cy":2597,"=='":2598,"AN":2599,"sy":2600,"92":2601,"first":2602,"am":2603,"comp":2604,"bi":2605,"depth":2606,"step":2607,"cle":2608,"RE":2609,"digit":2610,"(),":2611,"),(":2612,"d1":2613,"ction":2614,"ng":2615,"101":2616,"SI":2617,"#####":2618,"AR":2619,"my":2620,"\"+":2621,"p_":2622,"count_":2623,"As":2624,"ify":2625,"gh":2626,"code":2627,"char":2628,"calc":2629,"est":2630,"resolve":2631,"af":2632,"ange":2633,"]])":2634,"getter":2635,"deep":2636,"cf":2637,"open":2638,"場合":2639,"ms":2640,"common":2641,"::":2642,"sw":2643,"リスト":2644,"n2":2645,"fo":2646,"sr":2647,"yi":2648,"n1":2649,"入力":2650,"cept":2651,"Tree":2652,"input_":2653,"Un":2654,"upper":2655,"so":2656,"p2":2657,"itemgetter":2658,"MI":2659,"deepcopy":2660,"+(":2661,"XY":2662,"ee":2663,"nn":2664,"list_":2665,"zeros":2666,"sl":2667,"tw":2668,"stdout":2669,"wh":2670,"br":2671,"ive":2672,"]][":2673,"neg":2674,"heapify":2675,"cb":2676,"p1":2677,"v1":2678,"ary":2679,"v2":2680,"\"):":2681,")[":2682,"gy":2683,"c3":2684,"test":2685,"_index":2686,"lack":2687,"rs":2688,"file":2689,"'#':":2690,"case":2691,"chr":2692,"card":2693,"b0":2694,"_x":2695,"ae":2696,"Py":2697,"glo":2698,"a0":2699,"Num":2700,"])+":2701,"l1":2702,"low":2703,"sm":2704,"LR":2705,"\"]":2706,"++":2707,"vert":2708,"ity":2709,"global":2710,"write":2711,"tx":2712,"ans2":2713,"ache":2714,"_1":2715,"kaijo":2716,"pq":2717,"judge":2718,"ks":2719,"primes":2720,"is_prime":2721,"l2":2722,"\"#\":":2723,"kk":2724,"ong":2725,"cand":2726,"_node":2727,"a3":2728,"lines":2729,"Decimal":2730,"make_":2731,"_t":2732,"999999999999":2733,"db":2734,"Find":2735,"~~":2736,"now_":2737,"cond":2738,"========":2739,"文字":2740,"Ch":2741,"imum":2742,"AL":2743,"i2":2744,"dice":2745,"ka":2746,"cos":2747,"ef":2748,"wn":2749,"t_":2750,"----------------":2751,"try":2752,"weight":2753,"match":2754,"'+":2755,",(":2756,"d0":2757,"ition":2758,"%(":2759,"Ans":2760,"_to":2761,"height":2762,"_l":2763,"most_":2764,"stat":2765,"readlines":2766,"UN":2767,"lm":2768,"rix":2769,"sk":2770,"MAP":2771,"i1":2772,"_r":2773,"って":2774,"=[[":2775,"'):":2776,"ti":2777,"f2":2778,"ある":2779,"mer":2780,"xrange":2781,"_dict":2782,"OK":2783,"na":2784,"xs":2785,"ute":2786,"seen":2787,"ans1":2788,"except":2789,"htt":2790,"://":2791,"io":2792,"nd":2793,"まで":2794,"je":2795,"とき":2796,":]:":2797,"fore":2798,"nC":2799,"DE":2800,"IT":2801,"asci":2802,"m1":2803,"aku":2804,"ate_":2805,"mn":2806,"tt":2807,"ED":2808,"6f":2809,"=-":2810,"ain":2811,"vw":2812,"ANS":2813,"dtype":2814,"all_":2815,"most_common":2816,"before":2817,"r1":2818,"r2":2819,"II":2820,"Di":2821,"SR":2822,"rev":2823,"sx":2824,"_y":2825,"fil":2826,"Mod":2827,"))+":2828,"00000":2829,"f1":2830,"+-+-+-+-+-+-+-+-":2831,"b3":2832,"top":2833,"decimal":2834,"matrix":2835,"Union":2836,"dc":2837,"mone":2838,"_2":2839,"yy":2840,"t1":2841,"assert":2842,"change":2843,"INT":2844,"ow":2845,"dw":2846,"ru":2847,"av":2848,"black":2849,"seq":2850,"m2":2851,"'.':":2852,"He":2853,"long":2854,"PO":2855,"...":2856,"5f":2857,"deg":2858,"coder":2859,"power":2860,"https":2861,"の最":2862,"here":2863,")>":2864,"った":2865,"=\"\")":2866,"xi":2867,"last_":2868,"_p":2869,"ub":2870,"nv":2871,"4e":2872,"ay":2873,"_memo":2874,"t2":2875,"high":2876,"nodes":2877,"same":2878,"Seg":2879,"money":2880,"atcoder":2881,"aaa":2882,"AT":2883,"ori":2884,"BC":2885,"d7":2886,"nj":2887,"g2":2888,"dire":2889,"nxt":2890,"^^":2891,"yo":2892,"ren":2893,"c7":2894,"6e":2895,"(\"\".":2896,"cmb":2897,"8e":2898,"has":2899,"の数":2900,"b9":2901,"vo":2902,"x3":2903,"5e":2904,"pro":2905,"])-":2906,"Node":2907,"dh":2908,"ts":2909,"nw":2910,"した":2911,"patter":2912,"8f":2913,"824":2914,"{}\".":2915,"field":2916,"RO":2917,"rest":2918,"b7":2919,"ji":2920,"war":2921,"px":2922,"4f":2923,"bd":2924,"om":2925,">>=":2926,"lru":2927,"kaijo_memo":2928,"ide":2929,"day":2930,"cw":2931,"zz":2932,"UM":2933,"]>=":2934,"_cache":2935,"LL":2936,"prime_":2937,"_d":2938,"いる":2939,"vs":2940,"UnionFind":2941,"SS":2942,"GC":2943,"ptr":2944,"sible":2945,"ds":2946,"acc":2947,"lru_cache":2948,"clu":2949,"400":2950,"Pr":2951,"fin":2952,"union":2953,"c9":2954,"_length":2955,"g1":2956,"points":2957,"goal":2958,"123":2959,"d3":2960,"1000000":2961,"wise":2962,"ry":2963,"\".\":":2964,"06":2965,"AA":2966,"Err":2967,"bfs":2968,"ger":2969,"ModInt":2970,"200":2971,"remain":2972,"'#'":2973,"_set":2974,"dq":2975,"))))":2976,"ali":2977,"uu":2978,"coprime":2979,"LF":2980,"nk":2981,"NG":2982,"yield":2983,"a7":2984,"れる":2985,"ascii_":2986,"clude":2987,"ko":2988,"(''.":2989,"nc":2990,"inputs":2991,"late":2992,"mm":2993,"LIST":2994,"kw":2995,"ans_list":2996,"_h":2997,"')]":2998,"S_":2999,"_idx":3000,"()[":3001,"頂点":3002,"\"#\"":3003,"S2":3004,"ky":3005,"md":3006,"v_":3007,"head":3008,"TLE":3009,"A2":3010,"den":3011,"rec":3012,"ers":3013,"stra":3014,"hs":3015,"ly":3016,"dele":3017,"])]":3018,"ON":3019,"sin":3020,"state":3021,"S1":3022,"jp":3023,"なる":3024,"要素":3025,"][-":3026,"なら":3027,"iterate_":3028,"Index":3029,"wi":3030,"Error":3031,"price":3032,"])%":3033,"safe":3034,"')))":3035,"info":3036,"iterate_tokens":3037,"tas":3038,"lists":3039,"Ar":3040,"k2":3041,"UT":3042,"include":3043,"num_list":3044,"f9":3045,"OR":3046,"a9":3047,"d9":3048,"hoge":3049,"103":3050,"c4":3051,"tra":3052,"man":3053,"計算":3054,"second":3055,"Sum":3056,"maze":3057,"cycle":3058,"A1":3059,"b5":3060,"x0":3061,"ので":3062,"ama":3063,"nl":3064,"y3":3065,"_min":3066,"\")))":3067,"b4":3068,"b8":3069,"fr":3070,"ject":3071,"f3":3072,"counts":3073,"rem":3074,"vertex":3075,"■■":3076,"[],":3077,"える":3078,"off":3079,"h2":3080,"])):":3081,"ine":3082,"template":3083,"hq":3084,"rx":3085,"radi":3086,"05":3087,"lt":3088,"????????????????":3089,"c5":3090,"ces":3091,"497":3092,"1000000000":3093,"ith_":3094,"blue":3095,"bs":3096,"A_list":3097,"_v":3098,"4353":3099,"two":3100,"ea":3101,"107":3102,"ctor":3103,"nh":3104,"LC":3105,"ープ":3106,"################################":3107,"c6":3108,"sol":3109,"137":3110,"extend":3111,"02":3112,"cp":3113,"ER":3114,"127":3115,"inverse":3116,"ag":3117,"mall":3118,"111":3119,"673":3120,"buf":3121,"delete":3122,"647":3123,"PY":3124,"c8":3125,"sig":3126,"f8":3127,"vi":3128,"483":3129,"ye":3130,"203":3131,"f7":3132,"hp":3133,"roots":3134,"jj":3135,"探索":3136,"ach":3137,"109":3138,"607":3139,"La":3140,"list1":3141,"ww":3142,"179":3143,"])))":3144,"appendleft":3145,"hy":3146,"lb":3147,"[]:":3148,"candi":3149,"99824":3150,"119":3151,"bool":3152,"_A":3153,"値を":3154,"NI":3155,"))]":3156,"find_":3157,"zu":3158,"距離":3159,"ence":3160,"597":3161,"zation":3162,"in_":3163,"road":3164,"radians":3165,"\")]":3166,"539":3167,"''.":3168,"replacement":3169,"679":3170,"める":3171,"ード":3172,"997":3173,"lazy":3174,"merge":3175,"697":3176,"437":3177,"cho":3178,"f4":3179,"alph":3180,"kou":3181,"633":3182,"239":3183,"Sort":3184,"]//":3185,"nex":3186,"998244353":3187,"Val":3188,"609":3189,"SP":3190,"pon":3191,"Ai":3192,"amari":3193,"Ex":3194,"b6":3195,"keta":3196,"pattern":3197,"BU":3198,"_size":3199,"='')":3200,"cted":3201,"minimum":3202,"433":3203,"act":3204,"white":3205,"={}":3206,"Pos":3207,"e0":3208,"ative":3209,"meth":3210,"593":3211,"809":3212,"]<=":3213,"cu":3214,"439":3215,"503":3216,"pppp":3217,"make_divisors":3218,"_left":3219,"\"\".":3220,"cx":3221,"h1":3222,"wv":3223,"reach":3224,"173":3225,"N0":3226,"k1":3227,"s_list":3228,"cnt_":3229,"))%":3230,"hh":3231,"dp2":3232,"mode":3233,"129":3234,"237":3235,"IR":3236,"ant":3237,"round":3238,"839":3239,"jkstra":3240,"ARC":3241,"TH":3242,"over":3243,"stu":3244,"('\\":3245,"131":3246,"finv":3247,"AP":3248,"mini":3249,"197":3250,"'.'":3251,"Ro":3252,"are":3253,"113":3254,"([])":3255,"401":3256,"gt":3257,"+=(":3258,"こと":3259,"207":3260,"180":3261,"of_":3262,"/(":3263,"nb":3264,"_with_":3265,"d4":3266,"d8":3267,"ek":3268,")),":3269,"route":3270,"139":3271,"777":3272,"879":3273,"fb":3274,"ループ":3275,"],[":3276,"637":3277,"491":3278,"493":3279,"RR":3280,"modin":3281,"tmp2":3282,"])*":3283,")}":3284,"693":3285,",\"":3286,"出力":3287,"479":3288,"len_":3289,"half":3290,"3333":3291,"bug":3292,"Po":3293,"d5":3294,"整数":3295,"691":3296,"Max":3297,"Str":3298,"293":3299,"579":3300,"800":3301,"LO":3302,"_start":3303,"ork":3304,"897":3305,"ZE":3306,"_val":3307,"arge":3308,"507":3309,"At":3310,"side":3311,"qq":3312,"erase":3313,"ipy":3314,"573":3315,"mult":3316,"OF":3317,"533":3318,"/=":3319,"f5":3320,"fc":3321,"537":3322,"473":3323,"807":3324,"mt":3325,"[:]":3326,"893":3327,"431":3328,"407":3329,"modinv":3330,"Re":3331,"a5":3332,"5000":3333,"a4":3334,"cap":3335,"d6":3336,"Eve":3337,"alist":3338,"('#":3339,"233":3340,"read_int":3341,"]].":3342,"done":3343,"mu":3344,"201":3345,"297":3346,"]-=":3347,"e2":3348,"h_":3349,"combinations_with_":3350,"gyaku":3351,"combinations_with_replacement":3352,"TU":3353,"rl":3354,"ート":3355,"repe":3356,"209":3357,"contest":3358,"flush":3359,"数を":3360,"int64":3361,"04":3362,"993":3363,"773":3364,"601":3365,"St":3366,"833":3367,"segfunc":3368,"eve":3369,"181":3370,"repeat":3371,"117":3372,"(((":3373,"scipy":3374,"133":3375,"639":3376,"[:,":3377,"_bo":3378,"ang":3379,"IL":3380,"e9":3381,"FF":3382,"れば":3383,"返す":3384,"cumsum":3385,"837":3386,"603":3387,"param":3388,"671":3389,"279":3390,"CO":3391,"e3":3392,"()])":3393,"ones":3394,"######":3395,"509":3396,"offset":3397,"501":3398,"yes":3399,"591":3400,"board":3401,"drea":3402,"ml":3403,"rand":3404,"old":3405,"calc_":3406,"171":3407,"873":3408,"factorization":3409,"dt":3410,"vot":3411,"779":3412,"{}'.":3413,"LI_":3414,"Yo":3415,"memb":3416,"using":3417,"e1":3418,"el":3419,"273":3420,"inpl":3421,"FR":3422,"IM":3423,"]]:":3424,"SE":3425,"_id":3426,"unite":3427,"121":3428,"add_":3429,"position":3430,"xyz":3431,"gyaku_":3432,")<":3433,"run":3434,"631":3435,"digits":3436,"bx":3437,"debug":3438,"//(":3439,"method":3440,"191":3441,"POS":3442,"(\"-":3443,"BD":3444,"_from":3445,"FS":3446,"803":3447,"alpha":3448,"pc":3449,"([(":3450,"BLE":3451,"871":3452,"Ob":3453,"571":3454,"XX":3455,"e7":3456,"inst":3457,"mar":3458,"times":3459,"ec":3460,"409":3461,"emp":3462,"box":3463,"番目":3464,"fill":3465,"f6":3466,"s3":3467,"POSSI":3468,"ari":3469,"vector":3470,"POSSIBLE":3471,"ace":3472,"=[[]":3473,"ingo":3474,"dijkstra":3475,"Ne":3476,"w1":3477,"y0":3478,"ator":3479,"(\"#":3480,"A3":3481,"curr":3482,"CH":3483,"m_":3484,"txt":3485,"_str":3486,"inter":3487,"al_":3488,"a6":3489,"ノード":3490,"inte":3491,"fs":3492,"decode":3493,"403":3494,"文字列":3495,"PQ":3496,"801":3497,"nCr":3498,"costs":3499,"\"-":3500,"()[:-":3501,"0x":3502,"lice":3503,"Gr":3504,"eval":3505,"ln":3506,")[::-":3507,"最小":3508,"this":3509,"colors":3510,"193":3511,"531":3512,"small":3513,"471":3514,"LIR":3515,"An":3516,"EN":3517,"_map":3518,"best":3519,",'":3520,"最大":3521,")<=":3522,"``":3523,"a8":3524,"gx":3525,"tail":3526,"gs":3527,"初期":3528,"factors":3529,":]))":3530,"BB":3531,"rees":3532,"abet":3533,"231":3534,"bit_length":3535,"KI":3536,"];":3537,"241":3538,"kouho":3539,"DI":3540,"_len":3541,"}\".":3542,"271":3543,"i8":3544,"もの":3545,"dj":3546,"x4":3547,"でき":3548,"???":3549,"pf":3550,"配列":3551,"lock":3552,"typ":3553,"text":3554,"();":3555,"ores":3556,"SegTree":3557,"Qu":3558,"link":3559,"Cw":3560,"v0":3561,"ata":3562,"loc":3563,"3200":3564,"reachable":3565,"Be":3566,"divisor":3567,"du":3568,"to_":3569,"buil":3570,"T1":3571,"area":3572,"dest":3573,"'*":3574,"360":3575,"その":3576,"(\"\\":3577,"dp1":3578,"L2":3579,"hon":3580,"mod_":3581,"tate":3582,"ten":3583,"first_":3584,"277":3585,"589":3586,"mas":3587,"sign":3588,"back":3589,"ev":3590,"================":3591,"gi":3592,"work":3593,"\".\"":3594,"同じ":3595,"element":3596,"ID":3597,"w2":3598,"num2":3599,"comm":3600,"9999999999999":3601,"tl":3602,"{:":3603,"NM":3604,"T2":3605,"ws":3606,"pivot":3607,"RL":3608,"large":3609,"push":3610,"1200":3611,"alphabet":3612,"nm":3613,"uk":3614,"いて":3615,"499":3616,"ies":3617,"lowercase":3618,"q2":3619,"vl":3620,"ける":3621,"insort":3622,"831":3623,"instance":3624,"'?":3625,"bun":3626,"j1":3627,">>>":3628,"427":3629,"To":3630,"uni":3631,"test_":3632,"fn":3633,"factorize":3634,"found":3635,"pw":3636,"sz":3637,"(-(-":3638,"667":3639,"combination":3640,"~~~~":3641,"819":3642,"Ty":3643,"dec":3644,"define":3645,"891":3646,"211":3647,"let":3648,"unit":3649,"short":3650,"groupby":3651,"HH":3652,"sums":3653,"chk":3654,"bon":3655,"qi":3656,"fter":3657,"ascii_lowercase":3658,"B1":3659,"LA":3660,"Sun":3661,"lu":3662,"771":3663,"cr":3664,"imo":3665,"取得":3666,"求める":3667,"raise":3668,"max_num":3669,"conne":3670,"ref":3671,"children":3672,"B2":3673,"Que":3674,"_cost":3675,"big":3676,"GH":3677,"Le":3678,"MM":3679,"()):":3680,"cards":3681,"Dw":3682,"bingo":3683,"処理":3684,"ated":3685,"exp":3686,"isinstance":3687,"_N":3688,"9999999999":3689,"){":3690,"419":3691,"Dh":3692,"ins":3693,"atan":3694,"Si":3695,"]]=":3696,"e8":3697,"zfill":3698,"numerator":3699,"bot":3700,"yer":3701,"scores":3702,"Prime":3703,"269":3704,"643":3705,"_flag":3706,"229":3707,"629":3708,"Ma":3709,"より":3710,"Value":3711,"command":3712,"423":3713,"BIT":3714,"_sort":3715,"_ele":3716,"td":3717,"数の":3718,"prob":3719,"maximum":3720,"raw":3721,"687":3722,"NN":3723,"indic":3724,"105":3725,"theta":3726,"integer":3727,"443":3728,"part":3729,"5555":3730,"99999999999":3731,"IF":3732,"UP":3733,"function":3734,"259":3735,"657":3736,"627":3737,":],":3738,"gu":3739,"))):":3740,"check_":3741,"617":3742,"By":3743,"War":3744,"stop":3745,"tmp1":3746,"sieve":3747,"'-":3748,"223":3749,"AD":3750,"ner":3751,"qs":3752,"sele":3753,"members":3754,"577":3755,"f_":3756,"divmod":3757,"699":3758,"lp":3759,"以上":3760,"('-":3761,"ched":3762,"initi":3763,"Bu":3764,"VW":3765,"BL":3766,"999999999":3767,"vvvv":3768,"477":3769,"UD":3770,"gin":3771,"lg":3772,"rb":3773,"maxi":3774,"^^^^":3775,"kwargs":3776,"619":3777,"Even":3778,"M1":3779,"_right":3780,"vx":3781,"HW":3782,"city":3783,"599":3784,"ling":3785,"pn":3786,")],":3787,"gyaku_kaijo_memo":3788,"457":3789,"487":3790,"ghi":3791,"pprint":3792,"よう":3793,"labe":3794,"D2":3795,"bt":3796,"pqr":3797,"529":3798,"613":3799,"D1":3800,"])==":3801,"[::":3802,"\"*":3803,"463":3804,"Bs":3805,"RG":3806,"#############":3807,"411":3808,"j2":3809,"space":3810,"ents":3811,"={":3812,"C2":3813,"P8":3814,"Wr":3815,"You":3816,"bn":3817,"e5":3818,"q1":3819,"y4":3820,"659":3821,"PS":3822,"][(":3823,"han":3824,"][:":3825,"),(-":3826,"]==-":3827,"ide_ele":3828,"L1":3829,"Li":3830,"[[-":3831,"age":3832,"orig":3833,"253":3834,"813":3835,"853":3836,"Ps":3837,"IS":3838,"QU":3839,"tri":3840,"tasks":3841,"angle":3842,"263":3843,"=[-":3844,"fw":3845,"abcdef":3846,"randint":3847,"Cs":3848,"]/":3849,"n3":3850,"with":3851,"677":3852,"C1":3853,"PE":3854,"cnt2":3855,"_counter":3856,"449":3857,"gg":3858,"Chr":3859,"abcdefghi":3860,"ape":3861,"num1":3862,"cnt1":3863,"odd_":3864,"AX":3865,"H2":3866,"Or":3867,"429":3868,"Lo":3869,"pm":3870,"org":3871,"').":3872,"src":3873,"deno":3874,"257":3875,"227":3876,"EX":3877,"list2":3878,"(\"{}":3879,"istmas":3880,"Sunny":3881,"559":3882,"hen":3883,"001":3884,"maxsize":3885,"E3":3886,"YC":3887,"_of_":3888,"yok":3889,"(\":":3890,"289":3891,"547":3892,"Clo":3893,"P1":3894,"P2":3895,"WW":3896,"nr":3897,"contests":3898,"213":3899,"217":3900,"683":3901,"LM":3902,"Of":3903,"Odd":3904,"arse":3905,"='\\":3906,"hb":3907,"663":3908,"ved":3909,"left_":3910,"abcdefghijk":3911,"823":3912,"AS":3913,"cut":3914,"hu":3915,"243":3916,"523":3917,"CC":3918,"DV":3919,"GT":3920,"_ans":3921,"e4":3922,"ght":3923,"lx":3924,"roop":3925,"quit":3926,"649":3927,"669":3928,"_mod":3929,"_table":3930,"ij":3931,"mv":3932,"segtree":3933,"Christmas":3934,"527":3935,"611":3936,"xor":3937,"007":3938,"Queue":3939,"453":3940,"N1":3941,"NT":3942,"のとき":3943,"ices":3944,"lmno":3945,"557":3946,"6b":3947,"B_":3948,"Fi":3949,"_input":3950,"mc":3951,"1001":3952,")>=":3953,"553":3954,"Ss":3955,"の場合":3956,"front":3957,"direction":3958,"lmnopqr":3959,"251":3960,"BG":3961,"を返す":3962,"大き":3963,"posit":3964,"stuvw":3965,"_e":3966,"ey":3967,"D_":3968,"SL":3969,"^=":3970,"eb":3971,"p0":3972,"words":3973,":].":3974,"_fd":3975,"())]":3976,"tom":3977,"idge":3978,"abcdefghijklmnopqr":3979,"PX":3980,"pairwise":3981,"negative":3982,"MF":3983,"minator":3984,"ushi":3985,"267":3986,"467":3987,"587":3988,"863":3989,"Yay":3990,"gre":3991,"uv":3992,"win":3993,"mask":3994,"###":3995,"00000000":3996,"right_":3997,"867":3998,"(\"%":3999,"287":4000,"pv":4001,"abcdefghijklmnopqrstuvw":4002,"\"?":4003,"847":4004,"kv":4005,"turn":4006,"udy":4007,"更新":4008,"120":4009,"417":4010,"any":4011,"hist":4012,"vals":4013,"7777":4014,"549":4015,"569":4016,"=\"\"":4017,"+/":4018,"JK":4019,"rm":4020,"問題":4021,"indices":4022,"299":4023,"563":4024,"AF":4025,"l0":4026,"nq":4027,"247":4028,"BH":4029,"M2":4030,"rate":4031,"sen":4032,"seek":4033,"checked":4034,"Cloudy":4035,",[":4036,"877":4037,"827":4038,"Ap":4039,"dot":4040,"down":4041,"\"\\":4042,"829":4043,"Go":4044,"OP":4045,"UF":4046,"i3":4047,"pen":4048,"r0":4049,"_to_":4050,"candidate":4051,"abcdefghijklmnopqrstuvwxyz":4052,"283":4053,"447":4054,"653":4055,"N2":4056,"XW":4057,"コスト":4058,"003":4059,"1e9":4060,"623":4061,"ET":4062,"H1":4063,"|=":4064,"だけ":4065,"....":4066,"899":4067,"GI":4068,"_m":4069,"_time":4070,"p_list":4071,"sn":4072,"xl":4073,"いく":4074,"err":4075,"denominator":4076,"249":4077,"583":4078,"753":4079,"ix":4080,"ック":4081,"))//":4082,"elem":4083,"String":4084,"843":4085,"rc":4086,")]))":4087,"const":4088,"rows":4089,")/(":4090,"Alice":4091,"TI":4092,"_S":4093,"kind":4094,"mem":4095,"vel":4096,"HP":4097,"cor":4098,"hw":4099,"mk":4100,"p3":4101,"s0":4102,"nok":4103,"need":4104,"4d":4105,"413":4106,"517":4107,"DD":4108,"fx":4109,"},":4110,"になる":4111,"SF":4112,"aw":4113,"after":4114,"gb":4115,"vy":4116,"以下":4117,")]:":4118,"SIZE":4119,"641":4120,"Xs":4121,"]],":4122,"uke":4123,"れて":4124,"2000":4125,"X8":4126,"ball":4127,"mw":4128,"必要":4129,"(\")":4130,"]=(":4131,"4b":4132,"PM":4133,"zo":4134,"idth":4135,"[[[":4136,"sho":4137,"delta":4138,"689":4139,"Tw":4140,"_divisors":4141,"AM":4142,"_point":4143,"dr":4144,"ie":4145,"tb":4146,"909":4147,"NE":4148,"v4":4149,"axis":4150,"Lazy":4151,"511":4152,"513":4153,"817":4154,"859":4155,"NK":4156,"_pos":4157,"3600":4158,"Sorted":4159,"Imp":4160,"R2":4161,"kn":4162,"tg":4163,"moji":4164,"できる":4165,"543":4166,"883":4167,"887":4168,"849":4169,"flow":4170,")&":4171,"857":4172,"gn":4173,"nuke":4174,"869":4175,"CA":4176,"Segment":4177,"AH":4178,"K2":4179,"Min":4180,"N_":4181,"aj":4182,"son":4183,"minj":4184,"bridge":4185,"static":4186,"489":4187,"CE":4188,"NU":4189,"[(-":4190,"cn":4191,"cache":4192,"exist":4193,",*":4194,"459":4195,":(":4196,"MIN":4197,"ZZ":4198,"w0":4199,"wj":4200,"());":4201,"397":4202,"BO":4203,"C3":4204,"X1":4205,"gc":4206,"lv":4207,"()),":4208,"333":4209,"max_a":4210,"219":4211,"S3":4212,"cin":4213,"切り":4214,"009":4215,"vec":4216,"obj":4217,"mark":4218,"wf":4219,"ath":4220,"2020":4221,"degrees":4222,"567":4223,"Ret":4224,"ure":4225,"yn":4226,"+=[":4227,"laz":4228,"につ":4229,"argv":4230,"Root":4231,"Object":4232,"/+":4233,"521":4234,"AO":4235,"BI":4236,"BW":4237,"H8":4238,"bp":4239,"z1":4240,"がある":4241,"区間":4242,"sto":4243,"889":4244,"GE":4245,"PU":4246,"l3":4247,"vr":4248,"ブル":4249,"sparse":4250,"811":4251,"my_":4252,"__x":4253,"imos":4254,"661":4255,"Do":4256,"SC":4257,"each":4258,"では":4259,"pos_":4260,"+[":4261,"6d":4262,"A9":4263,"dm":4264,"テー":4265,"逆元":4266,"281":4267,"D8":4268,"Sc":4269,"V2":4270,"ug":4271,"ossible":4272,"ZI":4273,"sec":4274,"_base":4275,"empty":4276,"Bv":4277,"ME":4278,"wH":4279,"合わ":4280,"rep":4281,"les":4282,"letter":4283,"Data":4284,"We":4285,"hit":4286,"uc":4287,"イン":4288,"の最小":4289,"yoko":4290,"テーブル":4291,"681":4292,"J8":4293,"SUM":4294,"TD":4295,"zR":4296,"337":4297,"popcount":4298,"BX":4299,"t0":4300,"setwise":4301,"dou":4302,"object":4303,"mis":4304,"sing":4305,"yd":4306,"pot":4307,"factinv":4308,"datetime":4309,"TY":4310,"Up":4311,"_array":4312,"ful":4313,"mh":4314,"n0":4315,"iseki":4316,"+-+-+-+-+-+-+-+-+-+-+-+-+-+-+-+-":4317,"の最大":4318,"GCD":4319,"BR":4320,"GR":4321,"xn":4322,"zi":4323,"bef":4324,"Base":4325,"DH":4326,"b_list":4327,"ql":4328,"の要素":4329,"Set":4330,"Inp":4331,"Ls":4332,"]]+":4333,"tp":4334,"xr":4335,"stder":4336,"ident":4337,")+(":4338,"PyObject":4339,"bottom":4340,"stderr":4341,"469":4342,"dst":4343,"tm":4344,"yu":4345,"z2":4346,"それ":4347,"mag":4348,"spe":4349,")%(":4350,"'\\":4351,"519":4352,"BA":4353,"Bo":4354,"Rain":4355,"V1":4356,"X_":4357,"bw":4358,"level":4359,"999999":4360,"9999999":4361,"newlines":4362,"までの":4363,"Rainy":4364,"621":4365,"GS":4366,"Mo":4367,"leaf":4368,"2018":4369,"481":4370,"5d":4371,"=>":4372,"TW":4373,"pb":4374,"zQ":4375,"dfs_":4376,"combinations_count":4377,")!=":4378,"Am":4379,"Xi":4380,"fg":4381,"zw":4382,"れた":4383,"991":4384,"[-(":4385,"fib":4386,"good":4387,"warsh":4388,"821":4389,"LV":4390,"_number":4391,"_inv":4392,"ux":4393,"log2":4394,"6a":4395,"B3":4396,"B8":4397,"z3":4398,"にする":4399,"sed":4400,"]).":4401,"LazySegTree":4402,"Return":4403,"221":4404,"]\"":4405,"sb":4406,"取り":4407,"AY":4408,"TF":4409,"TO":4410,"hor":4411,"{'":4412,"さい":4413,"cols":4414,"enter":4415,"--------------------------------":4416,"261":4417,"DX":4418,"移動":4419,"town":4420,"writ":4421,"nokori":4422,"6c":4423,"Av":4424,"m3":4425,"rn":4426,"tf":4427,"z9":4428,"ここ":4429,"==-":4430,"D3":4431,"V8":4432,"ZX":4433,"((-":4434,"set_":4435,"BP":4436,"Case":4437,"SW":4438,"cm":4439,"dle":4440,"xj":4441,"('{}":4442,"291":4443,"Comb":4444,"double":4445,"L4":4446,"PI":4447,"_lists":4448,"prime_list":4449,"origin":4450,"stock":4451,"合わせ":4452,"cit":4453,"n_list":4454,"shi":4455,"zE":4456,"layer":4457,"ill":4458,"a_i":4459,"2f":4460,"G8":4461,"TA":4462,"_in":4463,"gw":4464,"Input":4465,"5b":4466,"581":4467,"651":4468,"L9":4469,"ZV":4470,"ため":4471,"cou":4472,"task":4473,"■■■■":4474,"'?':":4475,"CW":4476,"KK":4477,"S0":4478,"gO":4479,"n4":4480,"x_list":4481,"za":4482,"を求める":4483,"middle":4484,"199":4485,"Cv":4486,"YY":4487,"ZW":4488,")//(":4489,"????????????":4490,"B9":4491,"J7":4492,"P0":4493,"Zy":4494,"lq":4495,"sj":4496,"tle":4497,"where":4498,"pri":4499,"):#":4500,"{},":4501,"709":4502,"Your":4503,"DF":4504,"HE":4505,"N9":4506,"Zq":4507,"tan":4508,"157":4509,"Bob":4510,"Flag":4511,"Th":4512,"gF":4513,"j8":4514,"tc":4515,"}'.":4516,"mple":4517,"heappushpop":4518,"っている":4519,"ascii_upper":4520,"writable":4521,"Bi":4522,"C8":4523,"DW":4524,"G2":4525,"Ju":4526,"NA":4527,"o1":4528,"rad":4529,"way":4530,"Impossible":4531,"141":4532,"H9":4533,"PR":4534,"Pw":4535,"dv":4536,"g3":4537,"lw":4538,"xv":4539,"like":4540,"())),":4541,"modp":4542,"_card":4543,"Dict":4544,"BF":4545,"ソート":4546,"ース":4547,"posi":4548,"379":4549,"OU":4550,"_tmp":4551,"jy":4552,"ui":4553,"これ":4554,"light":4555,"lines_":4556,"choice":4557,"541":4558,"A4":4559,"JT":4560,"L0":4561,"NQ":4562,"P9":4563,"XK":4564,"ット":4565,"sent":4566,"gen":4567,"(':":4568,"393":4569,"best_":4570,"is_integer":4571,"dream":4572,"ascii_uppercase":4573,"700":4574,"AW":4575,"Hk":4576,"P3":4577,"Sw":4578,"S_list":4579,"ess":4580,"under":4581,"eps":4582,"について":4583,"421":4584,"799":4585,"841":4586,"J6":4587,"L8":4588,"X2":4589,"ded":4590,"cur_":4591,"LSR":4592,"swap":4593,"(\":(\")":4594,"5c":4595,"B7":4596,"D7":4597,"F0":4598,"If":4599,"N3":4600,"Z4":4601,"dg":4602,"pk":4603,"exam":4604,"gcd_list":4605,"551":4606,"rq":4607,"inc":4608,"input_list":4609,"339":4610,"EST":4611,"shape":4612,"csgraph":4613,"Dice":4614,"N8":4615,"Test":4616,"VV":4617,"XQ":4618,"eff":4619,"width":4620,"ution":4621,"ita":4622,"proces":4623,"label":4624,"D5":4625,"var":4626,"your":4627,"Br":4628,"Edge":4629,"G9":4630,"Hs":4631,"UK":4632,"X6":4633,"ao":4634,"block":4635,"hl":4636,"追加":4637,"\").":4638,"llman":4639,"=\"\\":4640,"pppppppp":4641,"451":4642,"881":4643,"Bf":4644,"DO":4645,"My":4646,"So":4647,"hj":4648,"である":4649,"素因":4650,"rect":4651,"cout":4652,"ater":4653,"isei":4654,"373":4655,"+\"":4656,"441":4657,"BT":4658,"BV":4659,"YK":4660,"v8":4661,"('.":4662,"temp_":4663,"true":4664,"min_cost":4665,"BK":4666,"D0":4667,"H4":4668,"Nb":4669,"dl":4670,"i0":4671,"zW":4672,"ini":4673,"iterable":4674,"Possible":4675,"BE":4676,"Py_":4677,"nf":4678,"row_":4679,"99999":4680,"307":4681,"filter":4682,"P4":4683,"PC":4684,"Pk":4685,"RW":4686,"Uq":4687,"XV":4688,"Z8":4689,"cv":4690,"jW":4691,"回数":4692,"-(-":4693,"200000":4694,"B5":4695,"G1":4696,"GO":4697,"M8":4698,"Xw":4699,"aq":4700,"tk":4701,"ates":4702,"dist_":4703,"dates":4704,"2800":4705,"20000":4706,"461":4707,":]):":4708,"aok":4709,"clo":4710,"tran":4711,"z7":4712,"zV":4713,"abcd":4714,"begin":4715,"pairs":4716,"multip":4717,"B0":4718,"E8":4719,"EW":4720,"ZF":4721,"_for":4722,"wp":4723,"zF":4724,"zq":4725,"assertIO":4726,"year":4727,"hypot":4728,"Point":4729,"dreamer":4730,"D4":4731,"PK":4732,"j9":4733,"ます":4734,"reg":4735,"ket":4736,"steps":4737,"find_root":4738,"CF":4739,"Dn":4740,"N4":4741,"TS":4742,"XI":4743,"non":4744,"Not":4745,"mida":4746,"IMPOSSIBLE":4747,"300":4748,"600":4749,"CK":4750,"UL":4751,"_lst":4752,"gI":4753,"gW":4754,"mf":4755,"pu":4756,"t3":4757,"vK":4758,"vk":4759,"z4":4760,"のリスト":4761,"ター":4762,"([[":4763,"cir":4764,"prime_factorize":4765,"HO":4766,"J9":4767,"PW":4768,"VK":4769,"X0":4770,"gf":4771,"jx":4772,"sat":4773,"invs":4774,"lcm_base":4775,")(":4776,"Bx":4777,"NY":4778,"ZO":4779,"aut":4780,"ast":4781,"ib":4782,"vQ":4783,"wb":4784,"zK":4785,"lic":4786,"309":4787,"bits":4788,"add_edge":4789,"0b":4790,"313":4791,"Cy":4792,"T9":4793,"dK":4794,"load":4795,"BQ":4796,"Bl":4797,"DL":4798,"Me":4799,"NF":4800,"Ns":4801,"SK":4802,"Z7":4803,"j7":4804,"ena":4805,"102":4806,"opt":4807,"face":4808,"#(":4809,"323":4810,"Al":4811,"C0":4812,"H6":4813,"V9":4814,"_data":4815,"_func":4816,"u1":4817,"zU":4818,")+\"":4819,"fix":4820,"taka":4821,"divs":4822,"search_":4823,")[-":4824,"A0":4825,"Mb":4826,"T8":4827,"X4":4828,"e6":4829,"gK":4830,"())):":4831,"ary_":4832,"count2":4833,"大きい":4834,"P5":4835,"Ph":4836,"ZY":4837,"dn":4838,"h_list":4839,"sun":4840,"w3":4841,"zh":4842,"組み":4843,"10000000":4844,"Heisei":4845,"163":4846,"Bk":4847,"Xk":4848,"Z6":4849,"j4":4850,"ward":4851,"しない":4852,"判定":4853,"sum1":4854,"proble":4855,"H3":4856,"J3":4857,"V0":4858,"sushi":4859,"z5":4860,"1111":4861,"\"\"\"\"":4862,"unsafe":4863,"book":4864,"select":4865,"2d":4866,"DY":4867,"Dist":4868,"Ho":4869,"Is":4870,"JQ":4871,"L5":4872,"tn":4873,"wl":4874,"なので":4875,"個数":4876,"関数":4877,"unique":4878,"E7":4879,"VF":4880,"Ve":4881,"Zr":4882,"ave":4883,"として":4884,"グラ":4885,"coin":4886,"])/":4887,"=['":4888,"240":4889,"4c":4890,"AQ":4891,"GF":4892,"Mx":4893,"V7":4894,"_B":4895,"bm":4896,"ose":4897,"どう":4898,"べて":4899,"most":4900,"331":4901,"301":4902,"399":4903,"G3":4904,"Hq":4905,"Pq":4906,"TK":4907,"Z9":4908,"]**":4909,"z8":4910,"zY":4911,"])**":4912,"170":4913,"AtCo":4914,"eraser":4915,"A7":4916,"Fra":4917,"G7":4918,"HY":4919,"I2":4920,"MQ":4921,"SQ":4922,"XF":4923,"})":4924,"素数":4925,"\");":4926,"colum":4927,"ruiseki":4928,"561":4929,"Dq":4930,"GY":4931,"LQ":4932,"Map":4933,"R1":4934,"TT":4935,"Xq":4936,"cq":4937,"jY":4938,"ja":4939,"uo":4940,"zx":4941,"可能":4942,"qual":4943,"ったら":4944,"SegmentTree":4945,"8b":4946,"851":4947,"AK":4948,"I3":4949,"PUT":4950,"Vs":4951,"X3":4952,"X5":4953,"gith":4954,"ph":4955,"}\")":4956,"ory":4957,"f0f0":4958,"LCM":4959,"github":4960,"GU":4961,"Gx":4962,"Hw":4963,"LW":4964,"Lx":4965,"cmd":4966,"fct":4967,"gJ":4968,"uy":4969,"z0":4970,"sel_":4971,"'),":4972,"from_":4973,"P6":4974,"SU":4975,"_int":4976,"bq":4977,"ga":4978,"v3":4979,"vR":4980,"{\"":4981,"グループ":4982,"\"?\":":4983,"AtCoder":4984,"153":4985,"2e":4986,"D6":4987,"D9":4988,"Gen":4989,"Pi":4990,"Px":4991,"PRO":4992,"X7":4993,"XO":4994,"Xx":4995,"j3":4996,"rnk":4997,"zO":4998,"ination":4999,"\"\")":5000,")][":5001,"DU":5002,"Dx":5003,"Dy":5004,"TBD":5005,"slist":5006,"zr":5007,"格納":5008,"ster":5009,"==[]:":5010,"(')":5011,"bound":5012,"degree":5013,"初期化":5014,"{:.":5015,"素因数":5016,"H7":5017,"MK":5018,"S4":5019,"Sy":5020,"ント":5021,"max_score":5022,"total_":5023,"ception":5024,"sosu":5025,"kazu":5026,"Exception":5027,"組み合わせ":5028,"5a":5029,"Af":5030,"GK":5031,"Gy":5032,"L_":5033,"Lq":5034,"_dic":5035,"aの":5036,"dk":5037,"g8":5038,"gE":5039,"jO":5040,"mount":5041,"todo":5042,"edgelist":5043,"_nums":5044,"error":5045,"'')":5046,"B4":5047,"H0":5048,"Hr":5049,"I9":5050,"VO":5051,"VQ":5052,"eq":5053,"iw":5054,"sup":5055,"vY":5056,"マス":5057,"listA":5058,"when":5059,"types":5060,"L3":5061,"T0":5062,"U3":5063,"ZQ":5064,"m0":5065,"mr":5066,"n9":5067,"wk":5068,"pow_":5069,"avl_":5070,"169":5071,"HQ":5072,"P7":5073,"PJ":5074,"Sk":5075,"T7":5076,"WK":5077,"XM":5078,"Z5":5079,"ile":5080,"mK":5081,"yen":5082,"zk":5083,"ABLE":5084,"n_max":5085,"*/":5086,"=''":5087,"A5":5088,"A6":5089,"C7":5090,"E6":5091,"G5":5092,"gY":5093,"h0":5094,"nK":5095,"o2":5096,"ost":5097,"vI":5098,"スペ":5099,"__class":5100,"303":5101,"numba":5102,"binary":5103,"33333333":5104,"スペース":5105,"__class__":5106,"/*":5107,"EF":5108,"JY":5109,"L6":5110,"R3":5111,"X9":5112,"bk":5113,"dY":5114,"vF":5115,"159":5116,"Gf":5117,"Gq":5118,"Gs":5119,"PF":5120,"Tx":5121,"Z2":5122,"Zx":5123,"cQ":5124,"vt":5125,"seach":5126,"modu":5127,"tei":5128,"]+[":5129,"chain":5130,"max_val":5131,"erated":5132,"DQ":5133,"Df":5134,"Hy":5135,"T3":5136,"V3":5137,"Z0":5138,"_ls":5139,"hand":5140,"j0":5141,"mC":5142,"vW":5143,"倍数":5144,"出す":5145,"(\"\")":5146,"220":5147,"Bin":5148,"SO":5149,"Sq":5150,"VY":5151,"Zk":5152,"g0":5153,"jw":5154,"lk":5155,"vp":5156,"sum_a":5157,"not_":5158,"hashi":5159,"番目の":5160,"Fraction":5161,":#":5162,"BY":5163,"GQ":5164,"HF":5165,"HM":5166,"J0":5167,"J4":5168,"Xy":5169,"bad":5170,"h3":5171,"h8":5172,"i4":5173,"t_list":5174,"読み":5175,"ips":5176,"270":5177,"187":5178,"150":5179,"A8":5180,"Bq":5181,"DK":5182,"Dk":5183,"G4":5184,"J5":5185,"N5":5186,"U9":5187,"Xm":5188,"sd":5189,"room":5190,"count1":5191,"dists":5192,"init_val":5193,"ascii":5194,"E9":5195,"Ge":5196,"Gu":5197,"HC":5198,"HK":5199,"Ly":5200,"N6":5201,"Nq":5202,"R8":5203,"S8":5204,"Sn":5205,"Vu":5206,"cro":5207,"gQ":5208,"jK":5209,"kab":5210,"zn":5211,"条件":5212,"print_":5213,"(\".":5214,"hild":5215,"]==\"#\":":5216,"147":5217,"Ak":5218,"DM":5219,"Eu":5220,"JF":5221,"Jy":5222,"VED":5223,"local":5224,"391":5225,"_bit":5226,"+'":5227,"NR":5228,"jF":5229,"tes":5230,"wF":5231,"小さい":5232,"lip":5233,"10000000000000":5234,"unittest":5235,"183":5236,"Ab":5237,"VI":5238,"Z3":5239,"g9":5240,"gl":5241,"mit":5242,"とする":5243,"(\"{":5244,"]]+=":5245,"node_list":5246,"heights":5247,"UNR":5248,"DENI":5249,"train":5250,"APPRO":5251,"lazy_":5252,"DENIED":5253,"!\")":5254,"Ax":5255,"B6":5256,"GW":5257,"Hu":5258,"LK":5259,"Sb":5260,"ZU":5261,"_10":5262,"_end":5263,"mW":5264,"すべて":5265,"deli":5266,"anss":5267,"compos":5268,"njit":5269,"Left":5270,"UNREST":5271,"149":5272,"4a":5273,"EE":5274,"NW":5275,"Rs":5276,"fq":5277,"vO":5278,"balls":5279,"ORABLE":5280,"StringIO":5281,"UNRESTORABLE":5282,"8d":5283,"Ac":5284,"G6":5285,"GM":5286,"J1":5287,"Ni":5288,"S9":5289,"SUN":5290,"Ts":5291,"ZK":5292,"fK":5293,"vn":5294,"vq":5295,"returns":5296,"rotate":5297,"mov":5298,"Fact":5299,"KIH":5300,"magic":5301,"Fir":5302,"VU":5303,"wc":5304,"zM":5305,"days":5306,"2147":5307,"swith":5308,"APPROVED":5309,":\",":5310,"CM":5311,"JE":5312,"NX":5313,"Pu":5314,"hx":5315,"tu":5316,"入れる":5317,"約数":5318,"])//":5319,"__str":5320,"isu":5321,"230":5322,"]=='.':":5323,"squ":5324,"__str__":5325,"G0":5326,"Sd":5327,"T6":5328,"XU":5329,"g5":5330,"経路":5331,"int32":5332,"apper":5333,"results":5334,"2b":5335,"367":5336,"8a":5337,"861":5338,"Dp":5339,"E5":5340,"OO":5341,"T4":5342,"Xl":5343,"ik":5344,"sequ":5345,"006":5346,"入力例":5347,"_bound":5348,"Graph":5349,"グラフ":5350,"177":5351,"189":5352,"JM":5353,"JW":5354,"Jx":5355,"Nr":5356,"Right":5357,"TR":5358,"jR":5359,"この":5360,"seachList":5361,"\"{":5362,"7f":5363,"8c":5364,"Ay":5365,"Du":5366,"E_":5367,"Tk":5368,"gp":5369,"z6":5370,"全て":5371,"最後":5372,"urid":5373,"count_list":5374,"1600":5375,"facinv":5376,"jump":5377,"kyurid":5378,"connected":5379,"enamida":5380,"Generated":5381,"kyuridenamida":5382,"C5":5383,"Cr":5384,"EK":5385,"LY":5386,"V5":5387,"Wk":5388,"Xo":5389,"_k":5390,"dQ":5391,"hF":5392,"men":5393,"max_i":5394,"a_max":5395,"(*[":5396,"907":5397,"bomb":5398,"can_":5399,"THU":5400,"largest":5401,"580":5402,"Ck":5403,"L7":5404,"MON":5405,"Nf":5406,"SY":5407,"Te":5408,"c_list":5409,"g4":5410,"g7":5411,"gR":5412,"gk":5413,"mO":5414,"pQ":5415,"wa_":5416,"yak":5417,"ごと":5418,"の入力":5419,"スタ":5420,"min_num":5421,"dp_":5422,"readInt":5423,"(['":5424,"max_value":5425,"combi":5426,"insort_left":5427,"311":5428,"Ci":5429,"DR":5430,"IY":5431,"M0":5432,"Nk":5433,"Sr":5434,"UQ":5435,"ZR":5436,"bの":5437,"始点":5438,"int1":5439,"reated":5440,"old_":5441,"Cost":5442,"979":5443,"hash":5444,"110":5445,"Bw":5446,"JR":5447,"Jq":5448,"Lr":5449,"Nu":5450,"Z1":5451,"Zo":5452,"center":5453,"mint":5454,"nor":5455,"v9":5456,"に変":5457,"集合":5458,"190":5459,"430":5460,"keyence":5461,")-(":5462,"First":5463,"Dr":5464,"Ds":5465,"Ir":5466,"Jc":5467,"Jw":5468,"U1":5469,"Use":5470,"au":5471,"lQ":5472,"m9":5473,"mq":5474,"ping":5475,"分解":5476,"parse":5477,"warp":5478,"FRI":5479,"357":5480,"Cnt":5481,"UR":5482,"Vi":5483,"bus":5484,"hQ":5485,"階乗":5486,"stom":5487,"alg":5488,"dian":5489,"ターン":5490,"Bt":5491,"C4":5492,"Cq":5493,"H5":5494,"JO":5495,"UY":5496,"VE":5497,"Vr":5498,"WED":5499,"n8":5500,"Python":5501,"167":5502,"383":5503,"900":5504,"Ce":5505,"Fo":5506,"S5":5507,"TQ":5508,"Vk":5509,"]=[":5510,"dup":5511,"kaku":5512,"slo":5513,"v6":5514,"vE":5515,"vM":5516,"])*(":5517,"strings":5518,"TUE":5519,"Con":5520,"Gc":5521,"Gi":5522,"Je":5523,"Pa":5524,"S7":5525,"Zw":5526,"j5":5527,"zf":5528,"おく":5529,"長さ":5530,"alread":5531,"INPUT":5532,"max_v":5533,"_black":5534,"read_str":5535,"alize":5536,"Quer":5537,"][::-":5538,"green":5539,"F2":5540,"N7":5541,"Pl":5542,"Sp":5543,"ls_":5544,"vu":5545,"降順":5546,"alk":5547,"pre_":5548,"++)":5549,"CR":5550,"Zh":5551,"Zs":5552,"}:":5553,"ければ":5554,"max2":5555,"Fast":5556,"max_n":5557,"\"...":5558,"_bin":5559,"oku":5560,"場合は":5561,"({":5562,"BM":5563,"CI":5564,"Hx":5565,"Lk":5566,"Nw":5567,"Sh":5568,"Sx":5569,"WQ":5570,"Xu":5571,"jQ":5572,"mR":5573,"t4":5574,"indexed":5575,"queries":5576,"divide":5577,"current_":5578,"MAX_":5579,"JU":5580,"Pp":5581,"T5":5582,"Ti":5583,"Tq":5584,"Vq":5585,"fy":5586,"jq":5587,"mY":5588,"n5":5589,"sample":5590,"custom":5591,"EY":5592,"Ny":5593,"zs":5594,"の中":5595,"anslist":5596,"s_number":5597,"person":5598,"Numb":5599,"C9":5600,"J2":5601,"V4":5602,"Vy":5603,"_tree":5604,"gq":5605,"rat":5606,"tY":5607,"属する":5608,"deq":5609,"))*":5610,"ed_":5611,"sorted_":5612,"fact_inv":5613,"node_":5614,"circle":5615,"lazy_segtree":5616,"']:":5617,"312":5618,"757":5619,"CY":5620,"HI":5621,"S6":5622,"Wor":5623,"j6":5624,"m8":5625,"tQ":5626,"vc":5627,"vf":5628,"を作":5629,"位置":5630,"累積":5631,"onest":5632,"sorted_list":5633,"preorder":5634,"Array":5635,"yakus":5636,"412":5637,"Jk":5638,"Jo":5639,"Lw":5640,"Vx":5641,"bO":5642,"llo":5643,"mM":5644,"tips":5645,"で割":5646,"となる":5647,"値が":5648,"ints":5649,"))/":5650,"temp2":5651,"973":5652,"binary_":5653,"show":5654,"clear":5655,"ROUN":5656,"reachable_from":5657,"280":5658,"Ao":5659,"HR":5660,"HU":5661,"Mat":5662,"Nx":5663,"Pc":5664,"SAT":5665,"Xr":5666,"asum":5667,"bling":5668,"jr":5669,"lun":5670,"パターン":5671,"昇順":5672,")].":5673,"next_v":5674,"comple":5675,"void":5676,"読み込":5677,"1st":5678,"810":5679,"Cu":5680,"Gw":5681,"Lf":5682,"Ll":5683,"gra":5684,"h7":5685,"の時":5686,"存在":5687,"req":5688,"****":5689,"islower":5690,"ans_array":5691,"~~~~~~~~":5692,"vvvvvvvv":5693,"^^^^^^^^":5694,"Au":5695,"EO":5696,"F1":5697,"I0":5698,"I8":5699,"Jf":5700,"V6":5701,"amax":5702,"zp":5703,"│＊":5704,"ュー":5705,"数字":5706,"＊│":5707,"rot":5708,"roken":5709,"\"+\"":5710,"status":5711,"vote":5712,"BUF":5713,"Combination":5714,"modpow":5715,"sunuke":5716,"Bn":5717,"F5":5718,"Gk":5719,"Pro":5720,"hY":5721,"vU":5722,"ani":5723,"alid":5724,"ValueError":5725,"911":5726,":=":5727,"Ah":5728,"Cx":5729,"E4":5730,"IK":5731,"Su":5732,"VR":5733,"XR":5734,"ZM":5735,"_0":5736,"_value":5737,"game":5738,"m4":5739,"sear":5740,"ero":5741,"three":5742,"sss":5743,"703":5744,"ichi":5745,"210":5746,"343":5747,"389":5748,"424":5749,"733":5750,"EQ":5751,"EOF":5752,"F3":5753,"WY":5754,"]\"):":5755,"_print":5756,"g6":5757,"gM":5758,"jf":5759,"ku":5760,"mQ":5761,"あり":5762,"li2":5763,"mod2":5764,"---":5765,"2017":5766,"Answer":5767,"composition":5768,"Query":5769,"'{":5770,"353":5771,"729":5772,"E1":5773,"Hi":5774,"Id":5775,"LU":5776,"TM":5777,"Ta":5778,"Vw":5779,"_key":5780,"ced":5781,"hr":5782,"q3":5783,"v5":5784,"いた":5785,"カウ":5786,"短距離":5787,"ift":5788,"590":5789,"IOBase":5790,"BUFSIZE":5791,"512":5792,"713":5793,"O9":5794,"Pf":5795,"Sa":5796,"Xe":5797,"Zf":5798,"Zu":5799,"cY":5800,"dum":5801,"h5":5802,"tK":5803,"793":5804,"rows_number":5805,"ious":5806,"interse":5807,"インデ":5808,"author":5809,"ROUND_":5810,"143":5811,"Created":5812,"I1":5813,"Jr":5814,"O1":5815,"hO":5816,"zl":5817,"の距離":5818,"ran2":5819,"\"),":5820,"isuu":5821,"=[(":5822,"]=='#':":5823,"flat":5824,"160":5825,"640":5826,"Bp":5827,"I7":5828,"snuke":5829,"t6":5830,"tq":5831,"部分":5832,"ran1":5833,"aps":5834,"_back":5835,"lcm_list":5836,"alice":5837,"ックス":5838,"staticmethod":5839,"Binary":5840,"140":5841,"Aut":5842,"E2":5843,"EM":5844,"Tu":5845,"inorder":5846,"971":5847,"aoki":5848,"2147483":5849,"\"]:":5850,"923":5851,"Ae":5852,"Aq":5853,"F8":5854,"I4":5855,"Lu":5856,"PH":5857,"Tb":5858,"Xp":5859,"Za":5860,"s4":5861,"ud":5862,"ya":5863,"区切り":5864,"番号":5865,"led":5866,"]);":5867,"median":5868,"([\"":5869,"qui":5870,"prev_":5871,"previous":5872,"ics":5873,"('#')":5874,"1000000000000000000":5875,"#-":5876,"967":5877,"Cb":5878,"IQ":5879,"O8":5880,"Pe":5881,"Sf":5882,"W8":5883,"_arr":5884,"cK":5885,"kari":5886,"tj":5887,"mae":5888,"itr":5889,"_maxes":5890,"full":5891,"FastIO":5892,"インデックス":5893,"787":5894,"983":5895,"Aw":5896,"C6":5897,"Fro":5898,"U7":5899,"W0":5900,"Xa":5901,"_3":5902,"cR":5903,"kr":5904,"l4":5905,"n6":5906,"tp_":5907,"yj":5908,"))-":5909,"isPrime":5910,"setdefault":5911,"version":5912,"bob":5913,"Type":5914,"Dz":5915,"U5":5916,"Vf":5917,"cas":5918,"ical":5919,"m6":5920,"xa":5921,"]='":5922,"290":5923,"namespace":5924,"box_":5925,"finis":5926,"henes":5927,"sequence":5928,"218":5929,"347":5930,"9f":5931,"957":5932,"AGC":5933,"Len":5934,"Tf":5935,"U4":5936,"Ws":5937,"t8":5938,"}')":5939,"べる":5940,"削除":5941,"links":5942,"ign":5943,"ople":5944,"bble":5945,"Hello":5946,"final":5947,"(\"#\")":5948,"penal":5949,"素因数分解":5950,"937":5951,"Aj":5952,"Alist":5953,"CQ":5954,"M7":5955,"Tj":5956,"U2":5957,"U6":5958,"Vp":5959,"hk":5960,"hn":5961,"v7":5962,"を計算":5963,"stones":5964,")).":5965,"903":5966,"both":5967,"x_max":5968,"positions":5969,"EOFError":5970,"'])":5971,"250":5972,"Ok":5973,"PN":5974,"Rx":5975,"TN":5976,"Xb":5977,"Zi":5978,"happ":5979,"va":5980,"満た":5981,"res2":5982,"770":5983,"sibling":5984,"bust":5985,"abc0":5986,"even_":5987,"candidates":5988,"test_入力例":5989,"(*(":5990,"164":5991,"2c":5992,"440":5993,"Lc":5994,"UW":5995,"Uf":5996,"Uy":5997,"arange":5998,"est_":5999,"k_":6000,"xm":6001,"yr":6002,"キュー":6003,"130":6004,"istics":6005,"901":6006,"ccc":6007,"groups":6008,"xxx":6009,"read_int_n":6010,"ように":6011,"show_":6012,"'*(":6013,"Db":6014,"Gl":6015,"M9":6016,"R9":6017,"cre":6018,"eight":6019,"rp":6020,"zj":6021,"には":6022,"))[":6023,"urce":6024,"__MOD":6025,"ass":6026,"neig":6027,"a_b":6028,"_word":6029,"slv":6030,"statistics":6031,"warshall":6032,"(':(')":6033,"cross":6034,"155":6035,"369":6036,"720":6037,"747":6038,"E0":6039,"Lt":6040,"R0":6041,"ous":6042,"list3":6043,"dir":6044,"min_val":6045,"wel":6046,"IOWr":6047,"Find_":6048,"solution":6049,"osthenes":6050,"World":6051,"IOWrapper":6052,"COD":6053,"Hl":6054,"R4":6055,"Rw":6056,"amin":6057,"hW":6058,"sur":6059,"u2":6060,"の値を":6061,"られる":6062,"現在":6063,"isupper":6064,"]=\"":6065,"west":6066,"ncr":6067,"BUG":6068,"ものを":6069,"================================":6070,"takahashi":6071,"151":6072,"3f":6073,"660":6074,"Cl":6075,"DFS":6076,"Hn":6077,"IW":6078,"Iu":6079,"RQ":6080,"_score":6081,"hK":6082,"zt":6083,"奇数":6084,"stone":6085,"lable":6086,"possible":6087,"DEBUG":6088,"rence":6089,"initialize":6090,"累積和":6091,")[:":6092,"224":6093,"310":6094,"363":6095,"460":6096,"612":6097,"727":6098,"Bb":6099,"Bj":6100,"Hp":6101,"T_":6102,"ox":6103,"木の":6104,"prop":6105,"ser":6106,"secon":6107,"than":6108,"that":6109,"[:(":6110,"890":6111,"850":6112,"943":6113,"939":6114,"CX":6115,"Cf":6116,"Mr":6117,"iy":6118,"んで":6119,"itive":6120,"len_s":6121,"numer":6122,"dps":6123,"490":6124,"multi":6125,"317":6126,"329":6127,"Hf":6128,"OW":6129,"Pt":6130,"R_":6131,"Zp":6132,"dW":6133,"h9":6134,"mj":6135,"yd_":6136,"なく":6137,"lest":6138,"('')":6139,"sum_w":6140,"isl":6141,"_can":6142,"yd_warshall":6143,"560":6144,"AE":6145,"M4":6146,"Vb":6147,"済み":6148,"mass":6149,"]==\".\":":6150,"floyd_warshall":6151,"Search":6152,"している":6153,"adjac":6154,"compile":6155,"built":6156,"multiple":6157,"327":6158,"340":6159,"520":6160,"DS":6161,"Ey":6162,"M5":6163,"MY":6164,"Next":6165,"Vo":6166,"XZ":6167,"_f":6168,"mF":6169,"plist":6170,"vb":6171,"wall":6172,"いい":6173,"せる":6174,"を使":6175,"考える":6176,"複数":6177,"));":6178,"endl":6179,"ream":6180,"dp0":6181,"is_ok":6182,"...,":6183,"problem":6184,"カウント":6185,"1d":6186,"365":6187,"418":6188,"719":6189,"Col":6190,"Nl":6191,"O3":6192,"U8":6193,"hc":6194,"vd":6195,"zJ":6196,"zc":6197,"のみ":6198,"の整数":6199,"people":6200,"Bytes":6201,"hantei":6202,"second_":6203,"BytesIO":6204,"*((":6205,"387":6206,"410":6207,"464":6208,"468":6209,"769":6210,"953":6211,"950":6212,"Cj":6213,"Dt":6214,"Es":6215,"NS":6216,"Ox":6217,"Q1":6218,"RY":6219,"XS":6220,"Ze":6221,"ei":6222,"p4":6223,"に対":6224,"次元":6225,"(\"?":6226,"cell":6227,"max_index":6228,"conv":6229,"wrap":6230,"balance":6231,"vertices":6232,"Args":6233,"process":6234,"320":6235,"420":6236,"655":6237,"743":6238,"I5":6239,"M6":6240,"O4":6241,"On":6242,"PZ":6243,"water":6244,"公倍数":6245,"隣接":6246,"):]":6247,"max1":6248,"1199":6249,"pow2":6250,"direct":6251,"Returns":6252,"delici":6253,"スタート":6254,"Number":6255,"searched":6256,"650":6257,"712":6258,"Dc":6259,"Fy":6260,"Ht":6261,"JJ":6262,"Q7":6263,"Solve":6264,"Ux":6265,"XL":6266,"broken":6267,"hf":6268,"jb":6269,"list_a":6270,"rous":6271,")]=":6272,"summ":6273,"resh":6274,"tmp_list":6275,"read_float":6276,"99999999999999":6277,"どうか":6278,"column":6279,"show_flg":6280,"255":6281,"359":6282,"550":6283,"CAL":6284,"Nt":6285,"Qx":6286,"Uk":6287,"Uo":6288,"Ur":6289,"Wx":6290,"]}":6291,"h6":6292,"hm":6293,"lK":6294,"再帰":6295,"ants":6296,"repr":6297,"('?":6298,"max_count":6299,"a_sum":6300,"suu":6301,"delicious":6302,"\"%":6303,"\"*(":6304,"624":6305,"739":6306,"987":6307,"AI":6308,"Bit":6309,"Ef":6310,"Eq":6311,"F4":6312,"FI":6313,"LLI":6314,"O0":6315,"PP":6316,"Vac":6317,"Y2":6318,"Zb":6319,"_flg":6320,"_keys":6321,"gz":6322,"良い":6323,"desc":6324,"itch":6325,"ipt":6326,"670":6327,"570":6328,"_child":6329,"hour":6330,"+-+-+-+-+-+-+-+-+-+-+-+-":6331,"vowel":6332,"kyori":6333,"stud":6334,"+-+-+-+-+-+-+-+-+-+-+-+-+-+-+-+-+-+-+-+-+-+-+-+-+-+-+-+-":6335,"square":6336,"#-+-+-+-+-+-+-+-+-+-+-+-+-+-+-+-+-+-+-+-+-+-+-+-+-+-+-+-+-":6337,")#":6338,"455":6339,"540":6340,"620":6341,"812":6342,"820":6343,"840":6344,"Cc":6345,"Cn":6346,"F9":6347,"Fu":6348,"Iy":6349,"O6":6350,"TL":6351,"Wq":6352,"Xz":6353,"action":6354,"call":6355,"vj":6356,"かどうか":6357,"取る":6358,"通り":6359,"lista":6360,"alt":6361,"context":6362,"flag2":6363,"dated":6364,"answers":6365,"compare":6366,"history":6367,"2147483647":6368,"212":6369,"525":6370,"AZ":6371,"F7":6372,"Fen":6373,"Hb":6374,"U0":6375,"_next":6376,"k0":6377,"wq":6378,"wy":6379,"順に":6380,"ink":6381,"stk":6382,"dim":6383,"disc":6384,"370":6385,"lst1":6386,"take":6387,"have":6388,"skip":6389,"DEF":6390,"DIV":6391,"connect":6392,"layer0":6393,"Find_Root":6394,"&&":6395,"165":6396,"260":6397,"450":6398,"929":6399,"Ptr":6400,"QK":6401,"Zero":6402,"]\",":6403,"dR":6404,"mur":6405,"int_":6406,"')+":6407,"res1":6408,"item__":6409,"''''":6410,"argsort":6411,"csr_":6412,"100001":6413,"################################################################":6414,"build":6415,"neighb":6416,"Vacant":6417,"2a":6418,"518":6419,"CD":6420,"CT":6421,"Iq":6422,"JV":6423,"Us":6424,"d_list":6425,"dange":6426,"p9":6427,"sg":6428,"))])":6429,"att":6430,"(',":6431,"post":6432,"getcontext":6433,"2653":6434,"complex":6435,"'],":6436,"300000":6437,"426":6438,"680":6439,"723":6440,"880":6441,"Bd":6442,"FY":6443,"Fe":6444,"Ford":6445,"Gb":6446,"Io":6447,"Pb":6448,"WE":6449,"_M":6450,"gX":6451,"hv":6452,"x8":6453,"you":6454,"ional":6455,"rail":6456,"curr_":6457,"330":6458,"startswith":6459,"tree_":6460,"input_line":6461,"Bellman":6462,"initial":6463,"取り出す":6464,"Users":6465,"csr_matrix":6466,"324":6467,"545":6468,"7e":6469,"759":6470,"919":6471,"GN":6472,"Jl":6473,"Key":6474,"M3":6475,"Mk":6476,"PV":6477,"Ra":6478,"Rf":6479,"UE":6480,"W6":6481,"Xn":6482,"gj":6483,"h4":6484,"rv":6485,"の個数":6486,"時間":6487,"ctr":6488,"630":6489,"lower_divisors":6490,"shortest_":6491,"cities":6492,"__MOD__":6493,"228":6494,"349":6495,"783":6496,"Dic":6497,"Gj":6498,"Gt":6499,"Gv":6500,"K1":6501,"Ms":6502,"Os":6503,"RI":6504,"XD":6505,"honest":6506,"p6":6507,"qa":6508,"tv":6509,"xb":6510,"yl":6511,"一つ":6512,"答え":6513,"str_list":6514,"quest":6515,"'...":6516,"ako":6517,"monster":6518,"group_":6519,"REF":6520,"already":6521,"island":6522,"428":6523,"711":6524,"Ct":6525,"Js":6526,"K8":6527,"NL":6528,"NV":6529,"Pj":6530,"Tn":6531,"Tz":6532,"Ww":6533,"ih":6534,"に行":6535,"104":6536,"roll":6537,"mean":6538,"371":6539,"pick":6540,"higher":6541,"730":6542,"864":6543,"BS":6544,"Dv":6545,"I6":6546,"K3":6547,"R5":6548,"W5":6549,"W9":6550,"bas":6551,"gv":6552,"ia":6553,"iv":6554,"p8":6555,"q0":6556,"xu":6557,"another":6558,"onge":6559,"numlist":6560,"minedge":6561,"idx1":6562,"new_x":6563,"Dec":6564,"upper_divisors":6565,"condition":6566,"directed":6567,"Positive":6568,"elements":6569,"dangerous":6570,"Ff":6571,"Vl":6572,"Zl":6573,"_result":6574,"m5":6575,"pd":6576,"rf":6577,"が同じ":6578,"検索":6579,"終了":6580,"()))))":6581,"isprime":6582,"max_len":6583,"checker":6584,"min_index":6585,"choose":6586,"Neg":6587,"1を":6588,"226":6589,"350":6590,"9e":6591,"Ba":6592,"Da":6593,"FQ":6594,"Fk":6595,"Mw":6596,"OQ":6597,"Wo":6598,"ZJ":6599,"m7":6600,"nQ":6601,"qK":6602,"trees":6603,"prv":6604,"apply":6605,"530":6606,"fast":6607,"updated":6608,"s_num":6609,"start_":6610,"mula":6611,"れている":6612,"boundary":6613,"moves":6614,"668":6615,"Ad":6616,"DC":6617,"LH":6618,"LX":6619,"SN":6620,"TE":6621,"em":6622,"k3":6623,"t7":6624,"tbl":6625,"xの":6626,"ype":6627,"ぞれ":6628,"まり":6629,"方向":6630,"mp_":6631,"2400":6632,"pay":6633,"ABD":6634,"division":6635,"next_node":6636,"mylist":6637,"'+'":6638,"correct":6639,"それぞれ":6640,"480":6641,"664":6642,"912":6643,"969":6644,"FK":6645,"Lj":6646,"O5":6647,"Ru":6648,"Tl":6649,"Uw":6650,"W2":6651,"Y1":6652,"]]))":6653,"_T":6654,"hite":6655,"i5":6656,"nY":6657,"zH":6658,"の2":6659,"値の":6660,"偶数":6661,"===":6662,"mapping":6663,"med":6664,"tem":6665,"nec":6666,"suma":6667,"sure":6668,"source":6669,"shortest":6670,"55555555":6671,"913":6672,"959":6673,":`":6674,"Draw":6675,"LIN":6676,"Oe":6677,"W7":6678,"fstat":6679,"ym":6680,"zv":6681,"なければ":6682,"先頭":6683,"範囲":6684,"ans3":6685,"maxA":6686,"operat":6687,"=[\"":6688,"_cand":6689,"st_size":6690,"]!=-":6691,"989":6692,"Bc":6693,"CS":6694,"Dl":6695,"Ec":6696,"Fx":6697,"Gn":6698,"Line":6699,"Oo":6700,"Ue":6701,"YN":6702,"||":6703,"標準":6704,"rand_":6705,"830":6706,"LIS":6707,"1599":6708,"707":6709,"kenmur":6710,"calculate":6711,"positive":6712,"kenmurata":6713,"!')":6714,"2nd":6715,"GV":6716,"O7":6717,"Oq":6718,"Rq":6719,"W1":6720,"gd":6721,"i9":6722,"ial":6723,"s6":6724,"sf":6725,"tgt":6726,"とい":6727,"にして":6728,"())-":6729,"dered":6730,"dpx":6731,"resid":6732,"rain":6733,"ope":6734,"<<(":6735,"pie":6736,"14159":6737,"718":6738,"947":6739,"927":6740,"926":6741,"BN":6742,"Ca":6743,"Eb":6744,"Fr":6745,"Gp":6746,"Group":6747,"Ha":6748,"Ix":6749,"RK":6750,"Tt":6751,"Zv":6752,"border":6753,"dro":6754,"rd":6755,"s5":6756,"ta_":6757,"zoku":6758,"一番":6759,"行う":6760,"()-":6761,"prices":6762,"maxn":6763,"hig":6764,"701":6765,"610":6766,"763":6767,"C_":6768,"Pg":6769,"R7":6770,"Stable":6771,"W3":6772,"W4":6773,"WH":6774,"XJ":6775,"Y5":6776,"]]==":6777,"_sorted":6778,"_now":6779,"wx":6780,"でも":6781,"にな":6782,"rantime":6783,"maxs":6784,"nums_":6785,"mins":6786,"dataset":6787,"check_list":6788,"shift":6789,"paths":6790,"foo":6791,"input_method":6792,"kkk":6793,"INT_":6794,"denom":6795,"........":6796,")^":6797,"1つ":6798,"977":6799,"Bm":6800,"Lb":6801,"Mq":6802,"PD":6803,"Tp":6804,"Xt":6805,"_at":6806,"freq":6807,"r3":6808,"u5":6809,"u_":6810,"uq":6811,"yp":6812,"()[::-":6813,"uri":6814,"struct":6815,"pypy":6816,"bubble":6817,"min_a":6818,"lca":6819,"factorial_list":6820,"player":6821,"segment":6822,"compute":6823,"brary":6824,"Dire":6825,"IndexError":6826,"From":6827,"510":6828,"CREF":6829,"Main":6830,"Np":6831,"PA":6832,"Xc":6833,"Zn":6834,"_gcd":6835,"_edge":6836,"lz":6837,"mx_":6838,"oo":6839,"sv":6840,"しい":6841,"公約数":6842,"stable":6843,"real":6844,"hihi":6845,"otal":6846,"791":6847,"use_":6848,"plan":6849,"_wa":6850,"submit":6851,"rui":6852,"readInts":6853,"penalty":6854,"528":6855,"EV":6856,"Hd":6857,"Ik":6858,"Jt":6859,"K9":6860,"Mc":6861,"Nj":6862,"Out":6863,"Ri":6864,"[,":6865,"[])":6866,"_j":6867,"eat":6868,"fp":6869,"操作":6870,"次の":6871,"状態":6872,"()}":6873,"formula":6874,"encoding":6875,"only":6876,"ard_":6877,"],-":6878,"':'":6879,"\"\":":6880,"und_":6881,"Cont":6882,"avg":6883,"closure":6884,"kabu":6885,"315":6886,"868":6887,"930":6888,"BJ":6889,"BFS":6890,"Ee":6891,"For":6892,"Gd":6893,"Lp":6894,"Q3":6895,"SM":6896,"Time":6897,"[\"\"":6898,"iz":6899,"oDec":6900,"rw":6901,"xc":6902,"zd":6903,"ータ":6904,"全部":6905,"貪欲":6906,"ops":6907,"870":6908,"flag1":6909,"ING":6910,"play":6911,"argmax":6912,"eratosthenes":6913,"aka":6914,"record":6915,"refPtr":6916,"ather":6917,"animal":6918,"AutoDec":6919,"AutoDecrefPtr":6920,"'[":6921,"626":6922,"789":6923,"860":6924,"AV":6925,"F6":6926,"Fq":6927,"O2":6928,"QQ":6929,"Rk":6930,"Y9":6931,"Zj":6932,"_info":6933,"xp":6934,"を満た":6935,"最初":6936,"less":6937,"(\",":6938,"sum2":6939,"470":6940,"ameter":6941,"prec":6942,"frac":6943,"ACK":6944,"STR":6945,"ない場合":6946,"tmp_ans":6947,"sympy":6948,"の数を":6949,"\"-\"":6950,"225":6951,"345":6952,"717":6953,"740":6954,"726":6955,"737":6956,"797":6957,"748":6958,"Hm":6959,"Nc":6960,"VS":6961,"Wy":6962,"Y4":6963,"]%=":6964,"_string":6965,"vari":6966,"与え":6967,"結果":6968,"見て":6969,"])>":6970,"rock":6971,"maxx":6972,"this_":6973,"min1":6974,"!=-":6975,"getN":6976,"primeNum":6977,"bit_":6978,"ddn":6979,"ans_2":6980,"していく":6981,"weights":6982,"の最短距離":6983,"ponent":6984,"('.')":6985,"Factori":6986,"intersection":6987,"%%":6988,"568":6989,"7b":6990,"AG":6991,"Cp":6992,"Ev":6993,"GRE":6994,"Hc":6995,"Hv":6996,"NJ":6997,"PL":6998,"Pn":6999,"TJ":7000,"TX":7001,"Tc":7002,"YQ":7003,"cket":7004,"fu":7005,"gue":7006,"i6":7007,"she":7008,"ual":7009,"サイ":7010,"個の":7011,"合計":7012,"辞書":7013,"高さ":7014,"orith":7015,"stai":7016,"))==":7017,"],[-":7018,"931":7019,"kaibun":7020,"single":7021,"&=":7022,"714":7023,"844":7024,"933":7025,":.":7026,"Ow":7027,"SA":7028,"Sl":7029,"UV":7030,"Xj":7031,"xd":7032,"された":7033,"テスト":7034,"ビット":7035,"sumA":7036,"indexes":7037,"gcd_":7038,"temp1":7039,"mallest":7040,"four":7041,"LOCAL":7042,"export":7043,"error_print":7044,"flatten":7045,"'}":7046,"168":7047,"548":7048,"GZ":7049,"NUM":7050,"Oy":7051,"Ut":7052,"Uu":7053,"_inp":7054,"acos":7055,"clist":7056,"n7":7057,"とこ":7058,"受け":7059,"求め":7060,"form":7061,"end_":7062,"990":7063,")+'":7064,"dic2":7065,"380000":7066,"SRL":7067,"reachable_to_":7068,"sel_col":7069,"スペース区切り":7070,"348":7071,"818":7072,"9b":7073,"963":7074,"Dj":7075,"Dm":7076,"Fs":7077,"GG":7078,"HV":7079,"Jj":7080,"LES":7081,"Oj":7082,"R6":7083,"Sz":7084,"_search":7085,"rg":7086,"とか":7087,"作成":7088,"prim":7089,"kei":7090,"tell":7091,"mono":7092,"loop_":7093,"mul__":7094,"\"...\")":7095,"\"])":7096,",=":7097,"3e":7098,"949":7099,"980":7100,"914":7101,"Jz":7102,"Q5":7103,"Tv":7104,"Vj":7105,"Y7":7106,"Yq":7107,"aK":7108,"bst":7109,"clock":7110,"ew":7111,"10f":7112,"cnts":7113,"hea":7114,"690":7115,"floyd":7116,"390":7117,"new_y":7118,"ways":7119,")**(":7120,"switch":7121,"_to_n":7122,"Last":7123,"_10_to_n":7124,"_candi":7125,"1の":7126,"564":7127,"750":7128,"826":7129,"858":7130,"960":7131,"924":7132,"B_list":7133,"Ij":7134,"Jv":7135,"Mf":7136,"Q8":7137,"Ry":7138,"UJ":7139,"WI":7140,"fig":7141,"kx":7142,"ずつ":7143,"コン":7144,"以外":7145,"探す":7146,"目の":7147,"rel":7148,"dpy":7149,"abc1":7150,"diction":7151,"near":7152,"_cum":7153,"MAX_N":7154,"gyaku_kaijo":7155,"bunbo":7156,"algorith":7157,"628":7158,"780":7159,"788":7160,"917":7161,"Bh":7162,"Card":7163,"Dd":7164,"Ed":7165,"Nd":7166,"Pd":7167,"Qk":7168,"Qq":7169,"Qs":7170,"Sj":7171,"Scan":7172,"Xf":7173,"_C":7174,"cmp":7175,"elm":7176,"free":7177,"iN":7178,"l6":7179,"w4":7180,"二分":7181,"含ま":7182,"__get":7183,"]=-":7184,"extra":7185,"s_l":7186,"##############":7187,"remainder":7188,"逆元テーブル":7189,"warshall_":7190,"binary_search":7191,"'][":7192,"1999":7193,"755":7194,"728":7195,"848":7196,"968":7197,"=\",":7198,"F_":7199,"Ie":7200,"Lv":7201,"Mp":7202,"Nz":7203,"Ou":7204,"RD":7205,"XA":7206,"Zm":7207,"]]-":7208,"gV":7209,"l8":7210,"l_list":7211,"えて":7212,"重複":7213,"inl":7214,"dev":7215,"__r":7216,"minv":7217,"index2":7218,"sche":7219,"bellman":7220,"XYZ":7221,"????????????????????":7222,"read_ints":7223,"member":7224,"typing":7225,"given":7226,"ような":7227,"DVSR":7228,"標準入力":7229,"544":7230,"825":7231,"928":7232,"Cd":7233,"Eo":7234,"Hj":7235,"YE":7236,"Yr":7237,"fut":7238,"iq":7239,"more":7240,"pin":7241,"wK":7242,"します":7243,"ナス":7244,"場所":7245,"ority":7246,"coor":7247,"cnt0":7248,"which":7249,"add__":7250,"argum":7251,"n_y":7252,"_non":7253,"ときは":7254,"interval":7255,"'?'":7256,"の最大値":7257,"trans":7258,"mp_def":7259,"ところ":7260,"380":7261,"618":7262,"710":7263,"790":7264,"CN":7265,"Gm":7266,"Jb":7267,"Ln":7268,"Nv":7269,"Op":7270,"WS":7271,"Xh":7272,"Zc":7273,"_color":7274,"iK":7275,"ndp":7276,"zb":7277,"あれば":7278,"の長さ":7279,"座標":7280,"残り":7281,"strs":7282,"dai":7283,"]]]":7284,"arri":7285,"inv_":7286,"wrong":7287,"log10":7288,"に変換":7289,"operation":7290,"Contest":7291,"0e":7292,"760":7293,"965":7294,"Lg":7295,"MW":7296,"Pv":7297,"Q0":7298,"Q2":7299,"Rv":7300,"Uv":7301,"Zt":7302,"gH":7303,"ging":7304,"hd":7305,"qp":7306,"qr":7307,"u8":7308,"valid":7309,"の頂点":7310,"入れ":7311,"数値":7312,"()).":7313,"\":\"":7314,"ing_":7315,"s_set":7316,"conven":7317,"gole":7318,"071":7319,"selection":7320,"module":7321,"読み込み":7322,"apsack":7323,"guess":7324,"algorithm":7325,"__getitem__":7326,"conveni":7327,"*(-":7328,"565":7329,"625":7330,"749":7331,"724":7332,"940":7333,"948":7334,"CV":7335,"Ej":7336,"Fb":7337,"Ld":7338,"Pm":7339,"Q4":7340,"Tm":7341,"Ui":7342,"_path":7343,"ici":7344,"k4":7345,"lj":7346,"wt":7347,"ライ":7348,"moved":7349,"contain":7350,"temp_node":7351,"s_i":7352,"pref":7353,"filen":7354,"lst2":7355,"lcs":7356,"conson":7357,"ratio":7358,"shortest_path":7359,"warshall_floyd":7360,"319":7361,"524":7362,"665":7363,"855":7364,"945":7365,"Gh":7366,"Jp":7367,"Nm":7368,"PT":7369,"WF":7370,"Y8":7371,"Zd":7372,"_update":7373,"ban":7374,"blist":7375,"fol":7376,"k9":7377,"kan":7378,"l7":7379,"lh":7380,"w9":7381,"yb":7382,"たい":7383,"にある":7384,"ほう":7385,"分け":7386,"割り":7387,"注意":7388,"inputData":7389,"nth":7390,"reached":7391,"ids":7392,"false":7393,"sive":7394,"ailable":7395,"------------":7396,"how":7397,"zero_":7398,"06d":7399,"PQR":7400,"77777777":7401,"ごとに":7402,"discard":7403,"377":7404,"425":7405,"722":7406,"<(":7407,"Aa":7408,"Iv":7409,"JI":7410,"Pri":7411,"Sv":7412,"Va":7413,"Xv":7414,"_max_":7415,"gm":7416,"gap":7417,"k5":7418,"l5":7419,"o_":7420,"ッチ":7421,"ップ":7422,"prof":7423,"ene":7424,"node_id":7425,"s_len":7426,"min_dist":7427,"convert":7428,"tax":7429,"house":7430,"UTF":7431,"identity":7432,"sel_row":7433,"propag":7434,"attack":7435,"future":7436,"'%":7437,"368":7438,"344":7439,"854":7440,"918":7441,"964":7442,"954":7443,"Er":7444,"Ga":7445,"H_":7446,"MR":7447,"Md":7448,"Zz":7449,"_check":7450,"fm":7451,"xが":7452,"を選":7453,"優先":7454,"全探索":7455,"改行":7456,"]['":7457,"])])":7458,"lens":7459,"five":7460,"731":7461,"fac_list":7462,"ans_1":7463,"r_query":7464,"bag":7465,"ATER":7466,"ことが":7467,"初期値":7468,"yakusu":7469,"GREATER":7470,"LESS":7471,"\"%(":7472,"CL":7473,"K7":7474,"Qe":7475,"SV":7476,"WR":7477,"Ys":7478,"_root":7479,"_values":7480,"q8":7481,"qx":7482,"t5":7483,"wo":7484,"うち":7485,"なか":7486,"よい":7487,"を出力":7488,"一致":7489,"列挙":7490,"mina":7491,"str1":7492,"dash":7493,"one_":7494,"max_h":7495,"s_map":7496,"x_min":7497,"_weight":7498,"new_h":7499,"ptn":7500,"\"#\")":7501,"original":7502,"_ford":7503,"region":7504,"(\".\")":7505,"highe":7506,"']*":7507,"318":7508,"448":7509,"445":7510,"920":7511,"AU":7512,"Cm":7513,"LN":7514,"Od":7515,"Pz":7516,"Wu":7517,"Y0":7518,"Yp":7519,"Yy":7520,"のノード":7521,"べき":7522,"地点":7523,"連続":7524,"forward":7525,"rement":7526,"hed":7527,"tmp_sum":7528,"ull":7529,"init_":7530,"tak":7531,"typedef":7532,"'#')":7533,"Char":7534,"frm":7535,"east":7536,"super":7537,"group_members":7538,"drop":7539,"\"[":7540,"314":7541,"761":7542,"785":7543,"845":7544,"9c":7545,"Cal":7546,"Ep":7547,"Et":7548,"EQU":7549,"HAL":7550,"K4":7551,"Mt":7552,"Total":7553,"Vn":7554,"Zg":7555,"iR":7556,"longe":7557,"r4":7558,"wd":7559,"x5":7560,"xk":7561,"zg":7562,"変数":7563,"調べる":7564,"library":7565,"masu":7566,")];":7567,"sum_list":7568,"122":7569,"iss":7570,"chmin":7571,"distan":7572,"max_x":7573,"s_max":7574,"cost_":7575,"number_list":7576,"diffs":7577,"logging":7578,"adj_list":7579,"SortedList":7580,"Weight":7581,"bellman_ford":7582,"consonant":7583,"&(":7584,"Ky":7585,"Na":7586,"SX":7587,"The":7588,"UI":7589,"Uj":7590,"WN":7591,"WV":7592,"Wl":7593,"Y6":7594,"ZH":7595,"csum":7596,"flip":7597,"w8":7598,"しか":7599,"を取得":7600,"seri":7601,"lenS":7602,"(\"{}\".":7603,"count_non":7604,"maxa":7605,"maxv":7606,"keep":7607,"flags":7608,"y_max":7609,"n_x":7610,"ACGT":7611,"available":7612,"の数字":7613,"building":7614,"526":7615,"764":7616,"715":7617,"Bg":7618,"It":7619,"Jn":7620,"Mu":7621,"Qf":7622,"SH":7623,"Tg":7624,"Uc":7625,"lmax":7626,"yx":7627,"acity":7628,"s_in":7629,"buy":7630,"nxt_":7631,"used_":7632,"diffe":7633,"ABC0":7634,"hole":7635,"cake":7636,"patterns":7637,"\"\"\"\"\"\"\"\"":7638,"'':":7639,"828":7640,"944":7641,"=\"\".":7642,"CJ":7643,"Dg":7644,"Ew":7645,"K5":7646,"Kt":7647,"Lh":7648,"Q9":7649,"Td":7650,"Wa":7651,"_new":7652,"bj":7653,"k6":7654,"q7":7655,"r6":7656,"zI":7657,"が1":7658,"の値":7659,"やつ":7660,"時に":7661,"pract":7662,"ses":7663,"()))]":7664,"coord":7665,"=[[-":7666,"1799":7667,"getList":7668,"getenv":7669,"max_A":7670,"succ":7671,"gouke":7672,"ii2":7673,"all_group_members":7674,"最小公倍数":7675,"knapsack":7676,"Directed":7677,"practice":7678,"\"][":7679,"0f":7680,"7a":7681,"767":7682,"741":7683,"865":7684,"988":7685,"Fw":7686,"K0":7687,"Kw":7688,"MX":7689,"Qo":7690,"Rp":7691,"Snuke":7692,"TV":7693,"US":7694,"Wf":7695,"Y3":7696,"_odd":7697,"ning":7698,"q4":7699,"sai":7700,"vol":7701,"xf":7702,"zX":7703,"だと":7704,"上限":7705,"seed":7706,"store":7707,"gess":7708,"108":7709,"1024":7710,"])[":7711,"(\"{:.":7712,"val1":7713,"inds":7714,"max_c":7715,"したい":7716,"alphabets":7717,"GHI":7718,"RGB":7719,"以下の":7720,"reshape":7721,"EQUAL":7722,"count_nonzero":7723,")=":7724,":(-":7725,"DZ":7726,"Ip":7727,"MP":7728,"Vt":7729,"i番目":7730,"nlist":7731,"oc":7732,"slice":7733,"tab":7734,"u3":7735,"yc":7736,"確定":7737,"__add__":7738,"th_":7739,"acum":7740,"]+(":7741,"past":7742,"group_count":7743,"(\"#\",":7744,"Score":7745,"という":7746,"465":7747,"765":7748,":',":7749,";}":7750,"=((":7751,"BZ":7752,"GX":7753,"HS":7754,"Ii":7755,"Ja":7756,"Nh":7757,"Qp":7758,"Rt":7759,"VM":7760,"Vc":7761,"equal":7762,"i_list":7763,"u4":7764,"xt":7765,"yt":7766,"sta":7767,"rest_":7768,"alls":7769,"asin":7770,"chan":7771,"facts":7772,"INV":7773,"?????????":7774,"ppp":7775,"new_w":7776,"distance_list":7777,"vertex_start":7778,"vertex_end":7779,"labels":7780,"satis":7781,"dummy":7782,"ROUND_HAL":7783,"BellmanFord":7784,"ROUND_HALF_":7785,"955":7786,"925":7787,"El":7788,"FO":7789,"Nn":7790,"Rl":7791,"Table":7792,"VAL":7793,"Wi":7794,"Yk":7795,"cls":7796,"dx2":7797,"o9":7798,"qy":7799,"zm":7800,"は0":7801,"メモ":7802,"inner":7803,"seat":7804,"del_":7805,"dia":7806,"ashi":7807,"2399":7808,"1800":7809,"ff0":7810,"a_dict":7811,"dic1":7812,"NOPQR":7813,"num_of_":7814,"リストの":7815,"\"-\":":7816,"event":7817,"LMNOPQR":7818,"JKLMNOPQR":7819,"NULL":7820,"pppppppppppppppp":7821,"norm":7822,"に行く":7823,"0d":7824,"364":7825,"422":7826,"566":7827,"AJ":7828,"JD":7829,"Qc":7830,"Rr":7831,"Uh":7832,"UVW":7833,"Wt":7834,"amount":7835,"b_num":7836,"hlist":7837,"js":7838,"k7":7839,"kp":7840,"lls":7841,"によ":7842,"を行う":7843,"未満":7844,"stand":7845,"())+":7846,"unc":7847,"index_":7848,"ABs":7849,"_big":7850,"bose":7851,"]!='":7852,"リストを":7853,"[],[]":7854,"ことで":7855,"('#'":7856,"happy":7857,"DEFGHI":7858,"dictionary":7859,".#":7860,"325":7861,"388":7862,"4000":7863,"522":7864,"752":7865,"941":7866,":%":7867,"Az":7868,"GB":7869,"GL":7870,"LT":7871,"MB":7872,"NH":7873,"Vis":7874,"Ya":7875,"but":7876,"dct":7877,"kt":7878,"qw":7879,"vlist":7880,"そう":7881,"末尾":7882,"()+":7883,"arp":7884,"dis_":7885,"\")+":7886,"('{":7887,"exact":7888,"ch_":7889,"=[(-":7890,"max_sum":7891,"bbb":7892,"RED":7893,"dice1":7894,"ZIP":7895,"■■■■■■■■":7896,"JKLMNOPQRST":7897,"DEFGHIJKLMNOPQRST":7898,"166":7899,"751":7900,"768":7901,"915":7902,"Che":7903,"EL":7904,"JPY":7905,"Ke":7906,"Oc":7907,"Ul":7908,"Ye":7909,"Yw":7910,"Yx":7911,"jv":7912,"jun":7913,"nai":7914,"o8":7915,"rN":7916,"r_list":7917,"wor":7918,"の処理":7919,"ール":7920,"情報":7921,"方が":7922,"記録":7923,"uru":7924,"uld":7925,"siz":7926,"time_":7927,"shop":7928,"_white":7929,"logN":7930,"_ru":7931,"aves":7932,"power_func":7933,"final_":7934,"kyu":7935,"BIG":7936,"に対して":7937,"3000":7938,"328":7939,"745":7940,"756":7941,"9d":7942,"EPS":7943,"FAC":7944,"JH":7945,"Jm":7946,"Q6":7947,"Tmp":7948,"Vh":7949,"Wb":7950,"Wc":7951,"XT":7952,"_lower":7953,"dxy":7954,"kl":7955,"kq":7956,"kot":7957,"u9":7958,"vh":7959,"zan":7960,"いない":7961,"使用":7962,"��":7963,"star":7964,"cook":7965,"numList":7966,"dpt":7967,"128":7968,"1399":7969,"]-(":7970,"(-(":7971,"ACL":7972,"mii":7973,"wait":7974,"_nodes":7975,"Ordered":7976,"必要がある":7977,"stairs":7978,"monoid":7979,"coordin":7980,"\"],":7981,"385":7982,":\"":7983,"EI":7984,"FX":7985,"Gg":7986,"Ji":7987,"Lm":7988,"Mi":7989,"Mm":7990,"isp":7991,"k8":7992,"kill":7993,"qf":7994,"sor":7995,"walk":7996,"ycle":7997,"zZ":7998,"かる":7999,"がない":8000,"けない":8001,"やす":8002,"圧縮":8003,"最も":8004,"stor":8005,"stream":8006,"umi":8007,"defin":8008,"counted":8009,"135":8010,"s_count":8011,"cost2":8012,"{}:":8013,"_cycle":8014,"frag":8015,"ABCDEFGHIJKLMNOPQRST":8016,"next_p":8017,"input_raw":8018,"LIR_":8019,"letters":8020,"fixed":8021,"lipboard":8022,"student":8023,"326":8024,"744":8025,"910":8026,"962":8027,"FT":8028,"N_list":8029,"Ol":8030,"Qw":8031,"Rj":8032,"Range":8033,"Vd":8034,"Wv":8035,"_ind":8036,"o4":8037,"pz":8038,"qn":8039,"zC":8040,"が0":8041,"まだ":8042,"各頂点":8043,"実行":8044,"ana":8045,"month":8046,"no_":8047,"val2":8048,"oper":8049,"]+\"":8050,"idx2":8051,"a_1":8052,"is_same":8053,"target_list":8054,"num_dict":8055,"Dijkstra":8056,"boxes":8057,"存在する":8058,"Negative":8059,"variable":8060,"Scanner":8061,"UVWXYZ":8062,"1f":8063,"161":8064,"466":8065,"AKIH":8066,"Ea":8067,"Em":8068,"Ib":8069,"K6":8070,"MS":8071,"Mint":8072,"QF":8073,"Qt":8074,"RU":8075,"Res":8076,"YO":8077,"Yn":8078,"ZS":8079,"]^":8080,"gray":8081,"hat":8082,"r9":8083,"sions":8084,"u0":8085,"かを":8086,"マイ":8087,"候補":8088,"行列":8089,"retu":8090,"untime":8091,"then":8092,"('%":8093,"verbose":8094,"paint":8095,"job":8096,"5477":8097,"\",\"\")":8098,"dy2":8099,"next_x":8100,"STX":8101,"renzoku":8102,"dist_matrix":8103,"quick":8104,"finished":8105,"_candidate":8106,"profit":8107,"Visit":8108,"381":8109,"355":8110,"354":8111,"342":8112,"562":8113,"9a":8114,"Dis":8115,"Ek":8116,"Fg":8117,"Gz":8118,"Hg":8119,"Hh":8120,"Ic":8121,"MO":8122,"Mh":8123,"Ml":8124,"ND":8125,"Rn":8126,"Ub":8127,"XB":8128,"Xd":8129,"ZL":8130,"_X":8131,"fh":8132,"oi":8133,"qe":8134,"r8":8135,"rst":8136,"んだ":8137,"データ":8138,"指定":8139,"的に":8140,"確認":8141,"終わ":8142,"))**":8143,"])<":8144,")]*":8145,")]+":8146,"thing":8147,"thir":8148,"112":8149,"ed_list":8150,"tow":8151,"mods":8152,"sets":8153,"asc":8154,"2799":8155,"dict_":8156,"arry":8157,"s_dict":8158,"a_s":8159,"bet":8160,"sum_A":8161,"modinv_list":8162,"kinds":8163,"Fennec":8164,"141592653":8165,"schedu":8166,"マイナス":8167,"958":8168,":])))":8169,"=%":8170,"DT":8171,"Dep":8172,"Ei":8173,"Iw":8174,"RS":8175,"Runtime":8176,"Vv":8177,"WO":8178,"Wj":8179,"Yb":8180,"r7":8181,"のコスト":8182,"短経路":8183,"繰り":8184,"1010":8185,"expe":8186,"unused":8187,"asu":8188,"jobs":8189,"max_l":8190,"?????":8191,"c_1":8192,"sub__":8193,"_small":8194,"しておく":8195,"before_":8196,"deleteFirst":8197,"mergeSort":8198,"sides":8199,"Start":8200,"city_":8201,"sheet":8202,"ABCDEFGHIJKLMNOPQRSTUVWXYZ":8203,"358":8204,"842":8205,"Bz":8206,"Equal":8207,"KY":8208,"Mj":8209,"Mv":8210,"PG":8211,"Rc":8212,"TZ":8213,"Wp":8214,"_R":8215,"_dp":8216,"_ab":8217,"_points":8218,"g_":8219,"h_max":8220,"kit":8221,"qY":8222,"wm":8223,"x9":8224,"xmax":8225,"き換":8226,"の総":8227,"を格納":8228,"到達":8229,"連結":8230,"ifac":8231,"erd":8232,"])>=":8233,"iti":8234,"hid":8235,"hes":8236,"html":8237,"pare":8238,"n_q":8239,"10001":8240,"passed":8241,"A_B":8242,"ときに":8243,"RRR":8244,"sentence":8245,"avl_left":8246,"kakudo":8247,"Matrix":8248,"ignore":8249,"folded":8250,"difference":8251,"goukei":8252,">(":8253,"Bal":8254,"CSF":8255,"Fp":8256,"Jd":8257,"Ks":8258,"NOD":8259,"Par":8260,"RA":8261,"Sol":8262,"TP":8263,"_readline":8264,"ear":8265,"nS":8266,"nz":8267,"q5":8268,"q9":8269,"t9":8270,"xg":8271,"y7":8272,"の計算":8273,"スコ":8274,"ティ":8275,"付き":8276,"encode":8277,")))))":8278,"num_a":8279,"op2":8280,"[:],":8281,"])),":8282,"s_1":8283,"a_l":8284,"outh":8285,"findroot":8286,"dow":8287,"buff_readline":8288,"taro":8289,"new_list":8290,"\"+\"+":8291,"sml":8292,"http":8293,"directions":8294,"LAG":8295,"astype":8296,"distances":8297,"1回":8298,"588":8299,"DJ":8300,"Ez":8301,"Fv":8302,"HL":8303,"KF":8304,"Qj":8305,"Xg":8306,"_parent":8307,"bh":8308,"qk":8309,"r5":8310,"{(":8311,"つける":8312,"余り":8313,"制限":8314,"正解":8315,"間に":8316,"seki":8317,"ansl":8318,"urui":8319,")]):":8320,"114":8321,"125":8322,"op1":8323,"names":8324,"heap化":8325,"Code":8326,"max_cnt":8327,"a_lst":8328,"suit":8329,"beta":8330,"divi":8331,"count_1":8332,"soin":8333,"dice2":8334,"'+'+":8335,"_top":8336,"ttt":8337,"LLIN":8338,"LFR":8339,"????????????????????????????????":8340,"merge_sort":8341,"insort_right":8342,"'-'":8343,"'-'+":8344,"avl_right":8345,"ROUND_HALF_UP":8346,"スコア":8347,"725":8348,"862":8349,"Cz":8350,"HG":8351,"Kf":8352,"Ko":8353,"RF":8354,"RH":8355,"Ug":8356,"XG":8357,"Yv":8358,"ZP":8359,"_py":8360,"bis":8361,"card_":8362,"i7":8363,"jc":8364,"sab":8365,"数える":8366,"時は":8367,"apple":8368,"alind":8369,"look":8370,"node1":8371,"s_input":8372,"root_node":8373,"functions":8374,"checksum":8375,"970":8376,"cial":8377,"argmin":8378,"some":8379,"BLACK":8380,"Distance":8381,"~~~~~~~~~~~~~~~~":8382,"([-":8383,"321":8384,"384":8385,"EU":8386,"IINF":8387,"Ku":8388,"Qn":8389,"Vm":8390,"YA":8391,"]]*":8392,"_graph":8393,"_even":8394,"bg":8395,"cul":8396,"egcd":8397,"gth":8398,"}{":8399,"▒▒":8400,"っち":8401,"の組み合わせ":8402,"数が":8403,"？？":8404,"anced":8405,"li_":8406,"str_":8407,"igi":8408,"acgt":8409,"dama":8410,"ss2":8411,"ls1":8412,"save":8413,"]==\"?":8414,"read_func":8415,"ARGS":8416,"cands":8417,"org_inp":8418,"\"?\"":8419,"pena":8420,"OrderedDict":8421,"kitai":8422,"\"##":8423,".\"\"\"":8424,"1行":8425,"341":8426,"822":8427,"961":8428,"Ag":8429,"CG":8430,"Cg":8431,"DN":8432,"Fun":8433,"GD":8434,"Ia":8435,"KQ":8436,"Kg":8437,"Kx":8438,"LB":8439,"MN":8440,"Tup":8441,"UO":8442,"Ud":8443,"Vz":8444,"Wh":8445,"Wm":8446,"XN":8447,"Yt":8448,"ZN":8449,"[''":8450,"cst":8451,"cat":8452,"i番目の":8453,"jh":8454,"jn":8455,"kQ":8456,"q6":8457,"y5":8458,"y8":8459,"yaku":8460,"など":8461,"に追加":8462,"の和":8463,"の配列":8464,"クト":8465,"重み":8466,"inm":8467,"lib":8468,"maerd":8469,"coef":8470,"+=\"":8471,"least":8472,"attle":8473,"('{:.":8474,"day_":8475,"asi":8476,"INCREF":8477,"ffff":8478,"inv_t":8479,"min_idx":8480,"boo":8481,"factorials":8482,"compr":8483,"sublist":8484,"input_str":8485,"'+':":8486,"計算用":8487,"nlarge":8488,"deleteLast":8489,"_box":8490,"evalu":8491,"mod_inv":8492,"Py_INCREF":8493,"vvvvvvvvvvvvvvvv":8494,"^^^^^^^^^^^^^^^^":8495,"を満たす":8496,"highest":8497,"nlargest":8498,"#[":8499,"3b":8500,"7c":8501,"Big":8502,"Eh":8503,"Idx":8504,"JL":8505,"Ql":8506,"Qr":8507,"UU":8508,"VH":8509,"VX":8510,"YNe":8511,"_lis":8512,"_of":8513,"_road":8514,"az":8515,"alf":8516,"jd":8517,"ly_":8518,"nan":8519,"xlist":8520,"をリスト":8521,"プル":8522,"桁目":8523,"！！":8524,"seven":8525,"__mul__":8526,"tolist":8527,"max_right":8528,"??????":8529,"{}{}":8530,"min_n":8531,"pointer":8532,"point_list":8533,"y_min":8534,"parity":8535,"x_i":8536,"f0f":8537,"r_idx":8538,"ufos":8539,"\"+\":":8540,"vertical":8541,"assertEqual":8542,"0x33333333":8543,"Begin":8544,"lucas":8545,"_NUM":8546,"partition":8547,"lines_input":8548,"modulo":8549,"defined":8550,"schedule":8551,"(('":8552,",[]":8553,"7d":8554,"758":8555,"984":8556,"Il":8557,"LG":8558,"Ov":8559,"Red":8560,"Sm":8561,"Same":8562,"VN":8563,"Yf":8564,"_prime":8565,"cmax":8566,"cba":8567,"dlist":8568,"don":8569,"fen":8570,"nal":8571,"x7":8572,"y9":8573,"y_list":8574,"けて":8575,"される":8576,"の取得":8577,"のうち":8578,"まる":8579,"めて":8580,"やる":8581,"上げ":8582,"当に":8583,"utes":8584,"input1":8585,"len1":8586,"__future":8587,"thr":8588,"lay":8589,"from_start":8590,"lowest":8591,"igo":8592,"1900":8593,"index1":8594,"node2":8595,"a_min":8596,"ls2":8597,"_by_":8598,"_cut":8599,"min_x":8600,"min_sum":8601,"query_":8602,"'#']":8603,"gosen":8604,"next_index":8605,"target_":8606,"just":8607,"food":8608,"prime_factor":8609,"capacity":8610,"linklist":8611,"without":8612,"special":8613,"bの降順":8614,"bの昇順":8615,"を作る":8616,"reachable_from_start":8617,"貪欲法":8618,"reachable_to_end":8619,"Check":8620,"hidari":8621,"alindro":8622,"YNeos":8623,"__future__":8624,"'@":8625,"366":8626,"386":8627,"762":8628,"982":8629,"<<=":8630,"EP":8631,"En":8632,"Fc":8633,"Fh":8634,"GJ":8635,"LD":8636,"MH":8637,"Math":8638,"Path":8639,"TC":8640,"_minus":8641,"c11":8642,"eye":8643,"fst":8644,"fis":8645,"mg":8646,"oe":8647,"qj":8648,"qt":8649,"q_list":8650,"vL":8651,"すれば":8652,"のは":8653,"を追加":8654,"必ず":8655,"順列":8656,"leaves":8657,"(\"/":8658,"cnt_b":8659,"iple":8660,"2337":8661,"dist2":8662,"datas":8663,"recursive":8664,"findall":8665,"div__":8666,"week":8667,"faces":8668,"num_of":8669,"csf":8670,"calcul":8671,"文字目":8672,"blacks":8673,"trace":8674,"'-':":8675,"Edges":8676,"\"}":8677,"951":8678,"EZ":8679,"Fd":8680,"FLAG":8681,"Kv":8682,"LMI":8683,"NB":8684,"Wd":8685,"XH":8686,"ZT":8687,"_add":8688,"aN":8689,"ead":8690,"kf":8691,"l9":8692,"p7":8693,"rfind":8694,"rgb":8695,"sW":8696,"w5":8697,"でない":8698,"もし":8699,"使う":8700,"inn":8701,"coins":8702,"dio":8703,"dp_x":8704,"sum_b":8705,"hex":8706,"temp_list":8707,"10000000000":8708,"ally":8709,"trunc":8710,"4567":8711,"rival":8712,"3199":8713,"ddprint":8714,"fee":8715,"A_sum":8716,"ween":8717,"lower_bound":8718,"MAXN":8719,"Divis":8720,"Heap":8721,"ONLIN":8722,"mething":8723,"最大公約数":8724,"location":8725,"EXT":8726,"should":8727,"Length":8728,"サイズ":8729,"Balanced":8730,"!!":8731,"'',":8732,"2つ":8733,"922":8734,"?':":8735,"EJ":8736,"LJ":8737,"LZ":8738,"MD":8739,"Oh":8740,"VT":8741,"Vg":8742,"WC":8743,"Yi":8744,"aab":8745,"cent":8746,"kumi":8747,"なし":8748,"に属する":8749,"のインデックス":8750,"ェック":8751,"チェック":8752,"ラス":8753,"開始":8754,"int_list":8755,"entry":8756,"))%(":8757,"106":8758,"ato":8759,"__repr":8760,"als":8761,"maxnum":8762,"lamp":8763,"195":8764,"op3":8765,"100100":8766,"answer_list":8767,"456":8768,"rown":8769,"A_i":8770,"Inv":8771,"something":8772,"nCk":8773,"solved":8774,"??????????????":8775,"???????????????":8776,"books":8777,"gram":8778,"kotae":8779,"alindrome":8780,"__repr__":8781,"322":8782,"6k":8783,"CP":8784,"DBG":8785,"Fm":8786,"IZ":8787,"JP":8788,"Kk":8789,"Kr":8790,"Mult":8791,"Sto":8792,"Temp":8793,"WM":8794,"XC":8795,"Yh":8796,"_all":8797,"b_sum":8798,"cj":8799,"cup":8800,"iY":8801,"ick":8802,"o7":8803,"w7":8804,"yf":8805,"zP":8806,"zT":8807,"エラ":8808,"フラ":8809,"併合":8810,"法では":8811,"絶対":8812,"自分":8813,"ifact":8814,"printf":8815,"lister":8816,"+='":8817,"10e":8818,"maxl":8819,"pool":8820,"node_size":8821,"s_s":8822,"'.',":8823,"c_w":8824,"A_max":8825,"adj_":8826,"Remove":8827,"dots":8828,"LazySegTree_":8829,"('{}:":8830,"最後に":8831,"slove":8832,"********":8833,"third":8834,"#%%":8835,"'##":8836,"0c":8837,"1個":8838,"50000":8839,"866":8840,"985":8841,"EH":8842,"FM":8843,"Jh":8844,"Link":8845,"NP":8846,"OM":8847,"RX":8848,"Rd":8849,"SB":8850,"SJ":8851,"WX":8852,"_q":8853,"_li":8854,"_op":8855,"`.":8856,"bed":8857,"j_":8858,"ki_":8859,"lmi":8860,"nny":8861,"oy":8862,"port":8863,"sli":8864,"tans":8865,"txy":8866,"u6":8867,"なが":8868,"セット":8869,"本当に":8870,"115":8871,"toS":8872,"gcds":8873,"max_w":8874,"s_2":8875,"a_count":8876,"_case":8877,"1e18":8878,"sym":8879,"input_data":8880,"changes":8881,"must":8882,"decrement":8883,"Make":8884,"ここから":8885,"menu":8886,"adjacent":8887,"piece":8888,"Depth":8889,"'<":8890,",)":8891,".*":8892,"352":8893,"Fj":8894,"Ft":8895,"LP":8896,"Om":8897,"Pow":8898,"Wn":8899,"acnt":8900,"iの":8901,"o3":8902,"o6":8903,"south":8904,"zD":8905,"かつ":8906,"しま":8907,"とり":8908,"に入":8909,"まず":8910,"また":8911,"らない":8912,"使わ":8913,"深さ":8914,"mal_":8915,"lement":8916,"minute":8917,"dpi":8918,"as_":8919,"Factor":8920,"max_b":8921,"max_p":8922,"present":8923,"2500":8924,"xyc":8925,"next_y":8926,"DP法では":8927,"make_modinv_list":8928,"_train":8929,"two_":8930,"################################################":8931,"runrun":8932,"sieve_of_":8933,"list2d":8934,"ではない":8935,"f0f0f0f0":8936,"で割った":8937,"neighbors":8938,"complexity":8939,"'...')":8940,"input_methods":8941,"貪欲法か":8942,"フラグ":8943,"本当に貪欲法か":8944,"/%":8945,"1b":8946,":]+":8947,"GA":8948,"OH":8949,"OT":8950,"RN":8951,"Rb":8952,"^(":8953,"_o":8954,"gU":8955,"ios":8956,"kar":8957,"nnx":8958,"p5":8959,"qb":8960,"ted":8961,"xq":8962,"yq":8963,"に格納":8964,"を更新":8965,"単位":8966,"左側":8967,"種類":8968,"**-":8969,"minx":8970,"his":8971,"tower":8972,"tmp0":8973,"keisuu":8974,"--)":8975,"w_max":8976,"netw":8977,"arr1":8978,"a_L":8979,"nump":8980,"conver":8981,"docs":8982,"inity":8983,"row1":8984,"diff_":8985,"new_s":8986,"clone":8987,"blem":8988,"update_":8989,"++;":8990,"seconds":8991,"COM":8992,"bridges":8993,"の最小値":8994,"misc":8995,"layer1":8996,"Problem":8997,"nums_clone":8998,"network":8999,"4u":9000,"986":9001,"Arr":9002,"GP":9003,"HA":9004,"Ih":9005,"Kc":9006,"Ot":9007,"QL":9008,"TOD":9009,"UX":9010,"WJ":9011,"Yu":9012,"_query":9013,"fk":9014,"fv":9015,"ize":9016,"mn_":9017,"pack":9018,"qW":9019,"vz":9020,"w6":9021,"yv":9022,"個数を":9023,"足す":9024,"allow":9025,"maxlen":9026,"min_c":9027,"cnt_list":9028,"tmp_b":9029,"tmp_a":9030,"asa":9031,"getInt":9032,"]))%":9033,"a_n":9034,"_car":9035,"red_":9036,"bin_str":9037,"min_i":9038,"i_max":9039,"sub_list":9040,"l_s":9041,"targets":9042,"permutation":9043,"tmp_score":9044,"count_2":9045,"Nums":9046,"Height":9047,"proc":9048,"('#'*":9049,"internal":9050,"できない":9051,"File":9052,"missing":9053,"ために":9054,"lines_export":9055,"connected_num":9056,"series":9057,"Beginner":9058,"ONLINE_":9059,"952":9060,"CZ":9061,"Fn":9062,"HT":9063,"Iz":9064,"MV":9065,"NZ":9066,"Ng":9067,"XP":9068,"YJ":9069,"gate":9070,"jm":9071,"rk":9072,"sco":9073,"xo":9074,"y6":9075,"};":9076,"のに":9077,"][\"":9078,"at_start":9079,"tou":9080,"isTest":9081,"aces":9082,"scan":9083,"a_2":9084,"a_cnt":9085,"1000001":9086,"min_left":9087,"pic":9088,"A_array":9089,"ans_dict":9090,"symb":9091,"charact":9092,"kaisu":9093,"tile":9094,"cess":9095,"\"-\"+":9096,"to_end":9097,"'*'":9098,"のときは":9099,"box_col":9100,"create_":9101,"between":9102,"\"/":9103,"\">":9104,"1a":9105,"3a":9106,"3c":9107,"781":9108,":{},":9109,"=',":9110,"FJ":9111,"NC":9112,"OE":9113,"OS":9114,"Qb":9115,"Qi":9116,"RT":9117,"SZ":9118,"TB":9119,"UZ":9120,"Yc":9121,"bur":9122,"b_i":9123,"jit":9124,"kuk":9125,"pj":9126,"ript":9127,"tap":9128,"vm":9129,"x6":9130,"xmin":9131,"の位置":9132,"stage":9133,"splitlines":9134,"listed":9135,"uro":9136,"])+(":9137,"(\"##":9138,"dish":9139,"('/":9140,"('',":9141,"getlist":9142,"result_list":9143,"Comp":9144,"max_d":9145,"max_idx":9146,"nowx":9147,"value_":9148,"s_index":9149,"pos2":9150,"a_set":9151,"648":9152,"frame":9153,"n_cols":9154,"stdc":9155,"base_10_to_n":9156,"outputs":9157,"]%(":9158,"msg":9159,"smr":9160,"++.":9161,"ALL":9162,"black_":9163,"cycles":9164,"hyou":9165,"('#',":9166,"(\"#\"":9167,"8192":9168,"Primes":9169,"triangle":9170,"problems":9171,"hands":9172,"read_str_n":9173,"''''''''":9174,"-{":9175,"Fz":9176,"IP":9177,"Kq":9178,"MG":9179,"Mn":9180,"Rh":9181,"Ua":9182,"VC":9183,"VP":9184,"carry":9185,"hori":9186,"n_c":9187,"p_i":9188,"rh":9189,"先に":9190,"参考":9191,"実装":9192,"空白":9193,"進数":9194,"順番":9195,"高速":9196,"ste":9197,"lity":9198,"))[::-":9199,"**.":9200,"sum_num":9201,"ac_list":9202,"87f":9203,"getvalue":9204,"]))))":9205,"s_sum":9206,"next_w":9207,"1400":9208,"lis2":9209,"shu":9210,"n_min":9211,"x_tmp":9212,"\",\"\").":9213,"subs":9214,"sum_l":9215,"next_pos":9216,"DP2":9217,"MAX_A":9218,"found_":9219,"replacement_of_":9220,"_both_":9221,"Log":9222,"zont":9223,"SortedSet":9224,"exists":9225,"transp":9226,"replacement_of_found":9227,"361":9228,"500000":9229,"7w":9230,"FZ":9231,"Im":9232,"JUD":9233,"OC":9234,"OZ":9235,"Oa":9236,"QY":9237,"Sg":9238,"VG":9239,"VL":9240,"cmath":9241,"c12":9242,"fft":9243,"jg":9244,"m_list":9245,"q_":9246,"sL":9247,"uQ":9248,"されている":9249,"れない":9250,"二部":9251,"比較":9252,"生成":9253,"近い":9254,"()],":9255,"prv_":9256,"atch":9257,"mine":9258,"str2":9259,"cntA":9260,"');":9261,"<=(":9262,"]=='.'":9263,"data2":9264,"iln":9265,"ils":9266,"ches":9267,"pos1":9268,"a_num":9269,"beki":9270,"_counts":9271,"tern":9272,"shita":9273,"ABCD":9274,"l_max":9275,"A_p":9276,"=''.":9277,"]!=\"":9278,"search_list":9279,"minus_":9280,"candy":9281,"t_len":9282,"ときの":9283,"_den":9284,"最大値を":9285,"dfs_d":9286,"close":9287,"階乗の":9288,"Parent":9289,"cash":9290,"Color":9291,"arrived":9292,"Priority":9293,"damage":9294,"0x3333333333333333":9295,"sieve_of_eratosthenes":9296,"\"=":9297,"'(':":9298,"351":9299,"400000":9300,"921":9301,"966":9302,"Ig":9303,"Kl":9304,"Qh":9305,"Qy":9306,"RB":9307,"RJ":9308,"WP":9309,"YI":9310,"Yl":9311,"[{}":9312,"_th":9313,"_inf":9314,"_total":9315,"bar":9316,"b_cnt":9317,"c50":9318,"hmax":9319,"migi":9320,"ov":9321,"qm":9322,"qv":9323,"tin":9324,"ymin":9325,"くる":9326,"です":9327,"の文字":9328,"は1":9329,"への":9330,"を入れる":9331,"エリ":9332,"足場":9333,"anum":9334,"resp":9335,"ans0":9336,"arra":9337,"throw":9338,"??¨":9339,"opponent":9340,"iterator":9341,"*=(":9342,"_cal":9343,"row2":9344,"string_list":9345,"_after":9346,"ans_tmp":9347,"read_col":9348,"skill":9349,"smaller":9350,"decrea":9351,"\"*\"":9352,"dfs_from_start":9353,"dfs_to_end":9354,"print_function":9355,"create":9356,"隣接リスト":9357,"convenient":9358,"longest":9359,"sabun":9360,"]==\"?\":":9361,"'>":9362,"746":9363,":{}":9364,"All":9365,"Adj":9366,"DB":9367,"Dif":9368,"Fl":9369,"HB":9370,"HD":9371,"KN":9372,"KS":9373,"Kn":9374,"MZ":9375,"OV":9376,"Oi":9377,"RP":9378,"Sat":9379,"UC":9380,"WL":9381,"ah":9382,"aff":9383,"c13":9384,"c_num":9385,"fY":9386,"hum":9387,"iから":9388,"u7":9389,"xe":9390,"yg":9391,"にお":9392,"イッチ":9393,"スイッチ":9394,"以降":9395,"右に":9396,"inside":9397,"ansb":9398,"])<=":9399,"__size":9400,")]]":9401,"minn":9402,"eda":9403,"da0":9404,"',['":9405,"max_gcd":9406,"max_dist":9407,"suff":9408,"number_of_":9409,"i_l":9410,"_with":9411,"iim":9412,"iman":9413,"monst":9414,"loop_start":9415,"ITE":9416,"ttl":9417,"last_a":9418,"wick":9419,"active":9420,"greater":9421,"で割り":9422,"finish":9423,"を使う":9424,"read_float_n":9425,"('?',":9426,"Output":9427,"含まれる":9428,"arguments":9429,"fileno":9430,"ほうが":9431,"enemy":9432,"なかった":9433,"sizes":9434,"単位元":9435,"TODO":9436,"ONLINE_JUD":9437,"zontal":9438,"ONLINE_JUDGE":9439,",...,":9440,"CON":9441,"Child":9442,"EC":9443,"HJ":9444,"Hz":9445,"UG":9446,"Uz":9447,"YW":9448,"_L":9449,"_V":9450,"_and":9451,"_sum_":9452,"cps":9453,"ect":9454,"gP":9455,"gain":9456,"kb":9457,"km":9458,"qo":9459,"r_num":9460,"s8":9461,"sita":9462,"uw":9463,"vg":9464,"zed":9465,"出現":9466,"分ける":9467,"右端":9468,"変更":9469,"(){":9470,"or_":9471,"spaces":9472,"its":9473,"ity_":9474,"(\"=":9475,"dijk":9476,"lace":9477,"dpb":9478,"124":9479,"ac0":9480,"acc_":9481,"176":9482,"]==\".\"":9483,"infinity":9484,"s_d":9485,"s_min":9486,"s_cnt":9487,"air":9488,"142":9489,"min_d":9490,"weather":9491,"jud":9492,"ufo":9493,"ARR":9494,"nnn":9495,"_ten":9496,"wari":9497,"_dup":9498,"v_cost":9499,"solver":9500,"randrange":9501,"elap":9502,"commands":9503,"------------------------------------------------":9504,"TestCase":9505,"neighbor":9506,"\"<":9507,"1文字":9508,"4y":9509,"KJ":9510,"QH":9511,"Qa":9512,"RV":9513,"Slist":9514,"VJ":9515,"_copy":9516,"e_":9517,"fabs":9518,"kj":9519,"mA":9520,"oa":9521,"s7":9522,"s9":9523,"~(":9524,"えない":9525,"での":9526,"を削除":9527,"中央":9528,"加算":9529,"小数":9530,"方を":9531,"次に":9532,"設定":9533,"試合":9534,"高い":9535,"li1":9536,"mari":9537,"ency":9538,"span":9539,"len2":9540,"__table":9541,")]+=":9542,"118":9543,"res_list":9544,"line1":9545,"136":9546,"138":9547,"1817":9548,"getNM":9549,"pow__":9550,"min_diff":9551,"config":9552,"segfun":9553,"すると":9554,"iron":9555,"[[]]":9556,"ans_li":9557,"ans_max":9558,"environ":9559,"Inf":9560,"ranks":9561,"count_l":9562,"now_w":9563,"yyy":9564,"_dum":9565,"Indexed":9566,"anten":9567,"FFFF":9568,"my_module":9569,"これで":9570,"与えられる":9571,"受け取る":9572,"コンテスト":9573,"operations":9574,"\"##\"":9575,"Tuple":9576,"&-":9577,"033":9578,"30000":9579,"946":9580,"FU":9581,"FW":9582,"IG":9583,"Iter":9584,"KR":9585,"Kb":9586,"RM":9587,"SD":9588,"TG":9589,"VZ":9590,"X_list":9591,"YH":9592,"Yd":9593,"ake":9594,"iX":9595,"jJ":9596,"qd":9597,"rK":9598,"sN":9599,"uvw":9600,"wJ":9601,"を見":9602,"クエリ":9603,"増やす":9604,"対象":9605,"訪問":9606,"評価":9607,"inspe":9608,"ifi":9609,"input_num":9610,"orth":9611,"lenT":9612,"max_list":9613,")]#":9614,"num3":9615,"\")[":9616,"min_b":9617,"stri":9618,"116":9619,"edit":9620,"exec":9621,"today":9622,"ido":9623,"\"\"))":9624,"-=(":9625,"asarray":9626,"20f":9627,"cursor":9628,"]+'":9629,"fail":9630,"factri":9631,"nowy":9632,")+[":9633,"s_a":9634,"start_index":9635,"a_tmp":9636,"_city":9637,"does":9638,"4444":9639,"???????????":9640,"'#'):":9641,"から最小":9642,"odds":9643,"Inverse":9644,"base_":9645,"ってる":9646,"waru":9647,"solv":9648,"len_S":9649,"march":9650,"最大の":9651,"events":9652,"test_input":9653,"逆元のリスト":9654,"ucli":9655,"の中で":9656,"reachable_from_both_":9657,"141592653589":9658,"piece_num":9659,"reachable_from_both_sides":9660,"\"(\":":9661,"5q":9662,":{}\".":9663,"H_list":9664,"IA":9665,"OG":9666,"OI":9667,"OX":9668,"PB":9669,"WG":9670,"aList":9671,"afe":9672,"ample":9673,"cS":9674,"gA":9675,"sA":9676,"sH":9677,"v_list":9678,"wX":9679,"wu":9680,"xys":9681,"yh":9682,"が入":9683,"じゃ":9684,"だった":9685,"ポイン":9686,"含む":9687,"選ぶ":9688,"in_n":9689,"intn":9690,"eru":9691,"')[":9692,"\",\".":9693,"item_at":9694,"a_int":9695,"min_y":9696,"cum_sum":9697,"y_dict":9698,"nsmallest":9699,"_area":9700,"new_score":9701,"ans_min":9702,"read_values":9703,"compon":9704,"+++":9705,"Nodes":9706,"_idx1":9707,"www":9708,"push_back":9709,"incident":9710,"duplic":9711,"descript":9712,"layer0_idx1":9713,"二分探索":9714,"Visited":9715,"item_at_car":9716,"description":9717,"-~":9718,"3d":9719,"4x":9720,"622":9721,"766":9722,"742":9723,"Bingo":9724,"Class":9725,"EG":9726,"IX":9727,"JG":9728,"Ki":9729,"Lz":9730,"L_list":9731,"MC":9732,"MU":9733,"SG":9734,"YX":9735,"]')":9736,"_sub":9737,"b11":9738,"eo":9739,"gZ":9740,"g_num":9741,"hz":9742,"iL":9743,"iro":9744,"kK":9745,"kc":9746,"lO":9747,"nR":9748,"occ":9749,"qc":9750,"rj":9751,"will":9752,"前の":9753,"定義":9754,"左から":9755,"用意":9756,"電球":9757,"sed_":9758,"==(":9759,"des":9760,"endswith":9761,"ct2":9762,"count_b":9763,"alth":9764,"('##":9765,"min2":9766,"hight":9767,"health":9768,"134":9769,"Now":9770,"196":9771,"chun":9772,"]=='#'":9773,"onem":9774,"sim":9775,")+\":":9776,"a_ls":9777,"score_list":9778,"XYU":9779,"skil":9780,"_yen":9781,"change_list":9782,"_part":9783,"')]*":9784,"頂点数":9785,"END_":9786,"よりも":9787,"partial":9788,"f_inf":9789,"initial_":9790,"memory":9791,"effect":9792,"miti":9793,"Conne":9794,"CODE":9795,"NODE_":9796,"'##'":9797,"converter":9798,"END_OF":9799,")``":9800,"1から":9801,"6Q":9802,"784":9803,":,":9804,"IE":9805,"MJ":9806,"_div":9807,"bac":9808,"cnum":9809,"c33":9810,"dprint":9811,"gL":9812,"iip":9813,"lcnt":9814,"mH":9815,"slen":9816,"sから":9817,"wS":9818,"yz":9819,"で初期化":9820,"とy":9821,"タプル":9822,"代入":9823,"分割":9824,"左端":9825,"挿入":9826,"最短経路":9827,"構築":9828,"inversion":9829,"())**":9830,"spf":9831,"])[::-":9832,"(\"+":9833,"(\"{:":9834,"maxL":9835,"maxh":9836,"miny":9837,"ex2":9838,"tmp_max":9839,"cells":9840,"ular":9841,"cur_sum":9842,"=[{":9843,"]]):":9844,"Com":9845,"s_b":9846,"=[];":9847,"limii":9848,"edge_list":9849,"a_sort":9850,"0001":9851,"152":9852,"d_in":9853,"n_1":9854,"ference":9855,"icase":9856,"_sushi":9857,"currentIndex":9858,"del_list":9859,"'))))":9860,"tests":9861,"votes":9862,"typen":9863,"bigger":9864,"auto":9865,"yakusuu":9866,"存在しない":9867,"list3d":9868,"なくて":9869,"postorder":9870,"question":9871,"_TEXT":9872,"されたリスト":9873,"symbol":9874,"_duplic":9875,"小数点":9876,"END_OF_TEXT":9877,":[]":9878,"CB":9879,"DG":9880,"FC":9881,"JZ":9882,"OY":9883,"QD":9884,"](":9885,"_type":9886,"_upper":9887,"aC":9888,"battle":9889,"fj":9890,"fc0":9891,"hL":9892,"hai":9893,"ible":9894,"imag":9895,"kM":9896,"kY":9897,"mss":9898,"nmax":9899,"w_list":9900,"あと":9901,"くだ":9902,"させる":9903,"と同じ":9904,"は素数":9905,"への最短距離":9906,"を表":9907,"を求め":9908,"管理":9909,"約数を":9910,"結合":9911,"in_list":9912,"anc":9913,"==>":9914,"appea":9915,"itiman":9916,"maxval":9917,"stra_":9918,"abf":9919,"res_":9920,"175":9921,"616":9922,"matched":9923,")*((":9924,")*(-":9925,"min_r":9926,"construct":9927,"doct":9928,"subtra":9929,"clus":9930,"chars":9931,"++){":9932,"fill_":9933,"prime_factors":9934,"sink":9935,"cusum":9936,"LOG":9937,"bingo_card":9938,"\"*\":":9939,"Loop":9940,"CEIL":9941,"Blue":9942,"\"...\"":9943,"channe":9944,"FACT":9945,"PriorityQueue":9946,"0a":9947,"721":9948,"716":9949,"9p":9950,":{":9951,"CNT":9952,"Dou":9953,"FA":9954,"IH":9955,"JX":9956,"KC":9957,"KV":9958,"QW":9959,"WZ":9960,"XE":9961,"YM":9962,"Yj":9963,"]#":9964,"_dist":9965,"aが":9966,"bA":9967,"cdef":9968,"crr":9969,"hN":9970,"her":9971,"oj":9972,"vX":9973,"wG":9974,"xz":9975,"ymax":9976,"つか":9977,"のが":9978,"を超":9979,"バー":9980,"向グラフ":9981,"品物":9982,"替え":9983,"返し":9984,"former":9985,"see":9986,"inputList":9987,"gers":9988,"mapint":9989,"lea":9990,"sysread":9991,")]-":9992,"num_b":9993,"num_s":9994,"mincost":9995,"low_":9996,"lefts":9997,"182":9998,"max_ans":9999,"nexts":10000,"number_dict":10001,"288":10002,"min_value":10003,"----------":10004,"i_n":10005,"host":10006,"passen":10007,"others":10008,"list_A":10009,"now_x":10010,"now_y":10011,"2001":10012,"\")]*":10013,"params":10014,"linked":10015,"Size":10016,"SortedDict":10017,"の最小値を":10018,"までの距離":10019,"blocks":10020,"BTC":10021,"from_iterable":10022,"pow_mod":10023,"bubble_sort":10024,"extract":10025,"success":10026,"starmap":10027,"expected":10028,"monsters":10029,"doctest":10030,"\"@":10031,"&(-":10032,"1が":10033,"3y":10034,"786":10035,"8r":10036,"9o":10037,":'":10038,"HX":10039,"KM":10040,"KX":10041,"Ka":10042,"Oz":10043,"Rz":10044,"Row":10045,"Um":10046,"VD":10047,"X_dum":10048,"_row":10049,"bB":10050,"bra":10051,"b80":10052,"c22":10053,"dab":10054,"hR":10055,"iP":10056,"jX":10057,"pap":10058,"qX":10059,"rcnt":10060,"sgn":10061,"xB":10062,"zG":10063,"か判定":10064,"くなる":10065,"げる":10066,"ちら":10067,"とる":10068,"の更新":10069,"ステ":10070,"切れる":10071,"引く":10072,"後ろ":10073,"解説":10074,"閉路":10075,"ener":10076,"))*(":10077,"__readline":10078,"(\"<":10079,"dp3":10080,"dp_y":10081,"ab_":10082,"cnt_a":10083,"')==":10084,"ress":10085,"ex1":10086,"line2":10087,"tmp3":10088,"ulative":10089,"536":10090,"632":10091,"get_num":10092,"faction":10093,"max_pos":10094,"idx_":10095,"idxs":10096,"415":10097,"edge2":10098,"a_li":10099,"oko":10100,"c_min":10101,"next_h":10102,"current_node":10103,"logical":10104,"read_line":10105,"1e10":10106,"sous":10107,"i2s":10108,"要素数":10109,"NIL":10110,"0000000000000000":10111,"必要な":10112,"tank":10113,"ROUND_CEIL":10114,"木の高さ":10115,"優先探索":10116,"cookie":10117,"evaluate":10118,"LMIIS":10119,"truncate":10120,"ください":10121,"clusive":10122,"X_dumy":10123,"ROUND_CEILING":10124,"\";":10125,"({'":10126,"+\"\\":10127,"0から":10128,"1j":10129,"5w":10130,"6o":10131,"782":10132,"8n":10133,"End":10134,"FV":10135,"JA":10136,"Kh":10137,"Kp":10138,"ML":10139,"MSRL":10140,"_buffer":10141,"cli":10142,"c21":10143,"c03":10144,"clipboard":10145,"dz":10146,"f_list":10147,"gB":10148,"gD":10149,"gS":10150,"h_i":10151,"ima":10152,"icnt":10153,"jz":10154,"kW":10155,"kak":10156,"nH":10157,"zen":10158,"すで":10159,"だったら":10160,"オリ":10161,"メント":10162,"元テーブル":10163,"右側":10164,"大小":10165,"ints_":10166,"requi":10167,"inputInt":10168,"list4":10169,"listを":10170,"ert":10171,"1097":10172,"ends":10173,"ating":10174,"len_t":10175,"\")\":":10176,"dpsum":10177,"126":10178,"modint":10179,"usk":10180,"chmax":10181,"172":10182,"flag_":10183,"506":10184,"max_k":10185,"a_index":10186,"256":10187,"invfact":10188,"sharp":10189,"diff2":10190,"seg_func":10191,"fe0":10192,"new_obj":10193,"\"#\"]":10194,"group_num":10195,"plus_":10196,"zero_count":10197,"biposition":10198,"Change":10199,"all_prod":10200,"prog":10201,"LCA":10202,"yel":10203,"ループを":10204,"calc_score":10205,"文字列を":10206,"bonus":10207,"Good":10208,"切り上げ":10209,"full_":10210,"task_list":10211,"TestClass":10212,"すべての":10213,"happin":10214,"ameters":10215,"Factorization":10216,"heading":10217,"逆元テーブル計算用":10218,"contains":10219,"cost2v":10220,"heap化されたリスト":10221,"BigNum":10222,"shuff":10223,"paper":10224,"逆元テーブル計算用テーブル":10225,"\"]*":10226,"+{":10227,"+((":10228,"346":10229,"462":10230,"5u":10231,"5y":10232,"5807":10233,"7k":10234,"8000":10235,"Any":10236,"IV":10237,"Ym":10238,"ZC":10239,"_one":10240,"_pre":10241,"_log":10242,"aac":10243,"dL":10244,"f47":10245,"gN":10246,"iling":10247,"lC":10248,"l_a":10249,"nil":10250,"ndic":10251,"slow":10252,"smallest":10253,"vT":10254,"was":10255,"want":10256,"xh":10257,"zN":10258,"あまり":10259,"が存在する":10260,"の倍数":10261,"のパターン":10262,"アル":10263,"ベクト":10264,"数列":10265,"時点":10266,"返します":10267,"stick":10268,"inputMap":10269,"coin_":10270,"__call":10271,"('{}'.":10272,"dp_table":10273,"read_list":10274,"uler":10275,"\"\",":10276,"ipe":10277,"vers":10278,"605":10279,"jou":10280,"{})":10281,"root_x":10282,"LI1":10283,"a_array":10284,"284":10285,"row_list":10286,"counters":10287,"c_sum":10288,"pts":10289,"+++++":10290,"iostream":10291,"traverse":10292,"many":10293,"20368":10294,"'*':":10295,"trial":10296,"hito":10297,"aoki_":10298,"uous":10299,"属するグループ":10300,"BinaryIndexed":10301,"取り出す時は":10302,"saiki":10303,"によって":10304,"typename":10305,"ベクトル":10306,"__call__":10307,"BinaryIndexedTree":10308,"3q":10309,"7o":10310,"9x":10311,"::-":10312,"FP":10313,"NMI":10314,"QM":10315,"QR":10316,"UH":10317,"VA":10318,"WB":10319,"WD":10320,"_get":10321,"_deque":10322,"b01":10323,"c32":10324,"iQ":10325,"jt":10326,"jyo":10327,"kJ":10328,"kuro":10329,"lsum":10330,"p_count":10331,"rz":10332,"wmax":10333,"}-{":10334,"}]')":10335,"こっち":10336,"の親":10337,"のindex":10338,"らす":10339,"られた":10340,"日目":10341,"lia":10342,"mary":10343,"ct1":10344,"exponent":10345,"lot":10346,"isSame":10347,"mod1":10348,"unch":10349,"202":10350,"2016":10351,"cur_node":10352,"576":10353,"]]>":10354,"408":10355,"cost_list":10356,"308":10357,"next_list":10358,"df0":10359,"5527":10360,"oki":10361,"702":10362,"442":10363,"memo_ls":10364,"ccw":10365,"lcm_":10366,"i_input":10367,"x_1":10368,"x_l":10369,"pl_":10370,"subset":10371,"submis":10372,"#################":10373,"ストラ":10374,"]=='?':":10375,"zyx":10376,"ARA":10377,"nega":10378,"dbg":10379,"kosu":10380,"_vals":10381,"qiita":10382,"GHT":10383,"bingo_map":10384,"aの降順":10385,"aの昇順":10386,"Four":10387,"students":10388,"Factorial":10389,"works":10390,"AKIHAB":10391,"['']":10392,"233720368":10393,"ポイント":10394,"heap化されたリストa":10395,"2337203685477":10396,"\"]))":10397,"4100000":10398,"5Y":10399,"7x":10400,"8o":10401,"Black":10402,"BER":10403,"KH":10404,"KZ":10405,"Kd":10406,"Lmax":10407,"OJ":10408,"Qd":10409,"Raw":10410,"WU":10411,"YF":10412,"]&":10413,"_K":10414,"_col":10415,"aL":10416,"bce":10417,"bdd":10418,"cL":10419,"eh":10420,"gC":10421,"gran":10422,"iH":10423,"jV":10424,"mG":10425,"ove":10426,"pub":10427,"rV":10428,"sB":10429,"sV":10430,"smax":10431,"tlr":10432,"yB":10433,"zL":10434,"させ":10435,"とも":10436,"に更新":10437,"まま":10438,"みる":10439,"を考える":10440,"出し":10441,"前処理":10442,"加える":10443,"替える":10444,"演算":10445,"orange":10446,"anag":10447,"reward":10448,"())[:-":10449,"__sub__":10450,"mind":10451,"strib":10452,"cnt_r":10453,"usu":10454,"ask":10455,"adding":10456,"4933":10457,"188":10458,"six":10459,"exten":10460,"func_":10461,"checklist":10462,"perf":10463,"doub":10464,"cums":10465,"222":10466,">>(":10467,"there":10468,"new_dice":10469,"A_dict":10470,"next_town":10471,"ans_lst":10472,"num_2":10473,"loop_num":10474,"odd_count":10475,"delta_":10476,"now_h":10477,"warp_":10478,"SSS":10479,"ならば":10480,"train_":10481,"整数の入力":10482,"angu":10483,"SEG":10484,"aries":10485,"(\"#\"*":10486,"refle":10487,"atan2":10488,"greed":10489,")&(":10490,"ここに":10491,"_cards":10492,"+\"=":10493,"最後の":10494,"version_info":10495,"###############":10496,"ii2ss":10497,"coordinates":10498,"arrays":10499,"human":10500,"energy":10501,"yellow":10502,"submissions":10503,"956":10504,"FH":10505,"M_":10506,"Qv":10507,"Wz":10508,"YG":10509,"_file":10510,"_vertex":10511,"_in_":10512,"a60":10513,"bv":10514,"b00":10515,"bfe":10516,"cA":10517,"cN":10518,"c23":10519,"equ":10520,"fur":10521,"f63":10522,"hZ":10523,"iC":10524,"lap":10525,"lper":10526,"minp":10527,"pR":10528,"pmax":10529,"qh":10530,"sQ":10531,"tlen":10532,"targ":10533,"t_i":10534,"vJ":10535,"yM":10536,"yO":10537,"zA":10538,"そこ":10539,"そも":10540,"で返す":10541,"に戻":10542,"を記録":10543,"セグ":10544,"前に":10545,"持つ":10546,"最短距離":10547,"点を":10548,"if_inf":10549,"ger_":10550,"de0":10551,"dete":10552,"map_":10553,"1063":10554,"appro":10555,"][:]":10556,"leg":10557,"ature":10558,"ab2":10559,"]:#":10560,"resl":10561,"ida":10562,"idai":10563,"kets":10564,"778":10565,"]+\"...\")":10566,"cha":10567,"=[[[":10568,"6719":10569,"578":10570,"arr2":10571,"max_s":10572,"s_r":10573,"1009":10574,"2621":10575,"limss":10576,"preplace":10577,"check2":10578,"552":10579,"grp":10580,"148":10581,"_cn":10582,"bitごと":10583,"c_0":10584,"x_p":10585,"ancestor":10586,"sum_p":10587,"ans_temp":10588,"orders":10589,"kaijyo":10590,"r_min":10591,"read_all":10592,"922337203685477":10593,"make_factorial_list":10594,"DEV":10595,"has_":10596,"prime_factorization":10597,"UnionFindTree":10598,"ならない":10599,"zure":10600,"road_":10601,"done_list":10602,"0x55555555":10603,"Grid":10604,"_mapping":10605,"LAST":10606,"('.',":10607,"200001":10608,"WHITE":10609,"plane":10610,"heapreplace":10611,"compress":10612,"または":10613,"character":10614,"value_if_inf":10615,"_dense":10616,"(\"=\")":10617,"dijkstra_":10618,"_duplicates":10619,"すでに":10620,"shuffle":10621,"#+++++":10622,"-{}":10623,"0x0":10624,"3w":10625,"8C":10626,"942":10627,"FE":10628,"IJ":10629,"ILL":10630,"UA":10631,"Whole":10632,"c10":10633,"c31":10634,"dur":10635,"dll":10636,"gG":10637,"hyo":10638,"iu":10639,"iin":10640,"imin":10641,"kame":10642,"lA":10643,"lS":10644,"mZ":10645,"nF":10646,"nN":10647,"nV":10648,"nの":10649,"north":10650,"oh":10651,"oto":10652,"qM":10653,"rY":10654,"tlist":10655,"tsu":10656,"uK":10657,"xY":10658,"かも":10659,"ずに":10660,"ただ":10661,"であれば":10662,"のlist":10663,"の合計":10664,"の制限":10665,"はない":10666,"ベル":10667,"ンス":10668,"並び":10669,"値は":10670,"固定":10671,"引数":10672,"異なる":10673,"落ち":10674,"instr":10675,"sex":10676,"stdio":10677,"removed":10678,"input2":10679,"map_int":10680,"))`":10681,"ura":10682,"attr":10683,"atform":10684,"len_a":10685,"__slo":10686,"robot":10687,"diag":10688,"()));":10689,"example":10690,"tmpx":10691,"isdigit":10692,"132":10693,"13f":10694,"194":10695,"da3":10696,"8353":10697,"5039":10698,"max_diff":10699,"reversed_":10700,"s_x":10701,"data_list":10702,"268":10703,"aaaa":10704,"sug":10705,"finditer":10706,"total_cost":10707,"145":10708,"_bot":10709,"min_len":10710,"min_price":10711,"type_count":10712,"i_map":10713,"platform":10714,"_walk":10715,"new_dp":10716,"LEN":10717,"##############################":10718,"evens":10719,"mydict":10720,"XYC":10721,"skl":10722,"ts__":10723,"points_list":10724,"alpha2":10725,"methods":10726,"_from_dense":10727,"selected":10728,"hanako":10729,"examD":10730,"csgraph_from_dense":10731,"の入力を":10732,"ls_a":10733,"'...'":10734,"fastio":10735,"haten":10736,"inspect":10737,"__slots__":10738,"'/":10739,"']))":10740,"0の":10741,"097":10742,"2C":10743,"4k":10744,"8i":10745,"8y":10746,"9F":10747,"Get":10748,"HN":10749,"KA":10750,"One":10751,"Opt":10752,"Pre":10753,"Parse":10754,"QO":10755,"QP":10756,"Rmin":10757,"YB":10758,"_P":10759,"_name":10760,"_load":10761,"ben":10762,"b64":10763,"cmin":10764,"c97":10765,"iA":10766,"jM":10767,"kh":10768,"kis":10769,"lM":10770,"mJ":10771,"p_max":10772,"q_num":10773,"vlist_":10774,"v_to":10775,"vali":10776,"zS":10777,"}}":10778,"います":10779,"たら":10780,"どちら":10781,"の番号":10782,"ょう":10783,"を探す":10784,"ネス":10785,"反転":10786,"素数を":10787,"考慮":10788,"())%":10789,"retlist":10790,"])!=":10791,"count_w":10792,"()))+[":10793,"cnt_s":10794,"!=\"":10795,"isn":10796,"modfactorial_list":10797,"mod逆元のリスト":10798,"as_string":10799,"532":10800,"206":10801,"635":10802,"6353":10803,"6323":10804,"content":10805,"5783":10806,"5923":10807,"608":10808,"getRoot":10809,"5087":10810,"pai":10811,"arrive":10812,"515":10813,"615":10814,"idxes":10815,"s_c":10816,"s_table":10817,"815":10818,"root_v":10819,"edge_num":10820,"dfk":10821,"numba_":10822,"156":10823,"quot":10824,"flug":10825,"conn":10826,"lll":10827,"raw_data":10828,"n_sum":10829,"xyi":10830,"i_min":10831,"x_r":10832,"sais":10833,"','')":10834,"new_node":10835,"sum_of_":10836,"A_n":10837,"next_n":10838,"target_idx":10839,"ans_str":10840,"syo":10841,"biki":10842,"braries":10843,"fileobject":10844,"LRD":10845,"Print":10846,"S_LIST":10847,"trailing":10848,"以上の最小":10849,"の場合は":10850,"ここで":10851,"lines_as_string":10852,"optional":10853,"sosuu":10854,"avl_key":10855,"}:{":10856,"lunlun":10857,"読み込んで":10858,"test_入力例_1":10859,"test_入力例_2":10860,"golems":10861,"suffix":10862,"happiness":10863,"mod逆元のリストを返す":10864,"']),":10865,"'').":10866,"*)":10867,"081":10868,"1c":10869,"5x":10870,"9q":10871,":[":10872,"::]":10873,"Bor":10874,"IB":10875,"OA":10876,"QV":10877,"RC":10878,"Sco":10879,"YP":10880,"Yz":10881,"ZB":10882,"[((":10883,"]|":10884,"_direct":10885,"a23":10886,"bff":10887,"b_c":10888,"c00":10889,"c07":10890,"dac":10891,"dbf":10892,"ds_in":10893,"f20":10894,"hH":10895,"hU":10896,"hako":10897,"lP":10898,"pM":10899,"rmin":10900,"uh":10901,"vD":10902,"vZ":10903,"xN":10904,"yk":10905,"つまり":10906,"に入れる":10907,"ージ":10908,"全体":10909,"回の":10910,"多い":10911,"得る":10912,"抜ける":10913,"方法":10914,"解く":10915,"辺の":10916,"()==":10917,"sei":10918,"maru":10919,"ansi":10920,"ansList":10921,"coeff":10922,"1039":10923,"ret2":10924,"retsu":10925,"lean":10926,"])%(":10927,"00ff":10928,"(\">":10929,"note":10930,"')):":10931,"edg":10932,"expr":10933,"tmp_num":10934,"mod_list":10935,"added":10936,"4967":10937,"dist_from":10938,"result2":10939,"joint":10940,"max_distance":10941,"nowPos":10942,"414":10943,"cost1":10944,"'.'):":10945,"a_lcm":10946,"sump":10947,"beg":10948,"90909":10949,"min_p":10950,"tag":10951,"cuml_":10952,"cumsum_":10953,"c_h":10954,"162":10955,"i_0":10956,"fect":10957,"sub_":10958,"mi1":10959,"####################":10960,"fd0":10961,"grids":10962,"dishes":10963,"p_ind":10964,"Unite":10965,"last_pos":10966,"prime_number":10967,"S_MAP":10968,"出力する":10969,"('#'*(":10970,"COL":10971,"small_num":10972,"Base_10_to_n":10973,"Cycle":10974,"search_lower":10975,"search_higher":10976,"Vector":10977,"条件を満たす":10978,"に変更":10979,"MAX_INT":10980,"rotation":10981,"を計算する":10982,"residue":10983,"argument":10984,"time_step":10985,"繰り返し":10986,"uskal":10987,"anguage":10988,"cuml_A_list":10989,")!":10990,"+{}":10991,"9y":10992,"CU":10993,"FD":10994,"FG":10995,"FL":10996,"JB":10997,"JC":10998,"KE":10999,"KU":11000,"Lat":11001,"OB":11002,"QT":11003,"ZD":11004,"_append":11005,"_numbers":11006,"aJ":11007,"af0":11008,"cab":11009,"e07":11010,"eucli":11011,"f60":11012,"f_i":11013,"iT":11014,"jN":11015,"jT":11016,"jU":11017,"jsp":11018,"o0":11019,"oD":11020,"p_c":11021,"san":11022,"tA":11023,"vV":11024,"v_num":11025,"wE":11026,"xを":11027,"yF":11028,"に移動":11029,"フォ":11030,"ョン":11031,"最終":11032,"無理":11033,"自身":11034,"mai":11035,"come":11036,"online":11037,"996":11038,"distrib":11039,"maxN":11040,")]==":11041,"num753":11042,"cnt3":11043,"1213":11044,"234":11045,"178":11046,"672":11047,"indexs":11048,"874":11049,"894":11050,"896":11051,"1867":11052,"nei":11053,"result1":11054,"214":11055,"4013":11056,"4177":11057,"data_":11058,"2689":11059,"a_arr":11060,"mid2":11061,"taste":11062,"y_1":11063,"shou":11064,"diff1":11065,"xyr":11066,"i_2":11067,"4211":11068,"michi":11069,"new_S":11070,"tuples":11071,"ans_lis":11072,"STAR":11073,"num_v":11074,"Second":11075,"odd_list":11076,"tmp_p":11077,"r_cnt":11078,"adj_table":11079,"入力を":11080,"upper_bound":11081,"soc":11082,"PyPy":11083,"globals":11084,"っていく":11085,"POW":11086,"SumA":11087,"PYTH":11088,"sigma":11089,"探索の":11090,"mlk":11091,"instead":11092,"connection":11093,"Buil":11094,"knap":11095,"lights":11096,"ruisekiwa":11097,"pow_k":11098,"全ての":11099,"old_max":11100,"already_":11101,"いたら":11102,"の距離の":11103,"Format":11104,"しまう":11105,"reflect":11106,"PYTHON":11107,"'('":11108,"'{}":11109,")*-":11110,",'.':":11111,"0を":11112,"2次元":11113,"356":11114,"5k":11115,"6w":11116,"7y":11117,"9k":11118,":]]":11119,"=<":11120,"=')":11121,"='.',":11122,"AList":11123,"Din":11124,"GGI":11125,"QN":11126,"QZ":11127,"Rg":11128,"USE":11129,"Wg":11130,"YT":11131,"YU":11132,"_edges":11133,"ares":11134,"a80":11135,"b_count":11136,"cz":11137,"c5f":11138,"dX":11139,"f89":11140,"g_list":11141,"iE":11142,"jP":11143,"jl":11144,"mz":11145,"mut":11146,"none":11147,"o5":11148,"oct":11149,"pK":11150,"ptime":11151,"qL":11152,"rS":11153,"rin":11154,"sC":11155,"simp":11156,"tL":11157,"uH":11158,"xK":11159,"xとy":11160,"クル":11161,"ーシ":11162,"上の":11163,"二次元":11164,"参照":11165,"時の":11166,"関係":11167,"enc":11168,"list_b":11169,"1093":11170,"lef":11171,"ending":11172,"lenth":11173,"(\"\",":11174,"('>":11175,"las":11176,"minX":11177,"strptime":11178,"abe":11179,"1153":11180,"cnt_1":11181,"')':":11182,"to1d":11183,"tmpB":11184,"1201":11185,"set1":11186,"]*=":11187,"ac_count":11188,"4357":11189,"2029":11190,"836":11191,"838":11192,"472":11193,"17e":11194,"1753":11195,"6703":11196,"572":11197,"694":11198,"6947":11199,"6967":11200,"6037":11201,"sil":11202,"key2":11203,"242":11204,"nown":11205,"reverse_":11206,"4157":11207,"81e":11208,"262":11209,"root_y":11210,"prepare":11211,"375":11212,"be0":11213,"out_":11214,"aizu":11215,"parent_":11216,"6547":11217,"entity":11218,"688":11219,"min_v":11220,"term":11221,"ccf":11222,"542":11223,"s2nn":11224,"a1e":11225,"[[],":11226,"akes":11227,"\"))))":11228,"p2D":11229,"MII":11230,"XYi":11231,"_1_count":11232,"all_apply":11233,"AAA":11234,"remaining":11235,"koho":11236,"出力の制限":11237,"={'#':":11238,"lines_result":11239,"generate":11240,"auran":11241,"Python3":11242,"serch":11243,"の整数の入力":11244,"スペース区切りの整数の入力":11245,"_cumsum":11246,"を選ぶ":11247,"Weighted":11248,"を格納する":11249,"エラト":11250,"kukan":11251,"FourNb":11252,"Borys":11253,"([]":11254,",:]":11255,"2n":11256,"7J":11257,"7l":11258,"9Q":11259,"916":11260,"Cir":11261,"Dig":11262,"FN":11263,"IU":11264,"OUT":11265,"Sub":11266,"WT":11267,"ZG":11268,"_F":11269,"_g":11270,"_posi":11271,"aA":11272,"aI":11273,"ared":11274,"b10":11275,"cX":11276,"dB":11277,"dtuple":11278,"dc0":11279,"f80":11280,"fri":11281,"hD":11282,"hT":11283,"hgf":11284,"iW":11285,"lint":11286,"mE":11287,"mV":11288,"nM":11289,"nO":11290,"omi":11291,"qO":11292,"qz":11293,"rgt":11294,"sS":11295,"uB":11296,"uJ":11297,"uM":11298,"uV":11299,"vH":11300,"vN":11301,"vP":11302,"こう":11303,"どこ":11304,"にした":11305,"を調べる":11306,"コード":11307,"保存":11308,"右から":11309,"回り":11310,"既に":11311,"除く":11312,"高橋":11313,"inline":11314,"insu":11315,"section":11316,")::":11317,"ences":11318,"dea":11319,"det":11320,"ans_b":11321,"ume":11322,"1013":11323,"1087":11324,"1069":11325,"1061":11326,"1091":11327,"retval":11328,"lection":11329,"appear":11330,"lft":11331,"__len":11332,"____":11333,"maxHeap":11334,"()))[":11335,"moto":11336,"')'":11337,"')*":11338,"main2":11339,"toshi":11340,"tmpa":11341,"1301":11342,"77e":11343,"83e":11344,"2351":11345,"174":11346,"678":11347,"6983":11348,"flower":11349,"292":11350,"namedtuple":11351,"dicts":11352,"602":11353,"6043":11354,"4153":11355,"265":11356,"2657":11357,"nextx":11358,"dfcp":11359,"suf":11360,"such":11361,"outer":11362,"peak":11363,"146":11364,"6543":11365,"6563":11366,"488":11367,"min_score":11368,"concat":11369,"do_":11370,"c_i":11371,"d_min":11372,"div2":11373,"say":11374,"thest":11375,"sum_d":11376,"next_set":11377,"ans_l":11378,"bca":11379,"childs":11380,"zero_list":11381,"compose":11382,"input_lines":11383,"PyErr":11384,"now_p":11385,"DECREF":11386,"Modu":11387,"1234567":11388,"koch":11389,"find_shortest":11390,"stuck":11391,"using_":11392,"_identity":11393,"margin":11394,"al_abs":11395,"lgn":11396,"original_":11397,"Py_DECREF":11398,"dist_u":11399,"builtins":11400,"('?','":11401,"それぞれの":11402,"convenience":11403,"filename":11404,"べき乗":11405,"Callable":11406,"き換える":11407,"Functions":11408,"scanf":11409,"components":11410,"tsugi":11411,"PyErr_":11412,"(!":11413,"3001":11414,"5p":11415,"9r":11416,"981":11417,"EB":11418,"Eg":11419,"Flo":11420,"JN":11421,"Nとか":11422,"QC":11423,"QS":11424,"Qg":11425,"_W":11426,"_distance":11427,"_plus":11428,"_find_":11429,"bz":11430,"bcnt":11431,"b19":11432,"brown":11433,"cM":11434,"cac":11435,"d50":11436,"d1e":11437,"hE":11438,"hV":11439,"hin":11440,"iM":11441,"kg":11442,"lI":11443,"lus":11444,"mL":11445,"nL":11446,"nW":11447,"nZ":11448,"nTmp":11449,"oL":11450,"pU":11451,"qpon":11452,"r_b":11453,"spr":11454,"tic":11455,"uR":11456,"wW":11457,"wY":11458,"wZ":11459,"xA":11460,"xP":11461,"yH":11462,"てる":11463,"に注意":11464,"もどう":11465,"プライ":11466,"半分":11467,"書き":11468,"立っている":11469,"辺を":11470,"intのlist":11471,"utsr":11472,"st1":11473,"inp_size":11474,"inputlist":11475,"colo":11476,"))),":11477,"1019":11478,"algo":11479,"maxX":11480,"maxd":11481,"maxy":11482,"maxcount":11483,"thresh":11484,"numA":11485,"minA":11486,"minDist":11487,"abc_":11488,"ablog":11489,"cntr":11490,"edcba":11491,"tour":11492,"tmpb":11493,"_list_":11494,"cee":11495,"left_max":11496,"opti":11497,"438":11498,"205":11499,"2011":11500,"636":11501,"232":11502,"476":11503,"4723":11504,"4789":11505,"4733":11506,"5737":11507,"5953":11508,"2753":11509,"4917":11510,"6917":11511,"very":11512,"2969":11513,"getDistance":11514,"w_sum":11515,"extgcd":11516,"806":11517,"idx0":11518,"4159":11519,"s_k":11520,"s_time":11521,"------":11522,"limits":11523,"timedelta":11524,"checkpoint":11525,"dfather":11526,"total_time":11527,"644":11528,"_bar":11529,"invalid":11530,"654":11531,"score1":11532,"min_dis":11533,"452":11534,"doc":11535,"ESTI":11536,"places":11537,"placed":11538,"dfs2":11539,"bit_n":11540,"c_y":11541,"6247":11542,"news":11543,"ans_set":11544,"LSI":11545,"しても":11546,"outputData":11547,"first_b":11548,"までで":11549,"の数が":11550,"restauran":11551,"jihgf":11552,"prime_de":11553,"LCA_":11554,"merged":11555,"wvutsr":11556,"Stdin":11557,"FFE":11558,"最大値":11559,"uku":11560,"trial_":11561,"BOX":11562,"speed_list":11563,"F0F0":11564,"(\"?\",":11565,"BIG_NUM":11566,"ティキュー":11567,"networkx":11568,"horizontal":11569,"respon":11570,"passenger":11571,"ステネス":11572,"オリティキュー":11573,"zyxwvutsr":11574,"grandfather":11575,"dijkstra_heap":11576,"hatenablog":11577,"Optional":11578,"mlkjihgf":11579,"エラトステネス":11580,"Nとかの取得":11581,"qponmlkjihgf":11582,"プライオリティキュー":11583,"ESTIVAL":11584,"zyxwvutsrqponmlkjihgf":11585,"zyxwvutsrqponmlkjihgfedcba":11586,"017":11587,"2r":11588,"6q":11589,"6r":11590,"7r":11591,"8t":11592,"9C":11593,"9K":11594,"9l":11595,"9t":11596,"9w":11597,"<==>":11598,"Can":11599,"DA":11600,"ItoS":11601,"Low":11602,"QX":11603,"SLL":11604,"Taka":11605,"YS":11606,"Yg":11607,"_lcm":11608,"aT":11609,"a59":11610,"bR":11611,"bmin":11612,"b_s":11613,"cG":11614,"c80":11615,"cff":11616,"ec0":11617,"fZ":11618,"fmo":11619,"fca":11620,"iを":11621,"jB":11622,"jE":11623,"kO":11624,"kP":11625,"kisuu":11626,"kuri":11627,"lat":11628,"nX":11629,"pV":11630,"pli":11631,"qJ":11632,"qry":11633,"rmax":11634,"sinput":11635,"tX":11636,"uY":11637,"uft":11638,"vC":11639,"xU":11640,"yD":11641,"かかる":11642,"が行":11643,"たど":11644,"どの":11645,"を用":11646,"を探索":11647,"イテ":11648,"クラス":11649,"ゴール":11650,"ペア":11651,"ワープ":11652,"列が":11653,"左に":11654,"調整":11655,"負の":11656,"違う":11657,"dead":11658,"ans_a":11659,"spot":11660,"ern":11661,"1099":11662,"1033":11663,"endif":11664,"counting":11665,"diameter":11666,"('<":11667,"[];":11668,"nodup":11669,"linalg":11670,"top_":11671,"loss":11672,"tmpp":11673,"12f":11674,"1249":11675,"acm":11676,"),-":11677,"),[":11678,"tele":11679,"435":11680,"436":11681,"4337":11682,"2087":11683,"6373":11684,"475":11685,"478":11686,"4799":11687,"4759":11688,"6769":11689,"87e":11690,"2789":11691,"6977":11692,"8923":11693,"one_count":11694,"gcdlist":11695,"heapL":11696,"nea":11697,"node_num":11698,"popcnt":11699,"216":11700,"4073":11701,"scs":11702,"s_n":11703,"[[[[":11704,"266":11705,"2687":11706,"=[]):":11707,"ched_":11708,"edge1":11709,"a_t":11710,"5581":11711,"144":11712,"258":11713,"2557":11714,"658":11715,"6577":11716,"6899":11717,"4877":11718,"min_pos":11719,"tree_list":11720,"705":11721,"932":11722,"formation":11723,"x_dict":11724,"_width":11725,"subclass":11726,"6263":11727,"l_alp":11728,"sum_digit":11729,"even_list":11730,"loops":11731,"get_root":11732,"LRC":11733,"============":11734,"states":11735,"ains":11736,"program":11737,"PYDEV":11738,"choco":11739,"al_best_":11740,"最小値":11741,"bunshi":11742,"Libraries":11743,"の要素を":11744,"始点sから":11745,"personal_best_":11746,"複数文字":11747,"(\"?\",\"":11748,"rand_ints_":11749,"closure_path":11750,"与えられた":11751,"sel_col2":11752,"clockwise":11753,"succes":11754,".#.#":11755,"down_":11756,"divider":11757,"fish":11758,"における":11759,"doesn":11760,"appeared":11761,"(\"<\")":11762,"alpha2num":11763,"onlinejudge":11764,"Takahashi":11765,"rand_ints_nodup":11766,"(+":11767,"069":11768,"2D":11769,"2p":11770,"4s":11771,"5P":11772,"5s":11773,"7s":11774,"754":11775,"9j":11776,"?¨":11777,"FB":11778,"Gre":11779,"Has":11780,"IC":11781,"KP":11782,"Lsq":11783,"P_list":11784,"R_list":11785,"This":11786,"Walk":11787,"[('":11788,"_range":11789,"aY":11790,"bran":11791,"bde":11792,"bcount":11793,"bai":11794,"cW":11795,"c68":11796,"c09":11797,"eg":11798,"fR":11799,"hP":11800,"imax":11801,"jH":11802,"nis":11803,"pD":11804,"pL":11805,"pS":11806,"pW":11807,"ped":11808,"rle":11809,"rlt":11810,"sch":11811,"tV":11812,"ton":11813,"tpl":11814,"wP":11815,"zB":11816,"の方が":11817,"を配列":11818,"イク":11819,"コピ":11820,"ダイク":11821,"上位":11822,"他のとき":11823,"成分":11824,"表現":11825,"lision":11826,"uth":11827,"printlist":11828,"ansli":11829,"ret_":11830,"endregion":11831,"itn":11832,"lent":11833,"rother":11834,"ands":11835,"minu":11836,"abi":11837,"ab_list":11838,"cnta":11839,"tmpy":11840,"tmpsum":11841,"1277":11842,"1283":11843,"1223":11844,"1237":11845,"1297":11846,"1381":11847,"1373":11848,"collision":11849,"1933":11850,"538":11851,"434":11852,"2099":11853,"8317":11854,"6359":11855,"6329":11856,"4729":11857,"6781":11858,"5927":11859,"8719":11860,"276":11861,"2711":11862,"4987":11863,"695":11864,"6943":11865,"]==\"#\"":11866,"6029":11867,"184":11868,"w_count":11869,"]))]":11870,"2459":11871,"max_e":11872,"max_node":11873,"516":11874,"5147":11875,"805":11876,"8053":11877,"404":11878,"4057":11879,"data1":11880,"2677":11881,"2659":11882,"a_abs":11883,"646":11884,"285":11885,"trl":11886,"908":11887,"6857":11888,"conf":11889,"2221":11890,"444":11891,"446":11892,"885":11893,"6689":11894,"316":11895,"586":11896,"bb0":11897,"x_int":11898,"ply":11899,"pythonで":11900,"mize":11901,"home":11902,"gou":11903,"c2e":11904,"5653":11905,"_same":11906,"tmp_node":11907,"b_1":11908,"input_text":11909,"1000000000000":11910,"RRS":11911,"Stat":11912,"これは":11913,"Py_None":11914,"回数上限":11915,"transl":11916,"可能性":11917,"スペースごとに":11918,"_10_to_":11919,"Const":11920,"TypeError":11921,"ように作成":11922,"CODER":11923,"スタート地点":11924,"animal_list":11925,"sel_col3":11926,"による":11927,"_ruiseki":11928,"の総数":11929,"Parameters":11930,"Multiple":11931,"'<':":11932,"listをスペースごとに":11933,"perf_counter":11934,"ただし":11935,"(\">\")":11936,"もどうように作成":11937,"ダイクストラ":11938,"他のときもどうように作成":11939,"listをスペースごとに分ける":11940,"他のときもどうように作成可能":11941,")\",":11942,"077":11943,"2q":11944,"6s":11945,"6y":11946,"7K":11947,"7t":11948,"9s":11949,":][::-":11950,"<-":11951,"={}\".":11952,"C_list":11953,"Erat":11954,"FOR":11955,"HZ":11956,"ILI":11957,"KW":11958,"Lon":11959,"Mg":11960,"Name":11961,"OL":11962,"QA":11963,"RCH":11964,"YL":11965,"[*":11966,"[~":11967,"_ep":11968,"_diff":11969,"aV":11970,"aft":11971,"bQ":11972,"b79":11973,"bi_":11974,"b07":11975,"c53":11976,"ccd":11977,"dD":11978,"d00":11979,"ede":11980,"fA":11981,"f00":11982,"lR":11983,"lW":11984,"lar":11985,"mN":11986,"null":11987,"oM":11988,"pls":11989,"palindrome":11990,"qZ":11991,"qsize":11992,"ring":11993,"tps":11994,"uG":11995,"wO":11996,"with_":11997,"xC":11998,"xF":11999,"とな":12000,"のべき乗":12001,"みたい":12002,"をつ":12003,"ルート":12004,"塗り":12005,"小さ":12006,"決定":12007,"箇所":12008,"表記":12009,"anti":12010,"sel":12011,"stem":12012,"remaerd":12013,"ansa":12014,"1011":12015,"1051":12016,"1031":12017,"ites":12018,"routes":12019,"always":12020,"1187":12021,"helper":12022,"resare":12023,"readChar":12024,"esare":12025,"1289":12026,"1229":12027,"((((":12028,"1363":12029,"??\\":12030,"2053":12031,"2069":12032,"8363":12033,"8389":12034,"ch1":12035,"634":12036,"2333":12037,"17f":12038,"6733":12039,"6737":12040,"875":12041,"876":12042,"8713":12043,"8737":12044,"272":12045,"4957":12046,"flow_":12047,"faf":12048,"fault":12049,"gcd2":12050,"6073":12051,"()]))":12052,"1889":12053,"505":12054,"244":12055,"2153":12056,"max_key":12057,"max_num_":12058,"402":12059,"406":12060,"s_idx":12061,"2647":12062,"2617":12063,"preans":12064,"392":12065,"starts":12066,"start_pos":12067,"5519":12068,"tyo":12069,"1453":12070,"158":12071,"2549":12072,"min_m":12073,"answer_":12074,"458":12075,"y_i":12076,"bitree":12077,"bit_count":12078,"user":12079,"useable":12080,"subS":12081,"6277":12082,"A_sorted":12083,"facs":12084,"_sw":12085,":])):":12086,"elems":12087,"pluss":12088,"b_l":12089,"cles":12090,"count_0":12091,"input_l":12092,"socket":12093,"list_S":12094,"tie":12095,"nag":12096,"rust":12097,"prime_numbers":12098,"choices":12099,"actual":12100,"hhh":12101,"overflow":12102,"len_keys":12103,"COST":12104,"0x0000":12105,"winner":12106,"potent":12107,"goods":12108,"priority":12109,"generator":12110,"(\".\",":12111,"test_入力例_3":12112,"proper":12113,"[\"\"]":12114,"players":12115,"サイクル":12116,"NUMBER":12117,"ことができる":12118,"Calc":12119,"メモ化":12120,"coordinate":12121,"などは":12122,"eyeIndex":12123,"FLAG_":12124,"burger":12125,"0x5555555555555555":12126,"Circle":12127,"maxHeapify":12128,"エラトステネスの":12129,"Status":12130,"!,":12131,"!)^":12132,"#================================":12133,"(&":12134,"((\"":12135,"0m":12136,"021":12137,"2x":12138,"2bit":12139,"3回":12140,"4m":12141,"7G":12142,"7g":12143,":'+":12144,"=}')":12145,"Aの":12146,"Kz":12147,"PAR":12148,"White":12149,"_temp":12150,"a37":12151,"a8e":12152,"bN":12153,"cC":12154,"cF":12155,"cbf":12156,"d4e":12157,"far":12158,"gT":12159,"hg":12160,"iB":12161,"iD":12162,"iF":12163,"kE":12164,"lue":12165,"oQ":12166,"oR":12167,"pF":12168,"pI":12169,"sI":12170,"sR":12171,"tJ":12172,"xQ":12173,"xw":12174,"xに更新":12175,"yA":12176,"くっ":12177,"されて":12178,"でやる":12179,"のマス":12180,"ボール":12181,"両方":12182,"後の":12183,"素数の":12184,"考え":12185,"enu":12186,"enai":12187,"deci":12188,"list01":12189,"list4d":12190,"1067":12191,"1049":12192,"998":12193,"9907":12194,"__next":12195,"__tree":12196,"roo":12197,"(\"\"))":12198,"count0":12199,"also":12200,"dirs":12201,"maxsum":12202,"aba":12203,"1181":12204,"')-":12205,"1233":12206,"1251":12207,"1231":12208,"id_":12209,"achi":12210,"192":12211,"198":12212,"1923":12213,"1907":12214,"dam":12215,"7717":12216,"2033":12217,"832":12218,"6337":12219,"6301":12220,"4721":12221,"1789":12222,"274":12223,"2729":12224,"492":12225,"4943":12226,"698":12227,"fa0":12228,"296":12229,"6023":12230,"rights":12231,"right_max":12232,"185":12233,"1877":12234,"geta":12235,"]))<":12236,"5059":12237,"246":12238,"2467":12239,"2141":12240,"max_end":12241,"514":12242,"5153":12243,"8017":12244,"4027":12245,"s_p":12246,"814":12247,"-------":12248,"2699":12249,"LI2":12250,"395":12251,"############":12252,"a_new":12253,"645":12254,"6469":12255,"2857":12256,"invf":12257,"mid1":12258,"peri":12259,"pows":12260,"6553":12261,"686":12262,"6823":12263,"484":12264,"888":12265,"662":12266,"6653":12267,"c_2":12268,"c_x":12269,"c_index":12270,"5813":12271,"prevs":12272,"6299":12273,"saidai":12274,"newy":12275,"4643":12276,"current_time":12277,"r_pos":12278,"[\"+":12279,"count_dict":12280,"file_input":12281,"Arg":12282,"100000000000000000":12283,"view":12284,"探索済み":12285,"find_row":12286,"距離が":12287,"ILs":12288,"最小の":12289,"55555":12290,"city_list":12291,"QUE":12292,"SLs":12293,"SortedKey":12294,"の最大値を":12295,"Swap":12296,"examC":12297,"を作成":12298,"reachable_from_direct":12299,"kruskal":12300,"surface":12301,"Raise":12302,"pieces":12303,"[\"\"]*":12304,"reachable_to_direct":12305,"propagate":12306,"towns":12307,"Solution":12308,"LLIN_":12309,"foods":12310,"'@':":12311,"elapsed_":12312,"factrial":12313,"('##')":12314,"itiman_c":12315,"sugar":12316,"trial_division":12317,"Constants":12318,"__next__":12319,"SortedKeyList":12320,"!\"":12321,"!'":12322,"-((":12323,"099":12324,"037":12325,"073":12326,"4r":12327,"5j":12328,"5t":12329,"7v":12330,"8J":12331,"8q":12332,"9Y":12333,"KO":12334,"Mz":12335,"QJ":12336,"Qm":12337,"Rm":12338,"R_count":12339,"_line":12340,"_find":12341,"_stack":12342,"_than":12343,"ada":12344,"bE":12345,"bsum":12346,"b49":12347,"bcc":12348,"b4e":12349,"cB":12350,"cde":12351,"cbb":12352,"cfd":12353,"dde":12354,"d37":12355,"f30":12356,"fbe":12357,"hJ":12358,"hX":12359,"kes":12360,"lV":12361,"mS":12362,"mmin":12363,"nJ":12364,"oW":12365,"oz":12366,"pur":12367,"psum":12368,"qA":12369,"qE":12370,"qH":12371,"rng":12372,"sa_":12373,"tC":12374,"t_num":12375,"t_max":12376,"xW":12377,"yI":12378,"{{":12379,"えば":12380,"が一":12381,"が必要":12382,"に含まれる":12383,"めた":12384,"クリ":12385,"ーの":12386,"乗法":12387,"呼び":12388,"増加":12389,"形式":12390,"持って":12391,"木を":12392,"li_input":12393,"stc":12394,"stx":12395,"())])":12396,"ermat":12397,"1043":12398,"itions":12399,"len_b":12400,"__n":12401,"aru":12402,"arms":12403,"(\"*":12404,"count_a":12405,"alloc":12406,"maxt":12407,")])))":12408,"thrust":12409,"dpp":12410,"ab0":12411,"above":12412,"')])":12413,"poss":12414,"reads":12415,"],\"":12416,"lose":12417,"tmpans":12418,"isOK":12419,"modcomb":12420,"1327":12421,"1973":12422,"534":12423,"772":12424,"7759":12425,"2063":12426,"8369":12427,"6311":12428,"2389":12429,"cd2":12430,"4793":12431,"676":12432,"5717":12433,"596":12434,"index_list":12435,"696":12436,"2917":12437,"2903":12438,"dist1":12439,"dist_v":12440,"dict1":12441,"6047":12442,"504":12443,"net":12444,"215":12445,"max_B":12446,"max_y":12447,"nowW":12448,"scc":12449,"416":12450,"{}\\":12451,"illed":12452,"26e":12453,"matri":12454,"nexty":12455,"comb2":12456,"396":12457,"start_num":12458,"a_3":12459,"554":12460,"642":12461,"6477":12462,"652":12463,"6599":12464,"4889":12465,"min_distance":12466,"794":12467,"4513":12468,"2251":12469,"4457":12470,"4451":12471,"is_un":12472,"pat1":12473,"tables":12474,"c_max":12475,"MARCH":12476,"d_max":12477,"n_i":12478,"diff_list":12479,"5843":12480,"4259":12481,"l_si":12482,"west_":12483,"next_q":12484,"next_vertex":12485,"word_list":12486,"iii":12487,"password":12488,"current_pos":12489,"1e6":12490,"MI1":12491,"list_ans":12492,"_turn":12493,"tiles":12494,"あるか":12495,"SRR":12496,"filled":12497,"ava":12498,"...]":12499,"powers":12500,"last_i":12501,"orial":12502,"kosuu":12503,"LCS":12504,"chosen":12505,"Exist":12506,"ノードの":12507,"backward":12508,"より大きい":12509,"henkan":12510,"ushiro":12511,"の要素数":12512,"increa":12513,"effc":12514,"option":12515,"f0f0f0f":12516,"ostream":12517,"Author":12518,"action_":12519,"basic":12520,"icicles":12521,"_rules":12522,"の総和":12523,"sousa":12524,"Dinic":12525,"__len__":12526,"prime_decomposition":12527,"が行える":12528,"nearest":12529,"FLAG_LOG":12530,"%.":12531,"011":12532,"067":12533,"087":12534,"2回":12535,"4q":12536,"5i":12537,"6u":12538,"7q":12539,"9J":12540,"A_c":12541,"EA":12542,"KB":12543,"P_":12544,"QG":12545,"XOR":12546,"YD":12547,"YZ":12548,"_MAX":12549,"_rev":12550,"aad":12551,"bM":12552,"b87":12553,"b6e":12554,"cda":12555,"c17":12556,"c4e":12557,"c6e":12558,"cakes":12559,"dG":12560,"dff":12561,"d39":12562,"dcc":12563,"dbc":12564,"d5e":12565,"fB":12566,"fdf":12567,"hG":12568,"hI":12569,"iO":12570,"iS":12571,"iが":12572,"jC":12573,"jG":12574,"lG":12575,"mP":12576,"mU":12577,"pO":12578,"rF":12579,"rJ":12580,"rL":12581,"tE":12582,"tz":12583,"ua":12584,"wN":12585,"xE":12586,"yK":12587,"yW":12588,"けば":12589,"だめ":12590,"をも":12591,"カード":12592,"パス":12593,"ロー":12594,"入れて":12595,"列の":12596,"前計算":12597,"十分":12598,"桁数":12599,"構造":12600,"矛盾":12601,"行に":12602,"information":12603,"ordered":12604,"master":12605,"rec_":12606,"())[":12607,"dec_":12608,"1047":12609,"1017":12610,"1021":12611,"9973":12612,"__ra":12613,"__true":12614,"counta":12615,"disp":12616,"()))[::-":12617,"\")==":12618,"('=')":12619,"minR":12620,"minval":12621,"abd":12622,"1112":12623,"sum0":12624,"tmpl":12625,"tmp_w":12626,"1259":12627,"isa":12628,"1319":12629,"set_rules":12630,"]*=-":12631,"unvisited":12632,"val_list":12633,"5333":12634,"7793":12635,"432":12636,"4363":12637,"208":12638,"2097":12639,"834":12640,"8303":12641,"2381":12642,"2339":12643,"4703":12644,"6701":12645,"5791":12646,"595":12647,"5909":12648,"27e":12649,"2797":12650,"4969":12651,"6953":12652,"29f":12653,"1861":12654,"get_sum":12655,"ots":12656,"502":12657,"5077":12658,"5043":12659,"5089":12660,"335":12661,"338":12662,"245":12663,"2477":12664,"5189":12665,"now2":12666,"8093":12667,"4099":12668,"4019":12669,"6183":12670,")+\"+\"+":12671,"=[],[]":12672,"next_c":12673,"AB_list":12674,"LIMI":12675,"start_time":12676,"\".\"):":12677,"978":12678,"*-*-":12679,"6449":12680,"''))":12681,"25e":12682,"2819":12683,"all_list":12684,"perr":12685,"6569":12686,"bins":12687,"685":12688,"6883":12689,"6869":12690,"bou":12691,"cumprod":12692,"cumulative":12693,"2299":12694,"2267":12695,"y_m":12696,"is_even":12697,"884":12698,"c_table":12699,"c_odd":12700,"lcms":12701,"dd__":12702,"prev_c":12703,"1699":12704,"classmethod":12705,"x_2":12706,"x_m":12707,"div_list":12708,"]+=[":12709,"6217":12710,"funcval":12711,"8563":12712,"new_id":12713,"goto":12714,"wrapper":12715,"next_nodes":12716,"get_cost":12717,"get_size":12718,"pair_list":12719,"read_a_int":12720,"MI_":12721,"is_prime_":12722,"change_b":12723,"same_":12724,"remains":12725,"straight":12726,"price_":12727,"in_str":12728,"in_order":12729,"ことは":12730,"divisor_list":12731,"より小さい":12732,"Bubble":12733,"uga":12734,"X_int":12735,"ソート済み":12736,"examE":12737,"素数判定":12738,"可能な":12739,"squares":12740,"集合に属する":12741,"lazy_segtree_":12742,"の時は":12743,"rotate_":12744,"FILL":12745,"KeyError":12746,"ives":12747,"検索が行える":12748,"二分木":12749,"__rmul__":12750,"sel_row2":12751,"sel_row3":12752,"優先度":12753,"ch_col":12754,"culc":12755,"calculation":12756,"lemented":12757,"二部探索の":12758,"これで二部探索の":12759,"用意する":12760,"を表す":12761,"大小検索が行える":12762,"public":12763,"doubling":12764,"concaten":12765,"コピー":12766,"__radd__":12767,"__truediv__":12768,"これで二部探索の大小検索が行える":12769,")|":12770,"+\":":12771,",(-":12772,".／":12773,"057":12774,"5g":12775,"6Z":12776,"6l":12777,">-":12778,"Amax":12779,"Flg":12780,"JS":12781,"MT":12782,"VB":12783,"_split":12784,"_000":12785,"_mid":12786,"_group":12787,"aset":12788,"alis":12789,"bdf":12790,"bd0":12791,"cJ":12792,"car":12793,"cce":12794,"c6f":12795,"dce":12796,"d47":12797,"d87":12798,"d8f":12799,"hM":12800,"jdx":12801,"nine":12802,"nまでの":12803,"oq":12804,"rC":12805,"rQ":12806,"rig":12807,"sX":12808,"tF":12809,"tN":12810,"tO":12811,"ting":12812,"uF":12813,"uU":12814,"uz":12815,"vB":12816,"wI":12817,"wL":12818,"wT":12819,"xa1":12820,"xb1":12821,"yR":12822,"yT":12823,"yout":12824,"}\\":12825,"}+{":12826,"かない":12827,"ちょう":12828,"のか":12829,"をする":12830,"何も":12831,"作れる":12832,"制約":12833,"得点":12834,"期待":12835,"行ける":12836,"途中":12837,"ini_":12838,"()[:":12839,"intin":12840,"ific":12841,"mate":12842,"machi":12843,"reng":12844,"input_c":12845,"decess":12846,"maps":12847,"list_s":12848,"1079":12849,"lear":12850,"leve":12851,"__iter":12852,"ross":12853,"arc0":12854,"count_bit":12855,"diment":12856,"maxS":12857,"numB":12858,"\")\"":12859,"minCost":12860,"str_num":12861,"dpa":12862,"nod":12863,"1171":12864,"cntb":12865,"ed0":12866,"exchange":12867,"sort_list":12868,"1299":12869,"1217":12870,"is_b":12871,"1321":12872,"idents":12873,"set_val":12874,"1949":12875,"43e":12876,"YesNo":12877,"2027":12878,"2049":12879,"2039":12880,"2079":12881,"iseki_":12882,"6317":12883,"6389":12884,"6397":12885,"236":12886,"2377":12887,"2357":12888,"cd0":12889,"4751":12890,"1783":12891,"6709":12892,"5711":12893,"5743":12894,"5903":12895,"498":12896,"8929":12897,"6053":12898,"6091":12899,"1823":12900,"1801":12901,"heap_":12902,"5067":12903,"5033":12904,"key_":12905,"neta_":12906,"2499":12907,"2411":12908,"2443":12909,"2441":12910,"802":12911,"ingle":12912,"6199":12913,"reverse_flag":12914,"41e":12915,"4183":12916,"s_y":12917,"primelist":12918,"2663":12919,"2627":12920,"372":12921,"fibo":12922,"a_end":12923,"974":12924,"1499":12925,"6421":12926,"_clock":12927,"2521":12928,"2887":12929,"482":12930,"486":12931,"min_path":12932,"point_":12933,"rika":12934,"704":12935,"4483":12936,"NOW":12937,"framod":12938,"is_pairwise":12939,"type_":12940,"8819":12941,"5449":12942,"5827":12943,"1627":12944,"x_s":12945,"100010":12946,"6211":12947,"6287":12948,"l_i":12949,"saka":12950,"new_l":12951,"new_p":12952,"sum_i":12953,"sum_x":12954,"A_plus":12955,"abc127":12956,"ans_t":12957,"currentCycle":12958,"Default":12959,"c0e":12960,"ca0":12961,"uf1":12962,"disable":12963,"count_mi1":12964,"リスト取得":12965,"list_index":12966,"whites":12967,"c3e":12968,"PyEx":12969,"_lun":12970,"revfact":12971,"change_":12972,"ruiseki_":12973,"ximate":12974,"last_plus":12975,"_push":12976,"したら":12977,"頂点の":12978,"deleted":12979,"many_":12980,"blues":12981,"_bool":12982,"(\"#\"*(":12983,"ものが":12984,"signed":12985,"ID_M":12986,"num2alpha":12987,"以上の":12988,"odd_cnt":12989,"marker":12990,"の最小公倍数":12991,"の最大公約数":12992,"--------------------------------------------":12993,"zahyou":12994,"cur_score":12995,"rectangle":12996,"non_":12997,"locals":12998,"KIHAB":12999,"sample_file":13000,"grade":13001,"anima":13002,"................":13003,"rock_count":13004,"longest_":13005,"coords":13006,"kyuyu":13007,"naname":13008,"RemoveList":13009,"f0f0f0f0f0f0f0f":13010,"keisuu_lower":13011,"getIntList":13012,"で割り切れる":13013,"initial_values":13014,"subtract":13015,"aがリスト":13016,"furthest":13017,"approximate":13018,"0x0f0f0f0f0f0f0f0f":13019,"euclid":13020,"OUTPUT":13021,"using_method":13022,"PyErr_Format":13023,"translate":13024,"ちょうど":13025,"input_clipboard":13026,"decessors":13027,"dimentional":13028,"Defaults":13029,"PyExc_":13030,"\"},":13031,"#@":13032,"(･":13033,",...":13034,"2K":13035,"3s":13036,"4H":13037,"5Q":13038,"6x":13039,"7O":13040,"7p":13041,"8K":13042,"8Q":13043,"8k":13044,":]),":13045,">&":13046,"Jg":13047,"QE":13048,"RZ":13049,"RLE":13050,"RAN":13051,"RSR":13052,"Vert":13053,"WA_":13054,"ZA":13055,"[\"#\"":13056,"_4":13057,"_limit":13058,"_l_":13059,"_loop":13060,"aS":13061,"a99":13062,"ais":13063,"a07":13064,"bI":13065,"b15":13066,"b5e":13067,"c55":13068,"cfe":13069,"cf0":13070,"cnd":13071,"c4f":13072,"dA":13073,"dE":13074,"dJ":13075,"dM":13076,"dP":13077,"d10":13078,"d33":13079,"ej":13080,"fJ":13081,"fM":13082,"fQ":13083,"f11":13084,"f48":13085,"fcc":13086,"fold":13087,"f_back":13088,"hS":13089,"hns":13090,"hanten":13091,"isum":13092,"jI":13093,"jS":13094,"jdg":13095,"kD":13096,"kL":13097,"kz":13098,"lY":13099,"llist":13100,"l_b":13101,"mst":13102,"mys":13103,"mmax":13104,"nlst":13105,"oK":13106,"pT":13107,"pys":13108,"p_num":13109,"qG":13110,"qI":13111,"snum":13112,"ssum":13113,"tM":13114,"uE":13115,"uI":13116,"uL":13117,"uN":13118,"uZ":13119,"uint64":13120,"vA":13121,"vG":13122,"wM":13123,"wip":13124,"xH":13125,"xb2":13126,"ya1":13127,"yb1":13128,"}{:":13129,"えた":13130,"ずれ":13131,"どん":13132,"にいる":13133,"の個数を":13134,"を0":13135,"何個":13136,"変換":13137,"奇数の":13138,"手が":13139,"枚数":13140,"終点":13141,"見た":13142,"足し":13143,"･)":13144,"in_cnt":13145,"indeg":13146,"intinput":13147,"anser":13148,"reci":13149,"):(":13150,"printn":13151,"deck":13152,"mpow":13153,"+=-":13154,"__pow__":13155,"maxim":13156,"num4":13157,"cntB":13158,"pological":13159,"!=[]:":13160,"sort_":13161,"tmp_s":13162,"1303":13163,"unity":13164,"unpack":13165,"1901":13166,"usage":13167,"team":13168,"operate":13169,"5307":13170,"7753":13171,"7727":13172,"4349":13173,"204":13174,"2083":13175,"2037":13176,"cur_i":13177,"6367":13178,"2383":13179,"2393":13180,"2371":13181,"4749":13182,"575":13183,"5987":13184,"2707":13185,"4973":13186,"6961":13187,"294":13188,"2963":13189,"2967":13190,"6011":13191,"6013":13192,"6089":13193,"6079":13194,"tempx":13195,"1899":13196,"w_cnt":13197,"508":13198,"5063":13199,"neta":13200,"\",\"\"))":13201,"2417":13202,"2161":13203,"405":13204,"4149":13205,"bucket":13206,"302":13207,"next_num":13208,"next_a":13209,"add_count":13210,"3989":13211,"array_length":13212,"376":13213,"556":13214,"INFTY":13215,"6529":13216,"6581":13217,"904":13218,"6841":13219,"min_factor":13220,"consi":13221,"4547":13222,"4561":13223,"2287":13224,"2281":13225,"936":13226,"938":13227,"d_sum":13228,"n_s":13229,"5417":13230,"1657":13231,"i_1":13232,"x_n":13233,"x_root":13234,"l_str":13235,"theta_":13236,"8527":13237,"last_c":13238,"ptvs":13239,"accumul":13240,"8263":13241,"searchsorted":13242,"Debug":13243,"d2e":13244,"uf2":13245,"minuss":13246,"1e5":13247,"REP":13248,"ARARGS":13249,"nCa":13250,"nCb":13251,"b3f":13252,"top_i":13253,"...#":13254,"ATH":13255,"v_from":13256,"manzoku":13257,"\")]*(":13258,"={},":13259,"TH_V":13260,"read_int_list":13261,"END":13262,"signature":13263,"test_string":13264,"tri_list":13265,"_to_key":13266,"いくつ":13267,"tgt2":13268,"METH_V":13269,"Box":13270,"Mode":13271,"like2017":13272,"multipli":13273,"box_row":13274,"_words":13275,"を使って":13276,"suuji":13277,"takewhile":13278,"residual":13279,"になっている":13280,"(\",\"))":13281,"cmp_to_key":13282,"__rsub__":13283,"最小公倍数などは":13284,"satisfaction":13285,"variables":13286,"fenwick":13287,"Divisors":13288,"decrease":13289,"waribiki":13290,"\"<\":":13291,")+\":\"+":13292,"leader":13293,"時点で":13294,"anagra":13295,"セグメント":13296,"並び替え":13297,"'/':":13298,"simple":13299,"('>')":13300,"('<')":13301,"===============":13302,"Eratosthenes":13303,"rooms":13304,"concatenate":13305,"METH_VARARGS":13306,"最小公倍数などはこっち":13307,"\"{}":13308,")[:-":13309,"/.":13310,"049":13311,"091":13312,"1は":13313,"3Q":13314,"4w":13315,"5F":13316,"5z":13317,"6p":13318,"7M":13319,"7Q":13320,"7V":13321,"8F":13322,"8R":13323,"8g":13324,"Ali":13325,"Cur":13326,"Cop":13327,"Gcd":13328,"Ils":13329,"NLI":13330,"Qz":13331,"TEST":13332,"YV":13333,"_D":13334,"_up":13335,"_order":13336,"_stairs":13337,"aX":13338,"ade":13339,"a12":13340,"a25":13341,"afd":13342,"bH":13343,"bX":13344,"baa":13345,"ball_":13346,"cI":13347,"c39":13348,"c73":13349,"dH":13350,"dbb":13351,"e_list":13352,"fre":13353,"f53":13354,"f90":13355,"f85":13356,"f03":13357,"fuga":13358,"kH":13359,"lF":13360,"lN":13361,"lcd":13362,"nP":13363,"nim":13364,"nHr":13365,"n以上の最小":13366,"oF":13367,"oH":13368,"pg":13369,"qV":13370,"rX":13371,"sF":13372,"sP":13373,"sY":13374,"tB":13375,"tI":13376,"tP":13377,"tZ":13378,"uA":13379,"uj":13380,"vS":13381,"wD":13382,"wg":13383,"wcount":13384,"xD":13385,"xO":13386,"xS":13387,"yb2":13388,"{-":13389,"だから":13390,"なときは":13391,"に要素":13392,"にしたい":13393,"に近い":13394,"の状態":13395,"り着":13396,"イド":13397,"ラン":13398,"人の":13399,"今回":13400,"保持":13401,"出て":13402,"動小数点":13403,"右の":13404,"回数を":13405,"浮動小数点":13406,"inclusive":13407,"ank":13408,"inputFile":13409,"split_":13410,"+=[(":13411,"1053":13412,"00e":13413,"atio":13414,"__dict":13415,"count3":13416,")]+[":13417,"**(-":13418,"minc":13419,"min_count":13420,"minutes":13421,"moj":13422,"cnt_w":13423,"edList":13424,"],(":13425,"today_":13426,"1291":13427,"Tri":13428,">=(":13429,"1361":13430,"set2":13431,"1951":13432,"1931":13433,"op_cnt":13434,"7789":13435,"4327":13436,"4339":13437,"4397":13438,"2059":13439,"2089":13440,"8399":13441,"6399":13442,"4787":13443,"5741":13444,"5739":13445,"592":13446,"594":13447,"59b":13448,"8753":13449,"4931":13450,"dictated":13451,"604":13452,"6067":13453,"6087":13454,"6097":13455,"]))+":13456,"5099":13457,"248":13458,"node_b":13459,"2167":13460,"IND":13461,"INIT":13462,"nowH":13463,"8077":13464,"8069":13465,"8089":13466,"4021":13467,"4093":13468,"4091":13469,"rtr":13470,"idx_s":13471,"4199":13472,"s_sorted":13473,"816":13474,"-----":13475,"addition":13476,"time_list":13477,"checking":13478,"5517":13479,"976":13480,"lst_sum_":13481,"1447":13482,"1489":13483,"154":13484,"1553":13485,"2587":13486,"2589":13487,"286":13488,"2843":13489,"_num_list":13490,"truth":13491,"ListA":13492,"min_ans":13493,"bom":13494,"796":13495,"2269":13496,"<<<":13497,"4481":13498,"y_r":13499,"735":13500,"move_count":13501,"666":13502,"6661":13503,"MASK":13504,"shif":13505,"n_idx":13506,"n_without":13507,"seg_":13508,"xylist":13509,"1619":13510,"4299":13511,"querys":13512,"substr":13513,"8599":13514,"new_col":13515,"sum_s":13516,"A_set":13517,"next_sum":13518,"next_idx":13519,"4651":13520,"current_id":13521,");}":13522,"8287":13523,"からi":13524,"group_id":13525,"obs":13526,"tmp_tmp":13527,"get_ints":13528,"csr":13529,"baisu":13530,":])-":13531,"base_10_to_":13532,"read_matrix":13533,"nibu":13534,"depths":13535,"char_list":13536,"input_tuple":13537,"diceface":13538,"match_num":13539,"までの最":13540,"money_":13541,"last_d":13542,"last_neg":13543,"_hold":13544,"roads":13545,"Power":13546,"文字列の":13547,"to_stone":13548,"uniq":13549,"Warp":13550,"TYPE":13551,"移動する":13552,"kaburi":13553,"warp_count":13554,"graf":13555,"numeric":13556,"adjacency":13557,"_children":13558,"FromStdin":13559,"closure_len":13560,"sel_col1":13561,"-------------":13562,"num_of_input":13563,"soinsuu":13564,"Function":13565,"igo_map":13566,"ながら":13567,"が入る":13568,"chunk":13569,"_bottom":13570,"s_kigo_map":13571,"potential":13572,"property":13573,"l_si_i":13574,"n以上の最小の2":13575,"__dict__":13576,"node_brother":13577,"n_without_0":13578,"base_10_to_n_without_0":13579,"\"{:":13580,"#,":13581,")\"\"\"":13582,"+%":13583,"019":13584,"023":13585,"061":13586,"031":13587,"1100":13588,"3i":13589,"3r":13590,"5O":13591,"5W":13592,"5Z":13593,"5v":13594,"6Y":13595,"6g":13596,"6h":13597,"7n":13598,"9N":13599,"9R":13600,"9S":13601,"9000":13602,"Aoki":13603,"Euler":13604,"Long":13605,"RES":13606,"UB":13607,"_u":13608,"_re":13609,"_INT":13610,"_ARGS":13611,"aF":13612,"a10":13613,"a63":13614,"a5e":13615,"bint":13616,"bda":13617,"b90":13618,"b03":13619,"b_max":13620,"c19":13621,"c27":13622,"caa":13623,"c01":13624,"dN":13625,"dT":13626,"dU":13627,"dan":13628,"d57":13629,"d40":13630,"dbe":13631,"duct":13632,"fat":13633,"f67":13634,"f93":13635,"g_cnt":13636,"jZ":13637,"kon":13638,"lL":13639,"mlist":13640,"na1":13641,"nii":13642,"pE":13643,"pP":13644,"plst":13645,"rM":13646,"ril":13647,"sdict":13648,"tS":13649,"tim":13650,"vim":13651,"wC":13652,"wV":13653,"watch":13654,"xR":13655,"xV":13656,"xZ":13657,"xin":13658,"yE":13659,"yP":13660,"ya2":13661,"かの":13662,"があ":13663,"つなが":13664,"に置":13665,"の点":13666,"の座標":13667,"はず":13668,"よって":13669,"ッド":13670,"プラス":13671,"マッチ":13672,"リー":13673,"・・":13674,"消す":13675,"進める":13676,"金額":13677,"into":13678,"anal":13679,"reject":13680,"ans4":13681,"ntt":13682,"apex":13683,"__root":13684,"roy":13685,"count_s":13686,"dimen":13687,"maxb":13688,"maxmatch":13689,"num_c":13690,"strlist":13691,"]:]":13692,"isinf":13693,"1333":13694,"id1":13695,"\":\",":13696,"acci":13697,"unction":13698,"1979":13699,"1903":13700,"usuu":13701,"4373":13702,"8311":13703,"8377":13704,"8359":13705,"8329":13706,"6361":13707,"2311":13708,"474":13709,"4743":13710,"4783":13711,"4717":13712,"6707":13713,"5701":13714,"5939":13715,"872":13716,"8747":13717,"8761":13718,"494":13719,"4939":13720,"2983":13721,"name_dict":13722,"sorted_p":13723,"dict_counter":13724,"5051":13725,"5081":13726,")->":13727,"2447":13728,"2457":13729,"job_list":13730,"max_7":13731,"max_color":13732,"max_length":13733,"5143":13734,"804":13735,"8011":13736,"4049":13737,")))+":13738,"ffe":13739,"4143":13740,"8161":13741,"2613":13742,"305":13743,"nextNode":13744,"combs":13745,"394":13746,"fibon":13747,"a_k":13748,"*=-":13749,"558":13750,"6417":13751,"656":13752,"485":13753,"cons":13754,"454":13755,"2263":13756,"rikai":13757,"lis1":13758,"706":13759,"4447":13760,"is_visited":13761,"bit_list":13762,"6699":13763,"5413":13764,"3257":13765,"\",\"-":13766,"divList":13767,"_wall":13768,"date_by_":13769,"l_cnt":13770,"sum_e":13771,"sum_n":13772,"sum_now":13773,"perms":13774,"A_N":13775,"A_minus":13776,"5647":13777,"9199":13778,"8627":13779,"8669":13780,"even_count":13781,"8223":13782,"tmp_t":13783,"b_j":13784,"zyun":13785,"p_min":13786,"入力は":13787,"PyCF":13788,"kaijou":13789,"match_list":13790,"_run":13791,"までに":13792,"までの最短距離":13793,"last_minus":13794,"したもの":13795,"zzz":13796,"delete_":13797,"値をxに更新":13798,"]//(":13799,"minimum_":13800,"SE_ARGS":13801,"(\"-\")":13802,"dump":13803,"first_index":13804,"Sieve":13805,"lingb":13806,"ようにする":13807,"roop_count":13808,"D_dfs_d":13809,"},{":13810,"Down":13811,"speed":13812,"----------------------------------":13813,"stocks":13814,"ための":13815,"prize":13816,"Judge":13817,"closed":13818,"regist":13819,"selecting":13820,"KIHBR":13821,"normal_":13822,"intersect":13823,"descend":13824,"ongest":13825,"arrival":13826,"golem":13827,"7777777777777777":13828,"xが属するグループ":13829,"終わり":13830,"update_condition":13831,"n_cps":13832,"ループを抜ける":13833,"otozure":13834,"ticket":13835,"outputDataList":13836,"PARSE_ARGS":13837,"Vertex":13838,"fibonacci":13839,"date_by_contest":13840,"PyCFunction":13841,"$',":13842,".\"":13843,"0j":13844,"053":13845,"043":13846,"083":13847,"2N":13848,"3k":13849,"3o":13850,"4G":13851,"4n":13852,"5X":13853,"6O":13854,"6R":13855,"7U":13856,"8E":13857,"8W":13858,"A列":13859,"Bom":13860,"B列が":13861,"Kj":13862,"Og":13863,"Rlist":13864,"Var":13865,"W_i":13866,"['#']":13867,"_E":13868,"_G":13869,"aH":13870,"a24":13871,"a73":13872,"a01":13873,"bS":13874,"b99":13875,"b20":13876,"b37":13877,"bbe":13878,"b28":13879,"b58":13880,"cD":13881,"cO":13882,"cg":13883,"c30":13884,"c37":13885,"clst":13886,"c85":13887,"c76":13888,"dF":13889,"d99":13890,"d70":13891,"d4f":13892,"fL":13893,"fP":13894,"f70":13895,"f01":13896,"fb0":13897,"hone":13898,"kS":13899,"kT":13900,"kZ":13901,"lE":13902,"mT":13903,"nas":13904,"oX":13905,"oZ":13906,"pB":13907,"pY":13908,"pset":13909,"pc_":13910,"plot":13911,"qQ":13912,"qR":13913,"qS":13914,"qT":13915,"rW":13916,"ris":13917,"rhs":13918,"rates":13919,"sou":13920,"tG":13921,"uX":13922,"wR":13923,"walls":13924,"xa2":13925,"yQ":13926,"yU":13927,"}=":13928,"~-":13929,"、-":13930,"いける":13931,"いずれ":13932,"さない":13933,"で最大":13934,"の根":13935,"のサイズ":13936,"わから":13937,"ファ":13938,"作用":13939,"動か":13940,"変える":13941,"定理":13942,"常に":13943,"掛けて":13944,"減らす":13945,"算出":13946,"重さ":13947,"inint":13948,"oro":13949,"ifo":13950,"made":13951,"redi":13952,"print_count":13953,"print_ans":13954,"gest":13955,"deposit":13956,"ansp":13957,"list_c":13958,"+=((":13959,"1027":13960,"1089":13961,"ret1":13962,"itu":13963,"real_":13964,"__set":13965,"round_":13966,"alr":13967,"mess":13968,"dpc":13969,"11e":13970,"1123":13971,"1117":13972,"1129":13973,"1193":13974,"cnt_l":13975,"suml":13976,"sumlist":13977,"1207":13978,"1359":13979,"col_sum":13980,"-->":13981,"abs_list":13982,"unkai":13983,"),'":13984,"left2":13985,"5387":13986,"776":13987,"2081":13988,"6377":13989,"235":13990,"2309":13991,"cd1":13992,"[:])":13993,"6763":13994,"6793":13995,"278":13996,"2719":13997,"2791":13998,"4989":13999,"4909":14000,"692":14001,"6949":14002,"295":14003,"pycc":14004,"sorted_A":14005,"6039":14006,"temp_sum":14007,"1847":14008,"w_num":14009,"w_idx":14010,"5011":14011,"5083":14012,"5023":14013,"5037":14014,"5097":14015,"key1":14016,"]]-=":14017,"max_X":14018,"max_size":14019,"8039":14020,"4079":14021,")))%":14022,"4161":14023,"s_tmp":14024,"s_array":14025,"data_dict":14026,"1007":14027,"2643":14028,"=[],":14029,"chee":14030,"root_n":14031,"prefix":14032,"array_result":14033,"posL":14034,"555":14035,"5569":14036,"number_vertex":14037,"1429":14038,"2567":14039,"2559":14040,"mid_":14041,"triple":14042,"6521":14043,"okflag":14044,"682":14045,"684":14046,"6819":14047,"4817":14048,"min_prime":14049,"792":14050,"4523":14051,"7079":14052,"y_tmp":14053,"8863":14054,"8861":14055,"c_l":14056,"c_even":14057,"n_str":14058,"color_":14059,"5483":14060,"ddd":14061,"582":14062,"5869":14063,"5821":14064,"3253":14065,"4289":14066,"divid":14067,"6221":14068,"new_max":14069,"sum_r":14070,"846":14071,"A_1":14072,"abcde":14073,"5669":14074,"5689":14075,"newx":14076,"next_m":14077,"lasts":14078,"8689":14079,"_sign":14080,"currentframe":14081,"82e":14082,"8269":14083,"permutations_count":14084,"get_read_func":14085,"pair_":14086,"read_input":14087,"p_idx":14088,"input_array":14089,"ee0":14090,"list_score":14091,"same_check":14092,"c7e":14093,"has_duplicates":14094,"S_len":14095,"計算量":14096,"計算する":14097,"cpdef":14098,"agc0":14099,"in_arr":14100,"mergesort":14101,"over_":14102,"multi_":14103,"('#'+":14104,"done_":14105,"m_ind":14106,"integers":14107,"そのまま":14108,"first_count":14109,"Male":14110,"ched_bo":14111,"Buzz":14112,"Fizz":14113,"_to_int":14114,"_forward":14115,"スタック":14116,"parse_input":14117,"階乗のリスト":14118,"Short":14119,"complete":14120,"BinarySearch":14121,"現在地":14122,"ものを探す":14123,"island_dict":14124,"eaten":14125,"スペース区切りの入力を":14126,"???????????????????????":14127,"ようなとき":14128,"に変換して":14129,"selection_sort":14130,"sel_row1":14131,"isptr":14132,"quicksort":14133,"正解する":14134,"~~~~~~~~~~~~~~~~~~~~~~~~~~~~~~~~":14135,"boolean":14136,"vvvvvvvvvvvvvvvvvvvvvvvvvvvvvvvv":14137,"^^^^^^^^^^^^^^^^^^^^^^^^^^^^^^^^":14138,"使われて":14139,"で割った余り":14140,"''''''''''''''''":14141,"_thisptr":14142,"Diff":14143,"_and_":14144,"与えられるようなとき":14145,"を見つける":14146,"ified":14147,"versal":14148,"無理なときは":14149,"LowLink":14150,"みたいな":14151,"actual_x":14152,"BubbleSort":14153,"優先度付き":14154,"__iter__":14155,"B列が与えられるようなとき":14156,"honest_":14157,"__setitem__":14158,"message":14159,"\"(\"":14160,"#-*-":14161,"0k":14162,"013":14163,"059":14164,"2個":14165,"4I":14166,"4O":14167,"4j":14168,"6G":14169,"6M":14170,"6V":14171,"7B":14172,"7D":14173,"7I":14174,"7L":14175,"7h":14176,"8s":14177,"9E":14178,"9G":14179,"9H":14180,"9m":14181,"=(-":14182,"Buf":14183,"Hit":14184,"PRE":14185,"QB":14186,"SCO":14187,"TOP":14188,"Uni":14189,"Used":14190,"]/(":14191,"_app":14192,"_code":14193,"aE":14194,"aO":14195,"a27":14196,"bmax":14197,"blo":14198,"b63":14199,"bcd":14200,"b21":14201,"b25":14202,"b70":14203,"b66":14204,"b96":14205,"b8e":14206,"cans":14207,"c99":14208,"cad":14209,"cbe":14210,"c45":14211,"dV":14212,"d17":14213,"d30":14214,"fI":14215,"fV":14216,"fW":14217,"f40":14218,"fall":14219,"k番目の":14220,"lmin":14221,"lvl":14222,"nin":14223,"ness":14224,"oE":14225,"pC":14226,"pZ":14227,"pans":14228,"pnt":14229,"qD":14230,"qF":14231,"qU":14232,"rI":14233,"rR":14234,"rT":14235,"rcount":14236,"tH":14237,"t_a":14238,"yuu":14239,"。。":14240,"さん":14241,"でなければ":14242,"ダメ":14243,"ブラ":14244,"ラー":14245,"一度":14246,"上記":14247,"下位":14248,"出る":14249,"幅優先探索":14250,"数は":14251,"決める":14252,"累乗":14253,"行先":14254,"遷移":14255,"inite":14256,"anst":14257,"pred":14258,"rel_":14259,"inputStr":14260,"ansd":14261,"spin":14262,"mpty":14263,"10d":14264,"itt":14265,"ities":14266,"once":14267,"00FF":14268,"readi":14269,"992":14270,"aris":14271,"maxc":14272,"maxsplit":14273,"maxVal":14274,"('...":14275,"minNum":14276,"minVal":14277,"mok":14278,"hikaku":14279,"1177":14280,"1163":14281,"1159":14282,"cnt_2":14283,"sumv":14284,"life":14285,"to1":14286,"isP":14287,"':',":14288,"1353":14289,"ac_":14290,"dag":14291,"opt_":14292,"5323":14293,"1733":14294,"674":14295,"675":14296,"5749":14297,"878":14298,"2713":14299,"495":14300,"496":14301,"6929":14302,"898":14303,"8953":14304,"2953":14305,"2971":14306,"606":14307,"60e":14308,"6099":14309,"6033":14310,"right_index":14311,"getS":14312,"getArray":14313,"5053":14314,"5017":14315,"5049":14316,"5079":14317,"332":14318,"2409":14319,"]]<":14320,"pop_count":14321,"joy":14322,"5167":14323,"808":14324,"8087":14325,"8029":14326,"4017":14327,"4033":14328,"scr":14329,"614":14330,"6151":14331,"ff7":14332,")+\"-\"+":14333,"4189":14334,"s_str":14335,"8153":14336,"matches":14337,"nextnode":14338,"#########":14339,"a_pos":14340,"55e":14341,"5599":14342,"5553":14343,"5563":14344,"5557":14345,"6453":14346,"6427":14347,"1500":14348,"_cp":14349,"_cap":14350,"254":14351,"2519":14352,"2847":14353,"2851":14354,"2861":14355,"all_num":14356,"bisect_key":14357,"902":14358,"906":14359,"6853":14360,"4813":14361,"4553":14362,"y_l":14363,"y_p":14364,"y_root":14365,"934":14366,"bitset":14367,"patty":14368,"6647":14369,"MAT":14370,"shin":14371,"colored":14372,"すること":14373,"584":14374,"para":14375,"x_index":14376,"4277":14377,"4243":14378,"plans":14379,"6229":14380,"l_index":14381,"8543":14382,"stacked":14383,"bfs_map":14384,"A_2":14385,"newS":14386,"8677":14387,"8629":14388,"8681":14389,"46e":14390,"num_max":14391,"num_str":14392,"3499":14393,"get_result":14394,"get_value":14395,"Ind":14396,"Initi":14397,"base_1_count":14398,"adjl":14399,"vvv":14400,"ets":14401,"syn":14402,"REE_":14403,"ngb":14404,"p_lis":14405,"chara":14406,"リストにして":14407,"input_int":14408,"gyo":14409,"now_cost":14410,"_yet":14411,"last_index":14412,"b7e":14413,"jibun":14414,"v_odd":14415,"wik":14416,"cycle_":14417,"delete_node":14418,"cube":14419,"Stack":14420,"ればよい":14421,"最小値を":14422,"destroy":14423,"mod_pow":14424,"(-(-(":14425,"left_folded":14426,"ij_gcd":14427,"Fib":14428,"mask_":14429,"after_t":14430,"Update":14431,"swapcase":14432,"examB":14433,"200005":14434,"columns":14435,"can_reach":14436,"can_see":14437,"wa_count":14438,"slope":14439,"pre_order":14440,"Match":14441,"surplus":14442,"###############################################################################":14443,"(','))":14444,"bash":14445,"another_c":14446,"pypy3":14447,"ライブラ":14448,"min_dist_dict":14449,"taking":14450,"dropwhile":14451,"各頂点への最短距離":14452,"ss2nn":14453,"donut":14454,"gosen_c":14455,"LinkedList":14456,"とりだ":14457,"missing_d":14458,"評価入れる":14459,"solving":14460,"14159265358979":14461,"isSameGroup":14462,"ここに評価入れる":14463,"START":14464,"Module":14465,"branch":14466,"rikaido":14467,"animals":14468,"n以上の最小の2のべき乗":14469,"dimension":14470,"ライブラリ":14471,"'(":14472,"0D":14473,"0l":14474,"0q":14475,"063":14476,"047":14477,"1番目":14478,"2分":14479,"4W":14480,"5U":14481,"5l":14482,"5o":14483,"6L":14484,"6j":14485,"6m":14486,"8l":14487,"9D":14488,"9i":14489,"9z":14490,":{}'.":14491,"Asum":14492,"B_i":14493,"K_":14494,"N_d":14495,"Smax":14496,"Wlist":14497,"[{":14498,"]>>":14499,"_or":14500,"_old":14501,"aR":14502,"aと":14503,"aは":14504,"acount":14505,"a13":14506,"afa":14507,"a29":14508,"a52":14509,"a09":14510,"a4e":14511,"a6e":14512,"bK":14513,"bV":14514,"bab":14515,"b12":14516,"bip":14517,"b83":14518,"b23":14519,"bri":14520,"b09":14521,"b78":14522,"blow":14523,"c47":14524,"c_b":14525,"c70":14526,"c8e":14527,"dC":14528,"d12":14529,"draw_":14530,"d88":14531,"d09":14532,"dcf":14533,"d6f":14534,"d8e":14535,"elist":14536,"fG":14537,"fN":14538,"fde":14539,"f73":14540,"f4f":14541,"fmt":14542,"furui":14543,"got":14544,"hC":14545,"hop":14546,"iJ":14547,"iV":14548,"kB":14549,"kF":14550,"kd":14551,"kut":14552,"mtx":14553,"nA":14554,"nI":14555,"nU":14556,"pH":14557,"pX":14558,"r_i":14559,"sJ":14560,"tds":14561,"uC":14562,"uO":14563,"udo":14564,"えず":14565,"がる":14566,"たり":14567,"とした":14568,"と正解する":14569,"の値が":14570,"を素因数分解":14571,"を取る":14572,"ゴリ":14573,"互い":14574,"公約数を":14575,"切る":14576,"合う":14577,"始まる":14578,"有向グラフ":14579,"構成":14580,"訪れた":14581,"調べ":14582,"選んだ":14583,"飛ば":14584,"１つ":14585,"ｙｐ":14586,"ori_":14587,"inpm":14588,"inps":14589,"gen_":14590,"dee":14591,"ans_s":14592,"liter":14593,"coup":14594,"))&":14595,"1057":14596,"1073":14597,"][:-":14598,"])].":14599,"impossible":14600,"on_":14601,"onon":14602,"9941":14603,"__modinv":14604,"arrange":14605,"(\"...":14606,"alst":14607,"maxT":14608,"\")*":14609,"[]]":14610,"str_i":14611,"mozi":14612,"1143":14613,"1151":14614,"1179":14615,"cnt_dict":14616,"sum_c":14617,"po2":14618,"poly":14619,"tol":14620,"to_bin":14621,"1209":14622,"modmul":14623,"]*((":14624,"1937":14625,"assign":14626,"774":14627,"2057":14628,"2093":14629,"cur_y":14630,"1723":14631,"]=((":14632,"6799":14633,"6717":14634,"6739":14635,"574":14636,"8731":14637,"4951":14638,"8963":14639,"8941":14640,"8971":14641,"298":14642,"2939":14643,"continuous":14644,"6027":14645,"1811":14646,"1887":14647,"getchar":14648,"w_i":14649,"5019":14650,"5021":14651,"336":14652,"]]!=":14653,"johns":14654,"max_N":14655,"infinite":14656,"8051":14657,"8079":14658,"4087":14659,"6177":14660,"6143":14661,"value_list":14662,"value_table":14663,"8147":14664,"264":14665,"2611":14666,"2623":14667,"3049":14668,"nextlist":14669,"array2":14670,"378":14671,"3733":14672,"possi":14673,"a_c":14674,"a_lis":14675,"a_plus":14676,"a_minus":14677,"lsb":14678,"df1":14679,"5521":14680,"972":14681,"dic_c":14682,"''):":14683,"2551":14684,"invr":14685,"6523":14686,"6527":14687,"6863":14688,"6817":14689,"6829":14690,"48e":14691,"9999999999999999":14692,"min_N":14693,"min_time":14694,"4543":14695,"4583":14696,"2253":14697,"divisible":14698,"4441":14699,"732":14700,"734":14701,"graph2":14702,"6619":14703,"6659":14704,"c_idx":14705,"n_to_":14706,"ACC":14707,"diff_y":14708,"54e":14709,"5857":14710,"4229":14711,"4261":14712,"div_":14713,"6253":14714,"l_r":14715,"852":14716,"856":14717,"8513":14718,"bf0":14719,"8419":14720,"A_tmp":14721,"5659":14722,"lastx":14723,"aki":14724,"words_num":14725,"\"#\"):":14726,"_snu":14727,"5261":14728,"LEFT":14729,"3853":14730,"3877":14731,"num_array":14732,"['+":14733,"5003":14734,"ないｙｐ":14735,"bc0":14736,"loop_size":14737,"tmp_1":14738,"tmp_S":14739,"kienai":14740,"1000000001":14741,"get_primes":14742,"get_space":14743,"f05":14744,"7253":14745,"list_2":14746,"conditions":14747,"efit":14748,"_town":14749,"uteki":14750,"all_edge":14751,"rev_dict":14752,"_2_":14753,"ATCODER":14754,"pattern_":14755,"pattern1":14756,"vscode":14757,"4003":14758,"頂点v":14759,"v_even":14760,"100000000000":14761,"Remain":14762,"combinations_with_replacement_count":14763,"small_":14764,"配列の":14765,"build_":14766,"guusuu":14767,"={'":14768,"]]+[":14769,"log2ないｙｐ":14770,"shiro":14771,"incidents":14772,"non_prime":14773,"sushi_list":14774,"として読み込み":14775,"+'=":14776,"経路圧縮":14777,"games":14778,"box_row_":14779,"NextNode":14780,"convolve":14781,"再帰回数上限":14782,"pypyでやる":14783,"end_leaves":14784,"relative":14785,"標準入力を配列":14786,"数値リストにして":14787,"serial":14788,"naive":14789,"quick_sort":14790,"expect":14791,"連結成分":14792,"Solver":14793,"間にスペース":14794,"▒▒▒▒":14795,"ss2nnn":14796,"compres":14797,"Pow2":14798,"kari_":14799,"transpose":14800,"'>':":14801,"editorial":14802,"battle_dict":14803,"extensions":14804,"greedy":14805,"読み込んで数値リストにして":14806,"00ff00ff":14807,"COLOR":14808,"ーション":14809,"pythonで無理なときは":14810,"エラトステネスの篩":14811,"Raises":14812,"unpackして":14813,"Copy":14814,"優先度付きキュー":14815,"mokuteki":14816,"と正解するかも":14817,"johnson":14818,"n_to_10":14819,"pypyでやると正解するかも":14820,"標準入力を配列として読み込み":14821,"読み込んで数値リストにして返します":14822,"\"\").":14823,"'==":14824,"0L":14825,"0r":14826,"3K":14827,"3N":14828,"5H":14829,"7F":14830,"7z":14831,"8Z":14832,"8w":14833,">;":14834,"Amin":14835,"Add":14836,"Cls":14837,"Fin":14838,"Hig":14839,"Nの":14840,"N個の":14841,"QI":14842,"Rot":14843,"Stop":14844,"Sparam":14845,"YR":14846,"_main":14847,"_parents":14848,"_roots":14849,"_indices":14850,"a53":14851,"a89":14852,"a97":14853,"aida":14854,"b77":14855,"bfa":14856,"b18":14857,"b_a":14858,"c83":14859,"c89":14860,"dZ":14861,"dmax":14862,"dfa":14863,"d18":14864,"d01":14865,"fT":14866,"fed":14867,"f43":14868,"f83":14869,"f21":14870,"fbb":14871,"f09":14872,"f1e":14873,"f8e":14874,"f8f":14875,"fmm":14876,"hA":14877,"hstack":14878,"hIndex":14879,"kI":14880,"kns":14881,"lT":14882,"nG":14883,"oO":14884,"oY":14885,"opr":14886,"ome":14887,"p10":14888,"rA":14889,"rZ":14890,"tT":14891,"vrs":14892,"wIndex":14893,"xX":14894,"がj":14895,"たので":14896,"でdefault":14897,"の範囲":14898,"はでdefault":14899,"わる":14900,"スライ":14901,"フェ":14902,"マン":14903,"ャン":14904,"ング":14905,"並べ":14906,"交換":14907,"使える":14908,"倍数を":14909,"出した":14910,"分だけ":14911,"最適":14912,"表示":14913,"in1":14914,"anako":14915,"li3":14916,"for文":14917,"may":14918,"inpl_str":14919,"reqs":14920,"reference":14921,"):])":14922,"rans":14923,"ranges":14924,"delit":14925,"ded_":14926,"cos_":14927,"listB":14928,"listN":14929,"list_n":14930,"era":14931,"1029":14932,"__built":14933,"dij":14934,"think":14935,"dpd":14936,"11451":14937,"cntl":14938,"cnt_max":14939,"mainasu":14940,"res3":14941,"readints":14942,"tobu":14943,"topological":14944,"12e":14945,"1211":14946,"1279":14947,"islice":14948,"ce0":14949,"13e":14950,"1307":14951,"set_a":14952,"\"\"):":14953,"vec1":14954,"\":[],":14955,"accept":14956,"19e":14957,"1943":14958,"left_index":14959,"dae":14960,"oppos":14961,"7741":14962,"4369":14963,"4301":14964,"4391":14965,"8387":14966,"8361":14967,"238":14968,"4753":14969,"4757":14970,"6749":14971,"57e":14972,"not_c":14973,"6959":14974,"6907":14975,"6971":14976,"]==[":14977,"]=='#'):":14978,"892":14979,"1803":14980,"get_max":14981,"siro":14982,"5069":14983,"5073":14984,"necess":14985,"2199":14986,"max_ind":14987,"max_number":14988,"max_height":14989,"8063":14990,"8033":14991,"40e":14992,"4029":14993,"4039":14994,"idx_t":14995,"artex":14996,"8167":14997,"prime_count":14998,"[[(":14999,"mation":15000,"304":15001,"start_i":15002,"3739":15003,"5587":15004,"5589":15005,"outlet":15006,"1487":15007,"6481":15008,"ases":15009,"252":15010,"2577":15011,"2563":15012,"4899":15013,"conb":15014,"conbin":15015,"conda3":15016,"4549":15017,"2229":15018,"4463":15019,"4423":15020,"4417":15021,"4427":15022,"y_2":15023,"882":15024,"move_":15025,"c_r":15026,"n_2":15027,"n_path":15028,"n_nodes":15029,"5443":15030,"する時に":15031,"5849":15032,"5861":15033,"3617":15034,"1663":15035,"3217":15036,"x_sorted":15037,"x_right":15038,"4283":15039,"pythonFi":15040,"mia":15041,"85e":15042,"new_g":15043,"new_dist":15044,"sum_time":15045,"8423":15046,"A_min":15047,"newdice":15048,"next_i":15049,"DP1":15050,"word_of_":15051,"8699":15052,"4663":15053,"LEAF":15054,")==(":15055,"3889":15056,"num_1":15057,"[''.":15058,"からの距離":15059,"get_input":15060,"get_parent":15061,"get_sieve_of_eratosthenes":15062,"してい":15063,"してください":15064,"9817":15065,"9887":15066,"Inte":15067,"plus_now":15068,"insert_index":15069,"minus_now":15070,"b_2":15071,"b_x":15072,"b_index":15073,"count_dic":15074,"twice":15075,"kazo":15076,"_large":15077,"_rate":15078,"4001":15079,"4007":15080,"uuuu":15081,"要素を":15082,"????????????????????????":15083,"ith_stdio":15084,"nex_node":15085,"minima":15086,"ことに注意":15087,"len_T":15088,"#######":15089,"\"-\")":15090,"Tour":15091,"leted":15092,"raises":15093,"処理する":15094,"64397":15095,"initiali":15096,"right_folded":15097,"needtobu":15098,"LazySegmentTree":15099,"ship":15100,"これを":15101,"examA":15102,"DOWN":15103,"ったらループを抜ける":15104,"iled":15105,"kabe":15106,"小さい方":15107,"とすると":15108,"parser":15109,"binary_tree":15110,"数字を":15111,"Taro":15112,"survi":15113,"action_table":15114,"が同じグループ":15115,"EVEN":15116,"ing_here":15117,"propagate_":15118,"まだ使われて":15119,"anaconda3":15120,"Disjoint":15121,"soinsu":15122,"fennec":15123,"'@'":15124,"1001001001":15125,"c_with_stdio":15126,"adjacent_list":15127,"\"/\":":15128,"\">\":":15129,"(\"##\")":15130,"から最小値を":15131,"Double":15132,"の最小値を出力":15133,"123456789":15134,"original_mid":15135,"始点sから各頂点への最短距離":15136,"Hash":15137,"max_ending_here":15138,"SCORE":15139,"sync_with_stdio":15140,"再帰回数上限はでdefault":15141,"delitem":15142,"opposite":15143,"pythonFiles":15144,"word_of_cell":15145,"再帰回数上限はでdefault1000":15146,"+\"+\"+":15147,"+'+'+":15148,"-%":15149,"051":15150,"2X":15151,"2g":15152,"3J":15153,"3W":15154,"4C":15155,"4F":15156,"5G":15157,"5N":15158,"5R":15159,"5V":15160,"5h":15161,"5r":15162,"6D":15163,"6t":15164,"7m":15165,"9X":15166,"Apr":15167,"An_":15168,"Alg":15169,"CLO":15170,"FLO":15171,"KD":15172,"KT":15173,"Lst":15174,"Llist":15175,"Mar":15176,"Nを":15177,"\\\\":15178,"]]),":15179,"_I":15180,"_collections":15181,"_tuple":15182,"_price":15183,"_vec":15184,"_rotate":15185,"aW":15186,"aed":15187,"a30":15188,"a5f":15189,"around":15190,"bT":15191,"b47":15192,"b89":15193,"b33":15194,"b24":15195,"b45":15196,"b38":15197,"bdb":15198,"b8f":15199,"cP":15200,"c43":15201,"c61":15202,"c90":15203,"c93":15204,"c66":15205,"c95":15206,"dpr":15207,"dsum":15208,"ddf":15209,"dba":15210,"d94":15211,"dc3":15212,"fF":15213,"fO":15214,"fz":15215,"f17":15216,"fad":15217,"f33":15218,"f24":15219,"hurui":15220,"iU":15221,"i個":15222,"ire":15223,"kN":15224,"kin":15225,"king":15226,"killed":15227,"lJ":15228,"lU":15229,"language":15230,"mD":15231,"nD":15232,"nE":15233,"pse":15234,"qP":15235,"rsl":15236,"swe":15237,"tR":15238,"t_count":15239,"t_sum":15240,"t_counter":15241,"turu":15242,"uP":15243,"uS":15244,"ube":15245,"wU":15246,"whole":15247,"xI":15248,"xsum":15249,"yJ":15250,"yX":15251,"あえず":15252,"がn":15253,"が正":15254,"があれば":15255,"けど":15256,"ちゃ":15257,"とし":15258,"の色":15259,"の探索":15260,"の部分":15261,"を出す":15262,"ゴー":15263,"レム":15264,"レベル":15265,"個とりだ":15266,"内容":15267,"出来":15268,"利用":15269,"時計":15270,"総和":15271,"達成":15272,"選択":15273,"関数の":15274,"inlist":15275,"()][":15276,"li_a":15277,"utable":15278,"printed":15279,"ansC":15280,"coun":15281,"listS":15282,"list_i":15283,"1037":15284,"])]=":15285,"reading":15286,"__dat":15287,"__file":15288,"__rtr":15289,"dir_":15290,"maxans":15291,"\")-":15292,"\")])":15293,"[]):":15294,"minsum":15295,"1133":15296,"cnt_t":15297,"')>":15298,"!='":15299,"':('":15300,"1317":15301,"1367":15302,"1357":15303,"1397":15304,"id2":15305,"kekk":15306,"absol":15307,"1913":15308,"usiro":15309,"tep":15310,"535":15311,"5309":15312,"2077":15313,"2073":15314,"ques":15315,"cur_cost":15316,"8347":15317,"chk2":15318,"6379":15319,"2347":15320,"2303":15321,"00001":15322,"1741":15323,"6759":15324,"6761":15325,"5937":15326,"2741":15327,"4953":15328,"fae":15329,"2927":15330,"2909":15331,"one_int":15332,"dist_s":15333,"sorted_nums":15334,"6051":15335,"tempy":15336,"186":15337,"1827":15338,"w_offset":15339,"]))*":15340,"5057":15341,"2423":15342,"2489":15343,"2143":15344,"2183":15345,"arr_data":15346,"max_r":15347,"max_digit":15348,"5159":15349,"nowv":15350,"nowNode":15351,"8043":15352,"8059":15353,"8049":15354,"8097":15355,"4043":15356,"4047":15357,"4059":15358,"ingredi":15359,"ffee":15360,"cost_sum":15361,"8177":15362,"2683":15363,"nextDP":15364,"pre_sum":15365,"3719":15366,"aae":15367,"a_j":15368,"a_idx":15369,"lsa":15370,"below":15371,"5577":15372,"6499":15373,"6483":15374,"2599":15375,"2569":15376,"2863":15377,"all_sum":15378,"6551":15379,"68e":15380,"6887":15381,"min_ind":15382,"point2":15383,"4519":15384,"2283":15385,"string_to_int":15386,"8887":15387,"counter2":15388,"c_info":15389,"visited2":15390,"shake":15391,"d_x":15392,"n_tmp":15393,"3187":15394,"5441":15395,"する関数":15396,"3643":15397,"i_s":15398,"x_left":15399,"iru":15400,"substring":15401,"6257":15402,"6259":15403,"8461":15404,"A_abs":15405,"5687":15406,"5651":15407,"lasty":15408,"last_num":15409,"8623":15410,"52e":15411,"5227":15412,"4659":15413,"3863":15414,"currentMax":15415,"8219":15416,"8253":15417,"8243":15418,"5009":15419,"ない頂点":15420,"3517":15421,"Sequ":15422,"7853":15423,"7877":15424,"get_gcd":15425,"f0e":15426,"していない":15427,"7583":15428,"pair_count":15429,"9883":15430,"inserted":15431,"insert_node":15432,"cython":15433,"mymax":15434,"myAnswer":15435,"msn":15436,"TreeWalk":15437,"a3e":15438,"now_num":15439,"t_min":15440,"ndots":15441,"changed":15442,"prov":15443,"mmm":15444,"a9e":15445,"4831":15446,"roundUp":15447,"len_array":15448,"Read":15449,"New":15450,"bestSco":15451,"pmen":15452,"のときの":15453,"OPT":15454,"になるまで":15455,"Implemented":15456,"できるか":15457,"AOJ":15458,"each_":15459,"それ以外":15460,"Move":15461,"town_list":15462,"ここまで":15463,"cur_stage":15464,"examF":15465,"回数が":15466,"-(-(":15467,"_force":15468,"fixed_":15469,"ruisekiwa_":15470,"sup_v":15471,"EFESTIVAL":15472,"deliver":15473,"Costs":15474,"divided":15475,"の中から最小":15476,"いた場合":15477,"CODEFESTIVAL":15478,"せるお":15479,"隣接行列":15480,"BitCount":15481,"Fenwick":15482,"int_log":15483,"の2個とりだ":15484,"use_magic":15485,"最初の":15486,"見ていく":15487,"stair":15488,"き換え":15489,"Multip":15490,"cuptbl":15491,"とりあえず":15492,"tileb":15493,"candyList":15494,"iからj":15495,"-------------------------------------------------------------":15496,"skill_":15497,"\"@\":":15498,"get_nums_l":15499,"アルゴリ":15500,"attrgetter":15501,"Build":15502,"の距離のものを探す":15503,"flowers":15504,"succession":15505,"くっつける":15506,"period":15507,"elapsed_time":15508,"consist":15509,"additional":15510,"adjacency_list":15511,"で最大の2個とりだ":15512,"まだ使われてない頂点":15513,"ゴーレム":15514,"__file__":15515,"__rtrue":15516,"の中から最小の距離のものを探す":15517,"アルゴリズ":15518,"で最大の2個とりだせるお":15519,"まだ使われてない頂点の中から最小の距離のものを探す":15520,"0O":15521,"041":15522,"1L":15523,"2の":15524,"3M":15525,"4B":15526,"4P":15527,"4h":15528,"4o":15529,"4v":15530,"5ee":15531,"6C":15532,"6F":15533,"6n":15534,"7C":15535,"7N":15536,"7X":15537,"8G":15538,"8X":15539,"8x":15540,"9A":15541,"9V":15542,"9n":15543,":][":15544,":]==":15545,"Brown":15546,"Cut":15547,"Hos":15548,"KG":15549,"KL":15550,"W_":15551,"Y_":15552,"['#'":15553,"_List":15554,"_init":15555,"_dfs":15556,"a00":15557,"a90":15558,"a93":15559,"a6f":15560,"bC":15561,"bF":15562,"b69":15563,"b29":15564,"b34":15565,"bd2":15566,"cH":15567,"cZ":15568,"c49":15569,"c34":15570,"c8f":15571,"dO":15572,"d11":15573,"d27":15574,"d24":15575,"d97":15576,"d14":15577,"d90":15578,"d75":15579,"flist":15580,"fce":15581,"f77":15582,"fcd":15583,"f41":15584,"f07":15585,"hint":15586,"hull":15587,"iil":15588,"kU":15589,"kX":15590,"kans":15591,"lZ":15592,"mB":15593,"mI":15594,"m_cnt":15595,"mmn":15596,"nck":15597,"oJ":15598,"oV":15599,"qg":15600,"rP":15601,"rfact":15602,"tU":15603,"tW":15604,"tsize":15605,"tList":15606,"xを追加":15607,"yuk":15608,"、(":15609,"すぎ":15610,"せよ":15611,"その最小値を出力":15612,"との":15613,"なゾ":15614,"の初期化":15615,"は必ず":15616,"もう":15617,"を1":15618,"を取":15619,"を確認":15620,"を増やす":15621,"ヒープ":15622,"モンス":15623,"ーン":15624,"三角":15625,"全なゾ":15626,"効率":15627,"向き":15628,"周期":15629,"安全なゾ":15630,"完全":15631,"対応":15632,"少ない":15633,"引き":15634,"盤面":15635,"目に":15636,"複数の":15637,"選べる":15638,"開催":15639,"順で":15640,"()*":15641,"intv":15642,"pri_":15643,"):]:":15644,"==[":15645,"enqueue":15646,"de7":15647,"dem":15648,"ansA":15649,"ansB":15650,"mapp":15651,"1059":15652,"ito":15653,"uel":15654,"onal":15655,"__eq":15656,"arai":15657,"maxf":15658,"maxcnt":15659,"num0":15660,"\")):":15661,"('+":15662,"minm":15663,"str_a":15664,"ab1":15665,"sume":15666,"hei":15667,"exclude":15668,"toRemoveList":15669,"1219":15670,"1253":15671,"1239":15672,"isdecimal":15673,"1393":15674,"??§":15675,"]*(-":15676,"unsigned":15677,"7773":15678,"7703":15679,"2043":15680,"cur_x":15681,"638":15682,"6343":15683,"2341":15684,"000000":15685,"4707":15686,"ads":15687,"6787":15688,"6727":15689,"6791":15690,"5733":15691,"5981":15692,"8707":15693,"4959":15694,"4903":15695,"69e":15696,"6911":15697,"895":15698,"89e":15699,"8917":15700,"8933":15701,"fare":15702,"6041":15703,"ind2":15704,"updates":15705,"1853":15706,"siki":15707,"5047":15708,"5027":15709,"5071":15710,"keyw":15711,"key_lower":15712,"arrs":15713,"5199":15714,"8099":15715,"8013":15716,"8083":15717,"8027":15718,"8021":15719,"4011":15720,"4037":15721,"ff9":15722,"s_arr":15723,"s_new":15724,"cost_c":15725,"306":15726,"3037":15727,"nextp":15728,"root2":15729,"LII":15730,"3919":15731,"'.']":15732,"##########":15733,"pos_list":15734,"dfe":15735,"solve2":15736,"lst_s":15737,"1451":15738,"6429":15739,"15e":15740,"2543":15741,"282":15742,"2877":15743,"2867":15744,"quo":15745,"6583":15746,"6587":15747,"6561":15748,"6859":15749,"6827":15750,"4857":15751,"4859":15752,"4887":15753,"4829":15754,"4861":15755,"min_A":15756,"min_color":15757,"795":15758,"45e":15759,"4577":15760,"4517":15761,"tax8":15762,"cumsat":15763,"4489":15764,"is_possible":15765,"8867":15766,"8821":15767,"useful":15768,"6649":15769,"color_mod":15770,"ceil_":15771,"20190":15772,"585":15773,"3659":15774,"1613":15775,"4253":15776,"4217":15777,"4269":15778,"sub2":15779,"62e":15780,"6243":15781,"6223":15782,"l_idx":15783,"a1f":15784,"mix":15785,"mizu":15786,"8521":15787,"new_ans":15788,"new_pos":15789,"bf7":15790,"lrs":15791,"5253":15792,"4699":15793,"4649":15794,"STC":15795,"からの":15796,"3527":15797,"loop_length":15798,"tmp_j":15799,"r_mod":15800,")**.":15801,"ION":15802,"ba8":15803,"cae":15804,"IntLog":15805,"uf_road":15806,"7499":15807,"b_in":15808,"b_size":15809,"RENT":15810,"code_":15811,"リストの要素":15812,"testmod":15813,"fileinput":15814,"ae0":15815,"now_idx":15816,"now_pos":15817,"now_vertex":15818,"jection":15819,"before_a":15820,"Div":15821,"seqs":15822,"pattern2":15823,"v_next":15824,"erson":15825,"[],[],[]":15826,"ERN":15827,"xyz_count":15828,"````":15829,"初期入力":15830,"ものは":15831,"配列を":15832,"first_survi":15833,"bunkai":15834,"luca":15835,"Values":15836,"cuts":15837,"(\"%.":15838,"Two":15839,"iew":15840,"mojiretu":15841,"の要素数を":15842,"_number_list":15843,"total_score":15844,"composite":15845,"ごとの":15846,"Product":15847,"Peak":15848,"に対する":15849,"取り出すこと":15850,"になった":15851,"受け取り":15852,"__rpow__":15853,"入れよう":15854,"\"\"\"\"\"\"\"\"\"\"\"\"\"\"\"\"":15855,"volume":15856,"seats":15857,"リストのソート":15858,"standard":15859,"使用例":15860,"YAKI":15861,"MakeDivisors":15862,"duplicate":15863,"occu":15864,"ChangeBase":15865,"ipedia":15866,"detect":15867,"9223372036854775807":15868,"duration":15869,"personal_best_scores":15870,"_ruisekiwa":15871,"セグメント木":15872,"に要素xを追加":15873,"split_print_":15874,"register":15875,"dividual":15876,"coupon":15877,"kazoe":15878,"から最小値を削除":15879,"アルゴリズム":15880,"yukichi":15881,"モンスター":15882,"安全なゾーン":15883,"__eq__":15884,"first_survived":15885,"';":15886,"+'-'+":15887,"0F":15888,"0Q":15889,"0V":15890,"0i":15891,"0u":15892,"0w":15893,"027":15894,"2Q":15895,"2o":15896,"2以上":15897,"3g":15898,"3l":15899,"3n":15900,"4J":15901,"4S":15902,"4Z":15903,"4i":15904,"4t":15905,"5C":15906,"5J":15907,"5K":15908,"5S":15909,"5T":15910,"6A":15911,"6E":15912,"6P":15913,"7E":15914,"7R":15915,"7u":15916,"8P":15917,"8T":15918,"8U":15919,"8Y":15920,"8p":15921,"9B":15922,"9I":15923,"9O":15924,"9W":15925,"9h":15926,">//":15927,"A_num":15928,"Bの":15929,"Flow":15930,"Gmap":15931,"Hsum":15932,"Lis":15933,"LtoS":15934,"SME":15935,"Tre":15936,"X_r":15937,"_ex":15938,"_test":15939,"_offset":15940,"_steps":15941,"aD":15942,"aM":15943,"aP":15944,"a19":15945,"a57":15946,"bD":15947,"bJ":15948,"bY":15949,"ber":15950,"b17":15951,"b67":15952,"b57":15953,"b41":15954,"b100":15955,"b97":15956,"b73":15957,"b93":15958,"b54":15959,"brr":15960,"b5f":15961,"c77":15962,"c57":15963,"c60":15964,"c24":15965,"c58":15966,"dS":15967,"dmp":15968,"dst_":15969,"d58":15970,"d38":15971,"d03":15972,"eO":15973,"eV":15974,"eprint":15975,"fD":15976,"fE":15977,"fH":15978,"fS":15979,"fU":15980,"f99":15981,"f57":15982,"f64":15983,"f96":15984,"fb3":15985,"f4e":15986,"jan":15987,"kV":15988,"kita":15989,"mans":15990,"nAns":15991,"oG":15992,"rG":15993,"rit":15994,"rjust":15995,"sK":15996,"t_s":15997,"tate_":15998,"wA":15999,"wB":16000,"wQ":16001,"wil":16002,"xG":16003,"x_a":16004,"xfw":16005,"yV":16006,"yw":16007,"がi":16008,"じめ":16009,"せん":16010,"で約":16011,"で終わ":16012,"と思":16013,"とその":16014,"の桁":16015,"の候補":16016,"の前計算":16017,"やって":16018,"を得":16019,"を1回":16020,"ん中":16021,"ケース":16022,"スキ":16023,"パー":16024,"プロ":16025,"レータ":16026,"体力":16027,"何回":16028,"各桁":16029,"商品":16030,"始める":16031,"差分":16032,"平方":16033,"持ち":16034,"未確定":16035,"無限":16036,"無向グラフ":16037,"的な":16038,"直接":16039,"確率":16040,"符号":16041,"込む":16042,"選び":16043,"選んで":16044,"都市":16045,"関数を":16046,"lis_":16047,"fort":16048,"sell":16049,"seed_":16050,"())*":16051,"map取得":16052,"list0":16053,"list5":16054,"1023":16055,"1041":16056,"])-(":16057,"return_sorted":16058,"end_a":16059,"ats":16060,"len_c":16061,"9949":16062,"__rank":16063,"ara":16064,"arc":16065,"count_num":16066,"count_i":16067,"('{:":16068,"mini_":16069,"ab3":16070,"1137":16071,"sumList":16072,"hether":16073,"pol":16074,"readint":16075,"tmp_i":16076,"isho":16077,"ce2":16078,"1300":16079,"??°":16080,"igue":16081,"aclist":16082,"unding":16083,"5399":16084,"8323":16085,"]+'-'+":16086,"]+'...')":16087,"ch2":16088,"63e":16089,"cd3":16090,"4739":16091,"6729":16092,"conts":16093,"4919":16094,"6937":16095,"8913":16096,"8959":16097,"8989":16098,"fa9":16099,"6019":16100,"6057":16101,"temp_max":16102,"ind_":16103,"1863":16104,"1857":16105,"1859":16106,"fact_list":16107,"2461":16108,"2407":16109,"job_":16110,"arrA":16111,"max_6":16112,"8047":16113,"4053":16114,"4063":16115,"4051":16116,"6157":16117,"4167":16118,"s_row":16119,"s_like":16120,"8159":16121,"2629":16122,"3079":16123,"item1":16124,"items_":16125,"root_list":16126,"comb_mod":16127,"start_node":16128,"'.')":16129,"374":16130,"posA":16131,"a_counter":16132,"check1":16133,"5513":16134,"975":16135,"6459":16136,"1511":16137,"1549":16138,"2583":16139,"2523":16140,"2527":16141,"2529":16142,"2581":16143,"28e":16144,"2817":16145,"2881":16146,"all_cnt":16147,"65e":16148,"st_func":16149,"List_S":16150,"binomi":16151,"9029":16152,"6877":16153,"4853":16154,"4867":16155,"constra":16156,"llint":16157,"llstr":16158,"4599":16159,"taken":16160,"2243":16161,"2217":16162,"2257":16163,"2259":16164,"tree1":16165,"factorial_":16166,"piv":16167,"4443":16168,"is_kaibun":16169,"pat2":16170,"8827":16171,"use_num":16172,"use_r":16173,"use_p":16174,"6623":16175,"c_cnt":16176,"d_a":16177,"diff_x":16178,"5419":16179,"5881":16180,"prev_node":16181,"prev_v":16182,"1669":16183,"i_p":16184,"i_index":16185,"4219":16186,"]+=(":16187,"6269":16188,"flg2":16189,"c1e":16190,"8581":16191,"new_i":16192,"sum_h":16193,"8443":16194,"8467":16195,"8459":16196,"A_lst":16197,"5683":16198,"next_t":16199,"8647":16200,"4669":16201,"71e":16202,"3821":16203,"current_sum":16204,"currentNode":16205,"img":16206,"Selection":16207,"3463":16208,"3457":16209,"tmp_val":16210,"してる":16211,"Init":16212,"bly":16213,"r_int":16214,"7517":16215,"undred":16216,"base_point":16217,"98e":16218,"read_tuple":16219,"_cnts":16220,"7699":16221,"7487":16222,"zerocnt":16223,"zeros_like":16224,"cyc":16225,"9277":16226,"opened":16227,"場合分け":16228,"リストaの":16229,"list_1":16230,"cb7":16231,"candle":16232,"make_primes":16233,"i2n":16234,"i2nn":16235,"t_d":16236,"t_dict":16237,"_longest":16238,"ってい":16239,"ndarray":16240,"BCDE":16241,"projection":16242,"rypt":16243,"a7e":16244,"kwarg":16245,"wiki":16246,"f9e":16247,"manage":16248,"ので注意":16249,"?????????????????":16250,"signs":16251,"lbx":16252,"NI_":16253,"cnt_even":16254,"出力例":16255,"8001":16256,"e9e":16257,"(\"#\"+":16258,"curr_max":16259,"dual":16260,"first_pos":16261,"同じ集合に属する":16262,"largeA":16263,"pushする時に":16264,"parts":16265,"check_point":16266,"ched_box":16267,"hante":16268,"left_stones":16269,"大きな":16270,"HPP":16271,"my_gcd":16272,"hit_keys":16273,"popcountX":16274,"set_value":16275,"increment":16276,"2000000":16277,"nonlocal":16278,")+\"=":16279,"始点ノード":16280,"circles":16281,"R_posi":16282,"Colum":16283,"(\"?\")":16284,"1を掛けて":16285,"といけない":16286,"にして入れよう":16287,"hihihi":16288,"use_trial":16289,"planes":16290,"eat_":16291,"played":16292,"selectionSort":16293,"割り算":16294,"を出力する":16295,"一致する":16296,"情報を":16297,"waiting":16298,"マイナスにして入れよう":16299,"繰り返す":16300,"重み付き":16301,"エラー":16302,"使わない":16303,"bin_str_a":16304,"高速化":16305,"最大値を取り出す時は":16306,"base_n_to_10":16307,"じゃない":16308,"タプルリストのソート":16309,"heap化されたリストaに要素xを追加":16310,"heap化されたリストaから最小値を削除":16311,"coeffici":16312,"silver":16313,"Floyd":16314,"colour":16315,"たどり着":16316,"larger":16317,"cumulative_sum":16318,"二分木検索":16319,"期待値":16320,"fatigue":16321,"Shorten":16322,"BinarySearchTree":16323,"wikipedia":16324,"brick":16325,"Rotation":16326,"\":[],\"":16327,"Sequence":16328,"CODEFESTIVAL2016":16329,"use_rho":16330,"use_pm1":16331,"リストaのheap化":16332,"pushする時にマイナスにして入れよう":16333,"1を掛けて取り出すこと":16334,"(|":16335,")>>":16336,"+':":16337,",((":16338,"0Y":16339,"039":16340,"079":16341,"093":16342,"1U":16343,"3p":16344,"4M":16345,"4U":16346,"4V":16347,"5B":16348,"5I":16349,"5M":16350,"5897":16351,"6I":16352,"6K":16353,"6T":16354,"6v":16355,"7T":16356,"8D":16357,"8S":16358,"8h":16359,"8m":16360,"8v":16361,"8z":16362,"9U":16363,"90000":16364,"Ato":16365,"Ass":16366,"City":16367,"Date":16368,"DS1":16369,"LST":16370,"Lim":16371,"Mone":16372,"MXI":16373,"Over":16374,"PATH":16375,"R_sum":16376,"_mat":16377,"_stones":16378,"_damage":16379,"aU":16380,"a77":16381,"a43":16382,"a69":16383,"a18":16384,"a33":16385,"a70":16386,"a35":16387,"a8f":16388,"bU":16389,"bW":16390,"b43":16391,"b40":16392,"b88":16393,"b32":16394,"brank":16395,"b95":16396,"b72":16397,"b94":16398,"cT":16399,"cU":16400,"cV":16401,"c20":16402,"came":16403,"c59":16404,"cfa":16405,"c40":16406,"c48":16407,"c54":16408,"c56":16409,"c5e":16410,"d83":16411,"d29":16412,"d15":16413,"d79":16414,"eu":16415,"e_max":16416,"fX":16417,"f49":16418,"f97":16419,"f58":16420,"f6e":16421,"gam":16422,"gates":16423,"imap":16424,"istr":16425,"jD":16426,"jpy":16427,"kG":16428,"k個":16429,"lD":16430,"lH":16431,"lX":16432,"lres":16433,"mX":16434,"mcf":16435,"nque":16436,"pN":16437,"phi":16438,"qB":16439,"rH":16440,"rli":16441,"ssp":16442,"smal":16443,"snd":16444,"tsum":16445,"tch":16446,"t_c":16447,"uT":16448,"uW":16449,"wz":16450,"wat":16451,"xs2":16452,"yの":16453,"が等":16454,"が先に":16455,"と同":16456,"と階乗の":16457,"に属":16458,"に素":16459,"の高さ":16460,"ダー":16461,"一回":16462,"下に":16463,"回す":16464,"手の":16465,"抽出":16466,"目標":16467,"示す":16468,"行き":16469,"見る":16470,"長い":16471,"ino":16472,"inx":16473,"in_s":16474,"inconvenience":16475,"individual":16476,"()#":16477,"separ":16478,"magi":16479,"rance":16480,"())[::-":16481,"==\"#\":":16482,"ansls":16483,"))>":16484,"ument":16485,"1077":16486,"lem":16487,"leave":16488,"])#":16489,"returned":16490,"apply_":16491,"itches":16492,"at_":16493,"ators":16494,"994":16495,"995":16496,"rounding":16497,"arp_":16498,"ys2":16499,"maxValue":16500,"thod":16501,"numx":16502,"launch":16503,"str_N":16504,"mochi":16505,"abn":16506,"1130":16507,"1131":16508,"from1":16509,"poi":16510,"lowest_":16511,"tmp4":16512,"1267":16513,"1227":16514,"1273":16515,"isOk":16516,"vec2":16517,"keisu":16518,"\":(\"":16519,"ac3":16520,"acc2":16521,"--;":16522,"undirected":16523,"1959":16524,"usable":16525,"5339":16526,"775":16527,"que1":16528,"cur_pos":16529,
[...]
