{"version":"1.0","truncation":null,"padding":null,"added_tokens":[{"id":0,"special":true,"content":"[UNK]","single_word":false,"lstrip":false,"rstrip":false,"normalized":false},{"id":1,"special":true,"content":"[CLS]","single_word":false,"lstrip":false,"rstrip":false,"normalized":false},{"id":2,"special":true,"content":"[SEP]","single_word":false,"lstrip":false,"rstrip":false,"normalized":false},{"id":3,"special":true,"content":"[PAD]","single_word":false,"lstrip":false,"rstrip":false,"normalized":false},{"id":4,"special":true,"content":"[MASK]","single_word":false,"lstrip":false,"rstrip":false,"normalized":false}],"normalizer":null,"pre_tokenizer":{"type":"Whitespace"},"post_processor":null,"decoder":null,"model":{"type":"BPE","dropout":null,"unk_token":"[UNK]","continuing_subword_prefix":null,"end_of_word_suffix":null,"fuse_unk":false,"vocab":{"[UNK]":0,"[CLS]":1,"[SEP]":2,"[PAD]":3,"[MASK]":4,"\u0000":5,"\u0001":6,"\u0002":7,"\u0004":8,"\u0005":9,"\b":10,"\u000e":11,"\u000f":12,"\u0010":13,"\u0017":14,"\u001a":15,"\u001b":16,"\u001d":17,"!":18,"\"":19,"#":20,"$":21,"%":22,"&":23,"'":24,"(":25,")":26,"*":27,"+":28,",":29,"-":30,".":31,"/":32,"0":33,"1":34,"2":35,"3":36,"4":37,"5":38,"6":39,"7":40,"8":41,"9":42,":":43,";":44,"<":45,"=":46,">":47,"?":48,"@":49,"A":50,"B":51,"C":52,"D":53,"E":54,"F":55,"G":56,"H":57,"I":58,"J":59,"K":60,"L":61,"M":62,"N":63,"O":64,"P":65,"Q":66,"R":67,"S":68,"T":69,"U":70,"V":71,"W":72,"X":73,"Y":74,"Z":75,"[":76,"\\":77,"]":78,"^":79,"_":80,"`":81,"a":82,"b":83,"c":84,"d":85,"e":86,"f":87,"g":88,"h":89,"i":90,"j":91,"k":92,"l":93,"m":94,"n":95,"o":96,"p":97,"q":98,"r":99,"s":100,"t":101,"u":102,"v":103,"w":104,"x":105,"y":106,"z":107,"{":108,"|":109,"}":110,"~":111,"":112,"":113,"":114,"":115,"":116,"":117,"":118,"":119,"":120,"":121,"":122,"":123,"":124,"":125,"¢":126,"£":127,"¥":128,"¦":129,"§":130,"¨":131,"©":132,"ª":133,"¬":134,"°":135,"±":136,"²":137,"³":138,"´":139,"¶":140,"·":141,"Å":142,"Ç":143,"Ñ":144,"×":145,"Û":146,"Ý":147,"ß":148,"à":149,"á":150,"â":151,"ã":152,"å":153,"æ":154,"ç":155,"é":156,"ê":157,"í":158,"ö":159,"÷":160,"ü":161,"ć":162,"č":163,"ı":164,"ĺ":165,"Ľ":166,"ł":167,"Ō":168,"ŏ":169,"ő":170,"ş":171,"š":172,"ž":173,"Ƃ":174,"Ȃ":175,"ȍ":176,"Ȑ":177,"Ɋ":178,"ɑ":179,"ˇ":180,"̃":181,"̎":182,"̕":183,"͋":184,"͐":185,"Δ":186,"Θ":187,"Π":188,"Σ":189,"Φ":190,"Ω":191,"α":192,"β":193,"γ":194,"ε":195,"θ":196,"ι":197,"π":198,"ρ":199,"φ":200,"ω":201,"А":202,"Б":203,"Г":204,"Е":205,"З":206,"И":207,"Й":208,"К":209,"М":210,"Н":211,"О":212,"П":213,"Р":214,"С":215,"Т":216,"У":217,"Ь":218,"Ю":219,"Я":220,"а":221,"б":222,"г":223,"д":224,"е":225,"и":226,"й":227,"к":228,"л":229,"м":230,"н":231,"о":232,"п":233,"р":234,"с":235,"т":236,"у":237,"ч":238,"ш":239,"ь":240,"ո":241,"ا":242,"ب":243,"ح":244,"ر":245,"س":246,"ل":247,"م":248,"ن":249,"ه":250,"ي":251,"َ":252,"ِ":253,"ّ":254,"ْ":255,"ٰ":256,"܂":257,"ݍ":258,"ก":259,"ข":260,"ค":261,"ง":262,"จ":263,"ช":264,"ซ":265,"ด":266,"ต":267,"ถ":268,"ท":269,"น":270,"บ":271,"ป":272,"ผ":273,"พ":274,"ม":275,"ย":276,"ร":277,"ล":278,"ว":279,"ส":280,"ห":281,"อ":282,"ะ":283,"ั":284,"า":285,"ำ":286,"ิ":287,"ี":288,"ึ":289,"ื":290,"ุ":291,"ู":292,"เ":293,"แ":294,"โ":295,"ใ":296,"ไ":297,"ๆ":298,"็":299,"่":300,"้":301,"ậ":302,"ố":303,"ồ":304,"ỗ":305,"ử":306,"​":307,"‐":308,"–":309,"—":310,"―":311,"‘":312,"’":313,"“":314,"”":315,"†":316,"•":317,"…":318,"‬":319,"′":320,"※":321,"⁄":322,"⁴":323,"⁵":324,"ⁿ":325,"₌":326,"℅":327,"K":328,"Ⅲ":329,"Ⅼ":330,"←":331,"↑":332,"→":333,"↓":334,"↖":335,"↗":336,"↘":337,"↙":338,"↲":339,"⇄":340,"⇒":341,"⇔":342,"⇛":343,"⇨":344,"∀":345,"∈":346,"∑":347,"−":348,"∗":349,"∙":350,"√":351,"∞":352,"∠":353,"∧":354,"∨":355,"∩":356,"∪":357,"∫":358,"∴":359,"∵":360,"∽":361,"≈":362,"≒":363,"≠":364,"≡":365,"≤":366,"≥":367,"≦":368,"≧":369,"⊂":370,"⊃":371,"⊆":372,"⊥":373,"⋀":374,"⋅":375,"⋮":376,"⋯":377,"⌊":378,"⌋":379,"⌓":380,"①":381,"②":382,"③":383,"④":384,"⑤":385,"⑥":386,"⑦":387,"⑧":388,"⑨":389,"⑩":390,"Ⓑ":391,"─":392,"━":393,"│":394,"┃":395,"┏":396,"┐":397,"└":398,"┗":399,"┘":400,"┬":401,"═":402,"║":403,"╔":404,"╗":405,"╚":406,"╝":407,"╠":408,"╣":409,"╦":410,"╩":411,"╬":412,"▀":413,"▄":414,"█":415,"░":416,"▒":417,"■":418,"□":419,"▲":420,"△":421,"▶":422,"▽":423,"◆":424,"○":425,"◎":426,"●":427,"◯":428,"★":429,"☆":430,"☑":431,"☓":432,"✕":433,"✖":434,"✗":435,"✪":436,"✳":437,"➘":438,"➡":439,"⼊":440,"⼤":441,"⼩":442,"⽤":443,"⾏":444,"⾒":445,"、":446,"。":447,"〃":448,"々":449,"〇":450,"「":451,"」":452,"『":453,"』":454,"【":455,"】":456,"〜":457,"ぁ":458,"あ":459,"ぃ":460,"い":461,"ぅ":462,"う":463,"ぇ":464,"え":465,"ぉ":466,"お":467,"か":468,"が":469,"き":470,"ぎ":471,"く":472,"ぐ":473,"け":474,"げ":475,"こ":476,"ご":477,"さ":478,"ざ":479,"し":480,"じ":481,"す":482,"ず":483,"せ":484,"ぜ":485,"そ":486,"ぞ":487,"た":488,"だ":489,"ち":490,"ぢ":491,"っ":492,"つ":493,"づ":494,"て":495,"で":496,"と":497,"ど":498,"な":499,"に":500,"ぬ":501,"ね":502,"の":503,"は":504,"ば":505,"ぱ":506,"ひ":507,"び":508,"ぴ":509,"ふ":510,"ぶ":511,"ぷ":512,"へ":513,"べ":514,"ぺ":515,"ほ":516,"ぼ":517,"ぽ":518,"ま":519,"み":520,"む":521,"め":522,"も":523,"ゃ":524,"や":525,"ゅ":526,"ゆ":527,"ょ":528,"よ":529,"ら":530,"り":531,"る":532,"れ":533,"ろ":534,"わ":535,"を":536,"ん":537,"゙":538,"゚":539,"゜":540,"ァ":541,"ア":542,"ィ":543,"イ":544,"ゥ":545,"ウ":546,"ェ":547,"エ":548,"ォ":549,"オ":550,"カ":551,"ガ":552,"キ":553,"ギ":554,"ク":555,"グ":556,"ケ":557,"ゲ":558,"コ":559,"ゴ":560,"サ":561,"ザ":562,"シ":563,"ジ":564,"ス":565,"ズ":566,"セ":567,"ゼ":568,"ソ":569,"ゾ":570,"タ":571,"ダ":572,"チ":573,"ッ":574,"ツ":575,"テ":576,"デ":577,"ト":578,"ド":579,"ナ":580,"ニ":581,"ヌ":582,"ネ":583,"ノ":584,"ハ":585,"バ":586,"パ":587,"ヒ":588,"ビ":589,"ピ":590,"フ":591,"ブ":592,"プ":593,"ヘ":594,"ベ":595,"ペ":596,"ホ":597,"ボ":598,"ポ":599,"マ":600,"ミ":601,"ム":602,"メ":603,"モ":604,"ャ":605,"ヤ":606,"ュ":607,"ユ":608,"ョ":609,"ヨ":610,"ラ":611,"リ":612,"ル":613,"レ":614,"ロ":615,"ワ":616,"ン":617,"ヴ":618,"ヶ":619,"・":620,"ー":621,"ヽ":622,"一":623,"丁":624,"七":625,"万":626,"丈":627,"三":628,"上":629,"下":630,"不":631,"与":632,"且":633,"世":634,"丘":635,"両":636,"两":637,"並":638,"个":639,"中":640,"串":641,"丸":642,"为":643,"主":644,"丼":645,"久":646,"么":647,"义":648,"之":649,"乗":650,"乘":651,"九":652,"也":653,"乡":654,"乱":655,"乳":656,"亀":657,"了":658,"予":659,"争":660,"事":661,"二":662,"于":663,"云":664,"互":665,"五":666,"井":667,"些":668,"亜":669,"亡":670,"交":671,"产":672,"京":673,"亭":674,"人":675,"什":676,"今":677,"介":678,"从":679,"仕":680,"他":681,"付":682,"仙":683,"代":684,"令":685,"以":686,"们":687,"仮":688,"仰":689,"仲":690,"件":691,"价":692,"任":693,"份":694,"企":695,"伊":696,"伏":697,"伐":698,"休":699,"会":700,"伝":701,"传":702,"估":703,"伴":704,"伸":705,"似":706,"但":707,"位":708,"低":709,"住":710,"佑":711,"体":712,"何":713,"余":714,"佛":715,"作":716,"佬":717,"併":718,"使":719,"例":720,"供":721,"依":722,"価":723,"侧":724,"侵":725,"便":726,"係":727,"俗":728,"保":729,"信":730,"修":731,"俳":732,"俺":733,"個":734,"倍":735,"倒":736,"候":737,"借":738,"値":739,"值":740,"假":741,"偉":742,"偏":743,"做":744,"停":745,"側":746,"偶":747,"偽":748,"傍":749,"備":750,"傫":751,"催":752,"傷":753,"傾":754,"働":755,"像":756,"僕":757,"價":758,"儀":759,"億":760,"優":761,"儲":762,"元":763,"兄":764,"充":765,"兆":766,"先":767,"光":768,"免":769,"児":770,"入":771,"內":772,"全":773,"八":774,"公":775,"六":776,"共":777,"兵":778,"其":779,"具":780,"典":781,"兼":782,"内":783,"円":784,"冊":785,"再":786,"冒":787,"冗":788,"写":789,"冪":790,"冬":791,"决":792,"况":793,"冷":794,"凄":795,"准":796,"凌":797,"凍":798,"减":799,"凑":800,"凡":801,"処":802,"凸":803,"凹":804,"出":805,"击":806,"函":807,"刀":808,"分":809,"切":810,"刈":811,"列":812,"则":813,"初":814,"删":815,"判":816,"別":817,"利":818,"别":819,"到":820,"制":821,"刷":822,"券":823,"刺":824,"刻":825,"則":826,"削":827,"前":828,"剣":829,"剥":830,"剰":831,"割":832,"創":833,"力":834,"功":835,"加":836,"务":837,"动":838,"助":839,"励":840,"労":841,"効":842,"勇":843,"勉":844,"動":845,"勘":846,"務":847,"勝":848,"勢":849,"勤":850,"勧":851,"勾":852,"勿":853,"包":854,"化":855,"北":856,"匹":857,"区":858,"十":859,"千":860,"升":861,"午":862,"半":863,"卓":864,"協":865,"单":866,"南":867,"単":868,"博":869,"占":870,"印":871,"危":872,"即":873,"却":874,"厄":875,"历":876,"压":877,"厚":878,"原":879,"厳":880,"去":881,"参":882,"又":883,"叉":884,"及":885,"友":886,"双":887,"反":888,"収":889,"发":890,"取":891,"受":892,"变":893,"叙":894,"口":895,"古":896,"句":897,"另":898,"叩":899,"只":900,"召":901,"可":902,"台":903,"右":904,"叶":905,"号":906,"司":907,"各":908,"合":909,"吉":910,"同":911,"名":912,"后":913,"吐":914,"向":915,"君":916,"吟":917,"否":918,"含":919,"吶":920,"吸":921,"吹":922,"吾":923,"呂":924,"呆":925,"呈":926,"告":927,"呢":928,"周":929,"呪":930,"味":931,"呼":932,"命":933,"和":934,"咕":935,"品":936,"响":937,"員":938,"唯":939,"唱":940,"商":941,"問":942,"善":943,"喚":944,"喜":945,"喧":946,"喰":947,"営":948,"嘘":949,"嘩":950,"噂":951,"噌":952,"噛":953,"器":954,"四":955,"回":956,"因":957,"団":958,"困":959,"囲":960,"図":961,"围":962,"固":963,"国":964,"图":965,"圏":966,"園":967,"土":968,"圧":969,"在":970,"地":971,"均":972,"垂":973,"型":974,"垢":975,"埋":976,"城":977,"域":978,"基":979,"堀":980,"堂":981,"報":982,"場":983,"堺":984,"塊":985,"塔":986,"塗":987,"塚":988,"塞":989,"塩":990,"填":991,"境":992,"増":993,"壁":994,"壇":995,"壊":996,"士":997,"声":998,"壱":999,"売":1000,"壹":1001,"处":1002,"変":1003,"复":1004,"夏":1005,"外":1006,"多":1007,"夜":1008,"够":1009,"夢":1010,"大":1011,"天":1012,"太":1013,"夫":1014,"央":1015,"失":1016,"头":1017,"夹":1018,"奇":1019,"奖":1020,"套":1021,"奥":1022,"奨":1023,"女":1024,"奴":1025,"好":1026,"如":1027,"妙":1028,"妥":1029,"妨":1030,"妹":1031,"姉":1032,"始":1033,"委":1034,"姫":1035,"威":1036,"媒":1037,"嫌":1038,"嬉":1039,"子":1040,"字":1041,"存":1042,"季":1043,"孤":1044,"学":1045,"孩":1046,"孫":1047,"宅":1048,"宇":1049,"守":1050,"安":1051,"完":1052,"官":1053,"定":1054,"宛":1055,"宜":1056,"宝":1057,"実":1058,"客":1059,"宣":1060,"室":1061,"宮":1062,"宰":1063,"害":1064,"家":1065,"容":1066,"宿":1067,"寄":1068,"密":1069,"富":1070,"寒":1071,"寝":1072,"察":1073,"寧":1074,"審":1075,"寸":1076,"对":1077,"导":1078,"対":1079,"寿":1080,"封":1081,"専":1082,"射":1083,"将":1084,"尋":1085,"導":1086,"小":1087,"少":1088,"尖":1089,"尚":1090,"就":1091,"尺":1092,"尻":1093,"尽":1094,"尾":1095,"局":1096,"居":1097,"屈":1098,"届":1099,"屋":1100,"屑":1101,"展":1102,"属":1103,"層":1104,"履":1105,"山":1106,"岐":1107,"岩":1108,"島":1109,"崩":1110,"嵌":1111,"州":1112,"巡":1113,"巣":1114,"工":1115,"左":1116,"巧":1117,"巨":1118,"差":1119,"己":1120,"巻":1121,"市":1122,"布":1123,"希":1124,"帝":1125,"師":1126,"席":1127,"帯":1128,"帰":1129,"帳":1130,"常":1131,"帽":1132,"幂":1133,"幅":1134,"幣":1135,"干":1136,"平":1137,"年":1138,"并":1139,"幸":1140,"幹":1141,"幼":1142,"幾":1143,"広":1144,"床":1145,"序":1146,"库":1147,"应":1148,"底":1149,"店":1150,"度":1151,"座":1152,"庫":1153,"庭":1154,"廃":1155,"廟":1156,"延":1157,"建":1158,"廻":1159,"开":1160,"弁":1161,"异":1162,"弄":1163,"式":1164,"弐":1165,"弓":1166,"引":1167,"弟":1168,"弥":1169,"弦":1170,"弧":1171,"弱":1172,"張":1173,"強":1174,"弾":1175,"归":1176,"当":1177,"录":1178,"彙":1179,"形":1180,"彩":1181,"彫":1182,"影":1183,"役":1184,"彼":1185,"往":1186,"径":1187,"待":1188,"律":1189,"後":1190,"徐":1191,"徒":1192,"従":1193,"得":1194,"從":1195,"御":1196,"復":1197,"循":1198,"微":1199,"徳":1200,"徴":1201,"徹":1202,"心":1203,"必":1204,"忆":1205,"志":1206,"忘":1207,"応":1208,"快":1209,"念":1210,"忽":1211,"态":1212,"怒":1213,"怖":1214,"思":1215,"急":1216,"性":1217,"怪":1218,"怯":1219,"总":1220,"恋":1221,"恐":1222,"恒":1223,"恥":1224,"恩":1225,"息":1226,"恵":1227,"悔":1228,"悟":1229,"悤":1230,"悩":1231,"悪":1232,"悲":1233,"情":1234,"惇":1235,"惜":1236,"惠":1237,"惰":1238,"想":1239,"意":1240,"愕":1241,"愚":1242,"愛":1243,"感":1244,"態":1245,"慎":1246,"慣":1247,"慮":1248,"憩":1249,"憶":1250,"懃":1251,"懸":1252,"成":1253,"我":1254,"戒":1255,"或":1256,"戦":1257,"戸":1258,"戻":1259,"所":1260,"扇":1261,"扉":1262,"手":1263,"才":1264,"打":1265,"払":1266,"执":1267,"扱":1268,"找":1269,"承":1270,"技":1271,"把":1272,"抑":1273,"投":1274,"抗":1275,"折":1276,"抜":1277,"択":1278,"抱":1279,"抵":1280,"押":1281,"抽":1282,"担":1283,"拍":1284,"拓":1285,"拘":1286,"拝":1287,"拠":1288,"拡":1289,"择":1290,"括":1291,"拼":1292,"拾":1293,"拿":1294,"持":1295,"指":1296,"按":1297,"挑":1298,"挙":1299,"挟":1300,"振":1301,"挿":1302,"捉":1303,"捌":1304,"捕":1305,"捜":1306,"换":1307,"捨":1308,"据":1309,"捻":1310,"掃":1311,"授":1312,"掉":1313,"排":1314,"掘":1315,"掛":1316,"採":1317,"探":1318,"接":1319,"控":1320,"推":1321,"掻":1322,"揃":1323,"描":1324,"提":1325,"插":1326,"換":1327,"握":1328,"援":1329,"損":1330,"搜":1331,"搬":1332,"搭":1333,"携":1334,"摂":1335,"摘":1336,"撃":1337,"撤":1338,"播":1339,"撮":1340,"操":1341,"據":1342,"擬":1343,"擲":1344,"支":1345,"改":1346,"攻":1347,"放":1348,"故":1349,"救":1350,"敗":1351,"教":1352,"敢":1353,"散":1354,"敬":1355,"数":1356,"整":1357,"敵":1358,"敷":1359,"數":1360,"文":1361,"斉":1362,"斐":1363,"料":1364,"斜":1365,"斥":1366,"斬":1367,"断":1368,"新":1369,"方":1370,"於":1371,"施":1372,"旅":1373,"旋":1374,"族":1375,"无":1376,"既":1377,"日":1378,"旦":1379,"旧":1380,"旨":1381,"早":1382,"时":1383,"昇":1384,"明":1385,"易":1386,"昔":1387,"星":1388,"映":1389,"昨":1390,"是":1391,"昼":1392,"時":1393,"晩":1394,"普":1395,"景":1396,"晴":1397,"暇":1398,"暑":1399,"暖":1400,"暗":1401,"暦":1402,"暫":1403,"暮":1404,"暴":1405,"曇":1406,"曜":1407,"曝":1408,"曰":1409,"曲":1410,"更":1411,"書":1412,"曽":1413,"替":1414,"最":1415,"會":1416,"月":1417,"有":1418,"朗":1419,"望":1420,"朝":1421,"期":1422,"木":1423,"未":1424,"末":1425,"本":1426,"札":1427,"朴":1428,"权":1429,"杉":1430,"材":1431,"村":1432,"束":1433,"条":1434,"来":1435,"杯":1436,"東":1437,"松":1438,"板":1439,"构":1440,"析":1441,"林":1442,"枚":1443,"果":1444,"枝":1445,"枠":1446,"枯":1447,"架":1448,"柄":1449,"染":1450,"柔":1451,"柱":1452,"査":1453,"栄":1454,"标":1455,"树":1456,"栓":1457,"校":1458,"株":1459,"样":1460,"根":1461,"格":1462,"桁":1463,"案":1464,"械":1465,"棄":1466,"棒":1467,"棟":1468,"森":1469,"椅":1470,"植":1471,"検":1472,"業":1473,"極":1474,"楽":1475,"概":1476,"榊":1477,"構":1478,"槌":1479,"様":1480,"槭":1481,"標":1482,"模":1483,"権":1484,"横":1485,"樹":1486,"橋":1487,"橙":1488,"機":1489,"檎":1490,"欄":1491,"欠":1492,"次":1493,"欲":1494,"歌":1495,"止":1496,"正":1497,"此":1498,"武":1499,"歩":1500,"歯":1501,"歳":1502,"歴":1503,"死":1504,"殊":1505,"残":1506,"殖":1507,"殴":1508,"段":1509,"殺":1510,"殻":1511,"殿":1512,"母":1513,"毎":1514,"每":1515,"比":1516,"氏":1517,"民":1518,"気":1519,"水":1520,"永":1521,"求":1522,"汎":1523,"汚":1524,"池":1525,"決":1526,"沈":1527,"没":1528,"沢":1529,"油":1530,"治":1531,"沼":1532,"沿":1533,"況":1534,"泊":1535,"法":1536,"泡":1537,"波":1538,"泣":1539,"泥":1540,"注":1541,"泳":1542,"洗":1543,"洞":1544,"活":1545,"派":1546,"流":1547,"浅":1548,"浮":1549,"海":1550,"消":1551,"液":1552,"涼":1553,"深":1554,"混":1555,"添":1556,"清":1557,"渇":1558,"済":1559,"渉":1560,"減":1561,"渡":1562,"渦":1563,"温":1564,"測":1565,"港":1566,"湖":1567,"湯":1568,"満":1569,"源":1570,"準":1571,"溘":1572,"溜":1573,"溢":1574,"溶":1575,"滅":1576,"滑":1577,"滞":1578,"满":1579,"漏":1580,"演":1581,"漱":1582,"漸":1583,"潔":1584,"潜":1585,"潤":1586,"潰":1587,"澄":1588,"濃":1589,"濠":1590,"濡":1591,"灘":1592,"火":1593,"灯":1594,"灰":1595,"炉":1596,"炊":1597,"炎":1598,"炮":1599,"点":1600,"為":1601,"烛":1602,"焚":1603,"無":1604,"然":1605,"焼":1606,"煉":1607,"煎":1608,"煙":1609,"照":1610,"煩":1611,"煮":1612,"熟":1613,"熱":1614,"燃":1615,"燭":1616,"爆":1617,"父":1618,"片":1619,"版":1620,"物":1621,"牲":1622,"特":1623,"犠":1624,"犬":1625,"状":1626,"狂":1627,"狙":1628,"狩":1629,"独":1630,"狭":1631,"狼":1632,"猫":1633,"献":1634,"猶":1635,"猿":1636,"獄":1637,"獣":1638,"獲":1639,"玄":1640,"率":1641,"玉":1642,"王":1643,"环":1644,"现":1645,"玲":1646,"班":1647,"現":1648,"球":1649,"理":1650,"璧":1651,"環":1652,"瓦":1653,"甘":1654,"生":1655,"産":1656,"用":1657,"田":1658,"由":1659,"申":1660,"电":1661,"男":1662,"町":1663,"画":1664,"界":1665,"畑":1666,"留":1667,"略":1668,"番":1669,"異":1670,"畳":1671,"疎":1672,"疏":1673,"疑":1674,"疲":1675,"痛":1676,"痴":1677,"療":1678,"癖":1679,"発":1680,"登":1681,"白":1682,"百":1683,"的":1684,"皆":1685,"皿":1686,"益":1687,"監":1688,"盤":1689,"目":1690,"直":1691,"相":1692,"盾":1693,"省":1694,"看":1695,"県":1696,"真":1697,"眠":1698,"眺":1699,"眼":1700,"着":1701,"瞬":1702,"瞭":1703,"矛":1704,"矢":1705,"知":1706,"矩":1707,"短":1708,"石":1709,"码":1710,"砂":1711,"研":1712,"砕":1713,"破":1714,"硬":1715,"确":1716,"碁":1717,"碰":1718,"確":1719,"磁":1720,"礎":1721,"示":1722,"礼":1723,"社":1724,"祈":1725,"祖":1726,"祝":1727,"神":1728,"祥":1729,"票":1730,"祭":1731,"禁":1732,"福":1733,"离":1734,"秀":1735,"私":1736,"种":1737,"科":1738,"秒":1739,"秘":1740,"秤":1741,"积":1742,"称":1743,"移":1744,"稀":1745,"程":1746,"税":1747,"稚":1748,"種":1749,"稼":1750,"稿":1751,"積":1752,"穴":1753,"究":1754,"空":1755,"突":1756,"窓":1757,"窟":1758,"立":1759,"竜":1760,"章":1761,"端":1762,"競":1763,"竸":1764,"笑":1765,"符":1766,"第":1767,"筆":1768,"等":1769,"筋":1770,"筐":1771,"筒":1772,"答":1773,"策":1774,"箇":1775,"算":1776,"箚":1777,"管":1778,"箱":1779,"節":1780,"範":1781,"築":1782,"篩":1783,"簡":1784,"籍":1785,"米":1786,"类":1787,"粉":1788,"粋":1789,"粒":1790,"精":1791,"糖":1792,"糞":1793,"系":1794,"約":1795,"納":1796,"紐":1797,"純":1798,"紙":1799,"級":1800,"紛":1801,"素":1802,"索":1803,"紫":1804,"累":1805,"細":1806,"紹":1807,"終":1808,"組":1809,"経":1810,"結":1811,"絞":1812,"絡":1813,"給":1814,"統":1815,"絵":1816,"絶":1817,"継":1818,"続":1819,"維":1820,"網":1821,"綺":1822,"綻":1823,"総":1824,"緑":1825,"緒":1826,"線":1827,"締":1828,"編":1829,"緩":1830,"練":1831,"縁":1832,"縄":1833,"縛":1834,"縦":1835,"縫":1836,"縮":1837,"縺":1838,"績":1839,"繁":1840,"繊":1841,"繋":1842,"織":1843,"繝":1844,"繧":1845,"繰":1846,"纏":1847,"红":1848,"约":1849,"线":1850,"结":1851,"给":1852,"统":1853,"继":1854,"续":1855,"维":1856,"绿":1857,"缩":1858,"缶":1859,"罠":1860,"置":1861,"罰":1862,"羅":1863,"羊":1864,"美":1865,"群":1866,"義":1867,"羽":1868,"翌":1869,"習":1870,"翻":1871,"翼":1872,"考":1873,"者":1874,"耐":1875,"耗":1876,"耳":1877,"聖":1878,"聞":1879,"聴":1880,"職":1881,"肉":1882,"肝":1883,"肢":1884,"肩":1885,"肯":1886,"育":1887,"背":1888,"能":1889,"脇":1890,"脈":1891,"脚":1892,"脱":1893,"脳":1894,"腑":1895,"腕":1896,"腹":1897,"膨":1898,"膳":1899,"臨":1900,"自":1901,"臭":1902,"至":1903,"致":1904,"興":1905,"舎":1906,"舐":1907,"舗":1908,"舞":1909,"航":1910,"般":1911,"船":1912,"良":1913,"色":1914,"节":1915,"芋":1916,"花":1917,"芸":1918,"芽":1919,"若":1920,"苦":1921,"英":1922,"苹":1923,"苺":1924,"范":1925,"茶":1926,"草":1927,"荷":1928,"莫":1929,"获":1930,"菓":1931,"菜":1932,"菱":1933,"落":1934,"葉":1935,"蒼":1936,"蓄":1937,"蓮":1938,"蔵":1939,"薄":1940,"薦":1941,"薫":1942,"薬":1943,"藤":1944,"藻":1945,"虑":1946,"虚":1947,"虫":1948,"虱":1949,"蛇":1950,"蛍":1951,"蛙":1952,"蛮":1953,"蛸":1954,"蛻":1955,"蜈":1956,"蜑":1957,"蜡":1958,"蜷":1959,"蝋":1960,"蝶":1961,"融":1962,"螳":1963,"螺":1964,"螻":1965,"蟻":1966,"蠕":1967,"行":1968,"術":1969,"街":1970,"衝":1971,"衡":1972,"补":1973,"表":1974,"袋":1975,"被":1976,"裁":1977,"裂":1978,"装":1979,"裏":1980,"裕":1981,"補":1982,"製":1983,"褄":1984,"複":1985,"襲":1986,"西":1987,"要":1988,"覆":1989,"見":1990,"規":1991,"視":1992,"覗":1993,"覚":1994,"覧":1995,"親":1996,"観":1997,"角":1998,"解":1999,"触":2000,"言":2001,"訂":2002,"計":2003,"討":2004,"訓":2005,"託":2006,"記":2007,"訪":2008,"設":2009,"許":2010,"訳":2011,"診":2012,"註":2013,"証":2014,"評":2015,"詞":2016,"試":2017,"詮":2018,"詰":2019,"話":2020,"該":2021,"詳":2022,"認":2023,"誕":2024,"誘":2025,"語":2026,"誠":2027,"誤":2028,"説":2029,"読":2030,"誰":2031,"課":2032,"調":2033,"談":2034,"請":2035,"論":2036,"諦":2037,"諭":2038,"諸":2039,"謎":2040,"講":2041,"謝":2042,"謨":2043,"識":2044,"譜":2045,"警":2046,"譬":2047,"議":2048,"譲":2049,"護":2050,"讐":2051,"计":2052,"让":2053,"记":2054,"论":2055,"设":2056,"评":2057,"试":2058,"该":2059,"语":2060,"误":2061,"说":2062,"请":2063,"谢":2064,"谷":2065,"谺":2066,"豆":2067,"豎":2068,"象":2069,"豪":2070,"豺":2071,"貞":2072,"負":2073,"貢":2074,"貨":2075,"貪":2076,"貫":2077,"貯":2078,"貰":2079,"貴":2080,"買":2081,"貸":2082,"費":2083,"貼":2084,"賃":2085,"賄":2086,"資":2087,"賞":2088,"賢":2089,"質":2090,"購":2091,"负":2092,"质":2093,"贪":2094,"赤":2095,"走":2096,"起":2097,"超":2098,"越":2099,"趣":2100,"足":2101,"跃":2102,"距":2103,"跡":2104,"跨":2105,"路":2106,"跳":2107,"踏":2108,"躍":2109,"身":2110,"車":2111,"軌":2112,"軍":2113,"軒":2114,"軟":2115,"転":2116,"軸":2117,"軽":2118,"較":2119,"載":2120,"輔":2121,"輪":2122,"輸":2123,"转":2124,"轴":2125,"输":2126,"辛":2127,"辞":2128,"農":2129,"边":2130,"辺":2131,"辻":2132,"込":2133,"辿":2134,"迂":2135,"迄":2136,"过":2137,"迎":2138,"运":2139,"近":2140,"返":2141,"还":2142,"这":2143,"迚":2144,"进":2145,"远":2146,"连":2147,"迫":2148,"述":2149,"迷":2150,"追":2151,"退":2152,"送":2153,"适":2154,"逃":2155,"逆":2156,"选":2157,"透":2158,"逐":2159,"递":2160,"途":2161,"這":2162,"通":2163,"速":2164,"造":2165,"連":2166,"週":2167,"進":2168,"逸":2169,"遂":2170,"遅":2171,"遇":2172,"遊":2173,"運":2174,"遍":2175,"過":2176,"道":2177,"達":2178,"違":2179,"遗":2180,"遠":2181,"遡":2182,"遣":2183,"適":2184,"遭":2185,"遷":2186,"選":2187,"遺":2188,"避":2189,"還":2190,"那":2191,"邨":2192,"邪":2193,"邻":2194,"郎":2195,"部":2196,"郵":2197,"都":2198,"配":2199,"酥":2200,"酬":2201,"醜":2202,"釈":2203,"里":2204,"重":2205,"野":2206,"量":2207,"金":2208,"針":2209,"釣":2210,"鈍":2211,"鈴":2212,"鉄":2213,"鉛":2214,"鉢":2215,"鉴":2216,"銀":2217,"銅":2218,"銭":2219,"鋭":2220,"錠":2221,"錬":2222,"録":2223,"鍋":2224,"鍵":2225,"鎖":2226,"鏡":2227,"针":2228,"钝":2229,"链":2230,"锐":2231,"错":2232,"長":2233,"长":2234,"門":2235,"閉":2236,"開":2237,"間":2238,"関":2239,"閥":2240,"閾":2241,"闇":2242,"闘":2243,"间":2244,"阪":2245,"防":2246,"阵":2247,"阻":2248,"阿":2249,"降":2250,"限":2251,"陣":2252,"除":2253,"陥":2254,"陰":2255,"陸":2256,"険":2257,"陽":2258,"隅":2259,"階":2260,"随":2261,"隔":2262,"隕":2263,"隙":2264,"際":2265,"障":2266,"隠":2267,"隣":2268,"隨":2269,"集":2270,"雇":2271,"雑":2272,"雛":2273,"離":2274,"難":2275,"雨":2276,"雪":2277,"雰":2278,"雲":2279,"零":2280,"雷":2281,"電":2282,"需":2283,"霑":2284,"青":2285,"静":2286,"非":2287,"面":2288,"鞄":2289,"音":2290,"響":2291,"頁":2292,"頂":2293,"頃":2294,"項":2295,"順":2296,"須":2297,"預":2298,"頑":2299,"頓":2300,"領":2301,"頭":2302,"頻":2303,"頼":2304,"題":2305,"額":2306,"顔":2307,"願":2308,"類":2309,"顧":2310,"顶":2311,"项":2312,"顺":2313,"题":2314,"颜":2315,"風":2316,"飛":2317,"食":2318,"飲":2319,"飴":2320,"飼":2321,"飽":2322,"飾":2323,"餅":2324,"養":2325,"餘":2326,"館":2327,"首":2328,"香":2329,"馬":2330,"駄":2331,"駅":2332,"駆":2333,"駐":2334,"駒":2335,"騎":2336,"験":2337,"騾":2338,"驚":2339,"骸":2340,"高":2341,"髢":2342,"髭":2343,"鬱":2344,"鬼":2345,"魔":2346,"魚":2347,"鮪":2348,"鱒":2349,"鱗":2350,"鳥":2351,"鳩":2352,"鳴":2353,"鶴":2354,"鹿":2355,"麗":2356,"黄":2357,"黒":2358,"黙":2359,"齟":2360,"齢":2361,"齬":2362,"龍":2363,"꒳":2364,"가":2365,"각":2366,"간":2367,"갈":2368,"감":2369,"값":2370,"갔":2371,"같":2372,"개":2373,"갱":2374,"거":2375,"건":2376,"걸":2377,"것":2378,"게":2379,"겟":2380,"결":2381,"경":2382,"고":2383,"곱":2384,"공":2385,"과":2386,"교":2387,"구":2388,"국":2389,"귀":2390,"그":2391,"근":2392,"급":2393,"기":2394,"깅":2395,"까":2396,"꺼":2397,"꿔":2398,"꿨":2399,"끝":2400,"나":2401,"난":2402,"남":2403,"내":2404,"냐":2405,"냥":2406,"너":2407,"넣":2408,"네":2409,"노":2410,"놓":2411,"는":2412,"늘":2413,"능":2414,"니":2415,"님":2416,"다":2417,"단":2418,"답":2419,"대":2420,"더":2421,"데":2422,"뎃":2423,"도":2424,"동":2425,"되":2426,"된":2427,"됨":2428,"두":2429,"뒤":2430,"드":2431,"든":2432,"들":2433,"듯":2434,"디":2435,"딱":2436,"때":2437,"떻":2438,"똑":2439,"뚝":2440,"라":2441,"람":2442,"래":2443,"략":2444,"러":2445,"런":2446,"렇":2447,"려":2448,"력":2449,"례":2450,"로":2451,"록":2452,"론":2453,"료":2454,"루":2455,"르":2456,"른":2457,"를":2458,"리":2459,"마":2460,"만":2461,"멀":2462,"메":2463,"며":2464,"면":2465,"모":2466,"목":2467,"못":2468,"무":2469,"문":2470,"물":2471,"바":2472,"반":2473,"발":2474,"방":2475,"배":2476,"버":2477,"번":2478,"법":2479,"벤":2480,"변":2481,"별":2482,"보":2483,"봄":2484,"부":2485,"분":2486,"불":2487,"블":2488,"비":2489,"빈":2490,"빠":2491,"사":2492,"산":2493,"상":2494,"새":2495,"색":2496,"생":2497,"서":2498,"선":2499,"설":2500,"세":2501,"소":2502,"속":2503,"수":2504,"순":2505,"숫":2506,"스":2507,"시":2508,"식":2509,"신":2510,"실":2511,"써":2512,"쐬":2513,"씩":2514,"아":2515,"안":2516,"않":2517,"알":2518,"았":2519,"앞":2520,"야":2521,"약":2522,"어":2523,"얼":2524,"업":2525,"없":2526,"에":2527,"엔":2528,"여":2529,"역":2530,"연":2531,"열":2532,"오":2533,"온":2534,"올":2535,"와":2536,"왜":2537,"외":2538,"왼":2539,"요":2540,"용":2541,"우":2542,"운":2543,"위":2544,"윗":2545,"으":2546,"은":2547,"을":2548,"음":2549,"의":2550,"이":2551,"인":2552,"일":2553,"읽":2554,"임":2555,"입":2556,"있":2557,"자":2558,"작":2559,"장":2560,"재":2561,"저":2562,"전":2563,"점":2564,"접":2565,"정":2566,"제":2567,"조":2568,"존":2569,"종":2570,"좋":2571,"좌":2572,"주":2573,"줄":2574,"줌":2575,"중":2576,"줘":2577,"즘":2578,"증":2579,"지":2580,"진":2581,"짐":2582,"집":2583,"짜":2584,"째":2585,"쪽":2586,"쭉":2587,"차":2588,"착":2589,"찾":2590,"책":2591,"처":2592,"체":2593,"초":2594,"최":2595,"출":2596,"카":2597,"칸":2598,"코":2599,"큐":2600,"크":2601,"큰":2602,"클":2603,"큼":2604,"킹":2605,"타":2606,"탐":2607,"택":2608,"터":2609,"턴":2610,"테":2611,"토":2612,"통":2613,"트":2614,"판":2615,"편":2616,"표":2617,"풀":2618,"하":2619,"한":2620,"할":2621,"함":2622,"합":2623,"해":2624,"했":2625,"행":2626,"향":2627,"현":2628,"형":2629,"화":2630,"확":2631,"환":2632,"활":2633,"황":2634,"후":2635,"힌":2636,"":2637,"":2638,"":2639,"":2640,"︎":2641,"️":2642,"！":2643,"＂":2644,"＃":2645,"％":2646,"＆":2647,"（":2648,"）":2649,"＊":2650,"＋":2651,"，":2652,"－":2653,"．":2654,"／":2655,"０":2656,"１":2657,"２":2658,"３":2659,"４":2660,"５":2661,"６":2662,"７":2663,"８":2664,"９":2665,"：":2666,"；":2667,"＜":2668,"＝":2669,"＞":2670,"？":2671,"＠":2672,"Ａ":2673,"Ｂ":2674,"Ｃ":2675,"Ｄ":2676,"Ｅ":2677,"Ｆ":2678,"Ｇ":2679,"Ｊ":2680,"Ｋ":2681,"Ｌ":2682,"Ｍ":2683,"Ｎ":2684,"Ｏ":2685,"Ｐ":2686,"Ｓ":2687,"Ｔ":2688,"Ｕ":2689,"Ｗ":2690,"Ｘ":2691,"Ｙ":2692,"［":2693,"＼":2694,"］":2695,"＾":2696,"＿":2697,"ａ":2698,"ｂ":2699,"ｃ":2700,"ｄ":2701,"ｅ":2702,"ｆ":2703,"ｇ":2704,"ｈ":2705,"ｉ":2706,"ｊ":2707,"ｋ":2708,"ｌ":2709,"ｍ":2710,"ｎ":2711,"ｐ":2712,"ｑ":2713,"ｒ":2714,"ｓ":2715,"ｔ":2716,"ｕ":2717,"ｖ":2718,"ｗ":2719,"ｘ":2720,"ｙ":2721,"ｚ":2722,"｛":2723,"｜":2724,"｝":2725,"～":2726,"｡":2727,"｢":2728,"｣":2729,"､":2730,"･":2731,"ｧ":2732,"ｪ":2733,"ｫ":2734,"ｬ":2735,"ｮ":2736,"ｯ":2737,"ｰ":2738,"ｱ":2739,"ｲ":2740,"ｴ":2741,"ｵ":2742,"ｷ":2743,"ｹ":2744,"ｺ":2745,"ｼ":2746,"ｽ":2747,"ｿ":2748,"ﾀ":2749,"ﾄ":2750,"ﾅ":2751,"ﾋ":2752,"ﾌ":2753,"ﾍ":2754,"ﾎ":2755,"ﾒ":2756,"ﾘ":2757,"ﾛ":2758,"ﾞ":2759,"ﾟ":2760,"￢":2761,"￣":2762,"￥":2763,"�":2764,"𝑎":2765,"𝑏":2766,"𝑝":2767,"𝑞":2768,"𝑥":2769,"𝑲":2770,"𝑷":2771,"🐧":2772,"💕":2773,"💩":2774,"😌":2775,"😎":2776,"🙄":2777,"🙅":2778,"in":2779,"()":2780,"int":2781,"or":2782,"an":2783,"li":2784,"for":2785,"if":2786,"ut":2787,"pr":2788,"se":2789,"st":2790,"ma":2791,"inp":2792,"re":2793,"input":2794,"):":2795,"print":2796,"ge":2797,"ran":2798,"range":2799,"())":2800,"==":2801,"en":2802,"ans":2803,"de":2804,"().":2805,"sp":2806,"lit":2807,"split":2808,"co":2809,"mp":2810,"nt":2811,"map":2812,"00":2813,"lse":2814,"ort":2815,"))":2816,"+=":2817,"list":2818,"ur":2819,"else":2820,"um":2821,"ap":2822,"er":2823,"][":2824,"def":2825,"ret":2826,"le":2827,"])":2828,"urn":2829,"return":2830,"imp":2831,"import":2832,"app":2833,"end":2834,"it":2835,"ue":2836,"ct":2837,"on":2838,"at":2839,"append":2840,"len":2841,"10":2842,"lf":2843,"self":2844,"rea":2845,"unt":2846,"33":2847,"ro":2848,"__":2849,"ar":2850,"ys":2851,"(\"":2852,"count":2853,"AA":2854,"al":2855,"max":2856,"di":2857,"sys":2858,")]":2859,"55":2860,"##":2861,"th":2862,"77":2863,"()))":2864,"num":2865,"('":2866,"\")":2867,"//":2868,"and":2869,"ion":2870,"la":2871,"min":2872,"**":2873,"[]":2874,"str":2875,"12":2876,"me":2877,"dp":2878,"mo":2879,"():":2880,"no":2881,"hi":2882,"cnt":2883,"')":2884,"sum":2885,"fro":2886,"ab":2887,"]:":2888,"he":2889,"from":2890,"main":2891,"lin":2892,"po":2893,"ed":2894,"lif":2895,"elif":2896,"],":2897,"ex":2898,"res":2899,"line":2900,"read":2901,"0000":2902,"din":2903,"<=":2904,"53":2905,"!=":2906,"whi":2907,"while":2908,"to":2909,"57":2910,"lo":2911,"11":2912,"sort":2913,"reak":2914,"break":2915,"99":2916,"es":2917,"tmp":2918,"math":2919,"Tr":2920,"True":2921,"32":2922,"is":2923,"ul":2924,"ions":2925,"AAAA":2926,"ol":2927,"_list":2928,"stdin":2929,"mb":2930,"mod":2931,"44":2932,"readline":2933,">=":2934,"ce":2935,"37":2936,"((":2937,"':":2938,"id":2939,"ra":2940,"set":2941,"col":2942,"--":2943,"[-":2944,"??":2945,"18":2946,"\"\"":2947,"]*":2948,"22":2949,"-=":2950,"\":":2951,"ve":2952,"66":2953,"No":2954,"####":2955,"ke":2956,"ult":2957,"ig":2958,"ft":2959,"ctions":2960,"),":2961,"34":2962,"abs":2963,"val":2964,"ate":2965,"ht":2966,"us":2967,"un":2968,"ac":2969,"te":2970,"left":2971,"78":2972,"19":2973,"Fa":2974,"as":2975,"ime":2976,"op":2977,"Yes":2978,"([":2979,"da":2980,"ip":2981,"que":2982,"16":2983,"54":2984,"np":2985,"False":2986,"=[":2987,"ise":2988,"30":2989,"dex":2990,"cur":2991,"20":2992,"ight":2993,"ch":2994,")):":2995,"[:":2996,"]==":2997,"]-":2998,"]=":2999,"]+":3000,"56":3001,"ame":3002,"index":3003,"24":3004,"not":3005,"38":3006,"].":3007,"colle":3008,"collections":3009,"exit":3010,"28":3011,"cont":3012,"dd":3013,"cd":3014,"ver":3015,"flo":3016,"100":3017,"(-":3018,"36":3019,"lag":3020,"lamb":3021,"lambda":3022,"bise":3023,"bisect":3024,"flag":3025,"AAAAAAAA":3026,"one":3027,"gcd":3028,"contin":3029,"17":3030,"continue":3031,"name":3032,"sorted":3033,"50":3034,"py":3035,"ind":3036,"fa":3037,"59":3038,"ols":3039,"temp":3040,"up":3041,"()]":3042,"dist":3043,"14":3044,"dict":3045,"13":3046,"27":3047,"right":3048,"ne":3049,"get":3050,"OD":3051,"name__":3052,"__name__":3053,"__main":3054,"__main__":3055,"88":3056,"ite":3057,"heap":3058,"iter":3059,"si":3060,"now":3061,"]))":3062,"26":3063,"\",":3064,"key":3065,"ot":3066,"fact":3067,")-":3068,"ext":3069,"ck":3070,"MOD":3071,"29":3072,"39":3073,"]]":3074,"',":3075,"verse":3076,"node":3077,"result":3078,"pop":3079,"----":3080,"jo":3081,"73":3082,"dat":3083,"ai":3084,"ing":3085,"sc":3086,"strip":3087,"76":3088,"w_":3089,"vis":3090,"arr":3091,"idx":3092,"IN":3093,"value":3094,"Co":3095,"inf":3096,"float":3097,"reverse":3098,"max_":3099,"58":3100,"60":3101,")))":3102,"*(":3103,"rt":3104,"heapp":3105,"ss":3106,"tools":3107,"????":3108,"wer":3109,"olve":3110,")+":3111,"deque":3112,"rent":3113,"cost":3114,"itertools":3115,"{}":3116,"prime":3117,"48":3118,"21":3119,"data":3120,"fi":3121,"\"\"\"":3122,"s_":3123,"art":3124,"ze":3125,"[[":3126,"AB":3127,"heapq":3128,"next":3129,"pre":3130,"49":3131,"=[]":3132,"lim":3133,"mat":3134,"bu":3135,"add":3136,"10000":3137,"''":3138,"Count":3139,"comb":3140,"defa":3141,"default":3142,"pos":3143,"ist":3144,"ray":3145,"item":3146,"None":3147,")//":3148,"79":3149,"########":3150,"pa":3151,"root":3152,"limit":3153,"23":3154,"edge":3155,"start":3156,"che":3157,"89":3158,"LI":3159,"577":3160,"array":3161,"join":3162,"factor":3163,"copy":3164,"533":3165,"Counter":3166,"su":3167,"lst":3168,"time":3169,"fun":3170,"gr":3171,"*=":3172,"40":3173,"sion":3174,"ree":3175,"70":3176,"solve":3177,"a_":3178,"tot":3179,"ff":3180,"15":3181,"recur":3182,"69":3183,"defaultdict":3184,"dic":3185,"\".":3186,"ll":3187,"ord":3188,"ber":3189,"recursion":3190,"find":3191,"fs":3192,"recursionlimit":3193,"setrecursionlimit":3194,"ore":3195,"ations":3196,"ush":3197,"'.":3198,"du":3199,"check":3200,"_num":3201,"out":3202,"*-":3203,"_b":3204,"pe":3205,"ty":3206,"ci":3207,"AAAAAAAAAAAAAAAA":3208,"able":3209,"INF":3210,"enum":3211,"erate":3212,"-*-":3213,"_c":3214,"total":3215,"87":3216,"parent":3217,"ls":3218,"enumerate":3219,"ase":3220,"sq":3221,"nu":3222,")*":3223,")%":3224,"List":3225,"size":3226,"factori":3227,"[(":3228,"pow":3229,"64":3230,"per":3231,"il":3232,"rstrip":3233,"score":3234,"ok":3235,"(*":3236,"all":3237,"st_":3238,"bisect_":3239,"]*(":3240,"51":3241,"ad":3242,"67":3243,"number":3244,"mid":3245,"qu":3246,"con":3247,":-":3248,"der":3249,",-":3250,"os":3251,"]):":3252,"dif":3253,"ent":3254,"ding":3255,"answer":3256,"inv":3257,"mpy":3258,"min_":3259,"47":3260,"ri":3261,"bin":3262,"point":3263,"ld":3264,"528":3265,"80":3266,"heappush":3267,"+-":3268,"278":3269,"%=":3270,"numpy":3271,"pro":3272,"fl":3273,"nx":3274,"visit":3275,"utf":3276,"lc":3277,"bo":3278,"_count":3279,"sqrt":3280,"aa":3281,"90":3282,"init":3283,"ep":3284,"384":3285,">>":3286,"coding":3287,"+-+-":3288,"tree":3289,"be":3290,"do":3291,"dfs":3292,"537":3293,"aph":3294,"memo":3295,"<<":3296,"pla":3297,"9999":3298,"buff":3299,"cum":3300,"43":3301,"string":3302,"ack":3303,"combin":3304,")/":3305,"fra":3306,"ors":3307,"..":3308,"lis":3309,"is_":3310,"97":3311,"278528":3312,"16384":3313,"pat":3314,"ES":3315,"42":3316,"factorial":3317,"raw_":3318,"tr":3319,"--------":3320,"557":3321,"ter":3322,"row":3323,"graph":3324,"buffer":3325,"raw_input":3326,"bit":3327,"pi":3328,"377":3329,"NO":3330,"visited":3331,"divis":3332,"_a":3333,"diff":3334,"xy":3335,"arg":3336,"counter":3337,"00000000":3338,"use":3339,"ns":3340,"\",\"":3341,"112":3342,"type":3343,"move":3344,"MA":3345,"ta":3346,"68":3347,"_max":3348,"[::-":3349,"000":3350,"heappop":3351,"com":3352,"place":3353,"table":3354,"x1":3355,"31":3356,"233":3357,"format":3358,"する":3359,"par":3360,"fractions":3361,"ven":3362,"_w":3363,"combinations":3364,"1000":3365,"ho":3366,"lcm":3367,"_s":3368,"AC":3369,"35":3370,"prev":3371,"ny":3372,":]":3373,"cal":3374,"]+=":3375,").":3376,"ceil":3377,"leng":3378,"2019":3379,"98":3380,"lass":3381,"====":3382,"of":3383,"c_":3384,"y_":3385,"357":3386,"erat":3387,"class":3388,"funct":3389,"color":3390,"mi":3391,"x2":3392,"353":3393,"sub":3394,"zer":3395,"46":3396,"355":3397,"div":3398,"length":3399,"sa":3400,"redu":3401,"bisect_left":3402,"new":3403,"d_":3404,"reduce":3405,"queue":3406,"values":3407,"thon":3408,"flg":3409,"????????":3410,"pl":3411,"date":3412,"ABC":3413,"floor":3414,"','":3415,"41":3416,"YES":3417,"replace":3418,"nums":3419,"07":3420,"n_":3421,"odd":3422,"25":3423,"=\"":3424,"dy":3425,"divisors":3426,"337":3427,"tup":3428,"45":3429,"items":3430,"i_":3431,"y1":3432,"ken":3433,"ance":3434,"08":3435,"]==\"":3436,"zip":3437,"AAAAAAAAAAAAAAAAAAAAAAAAAAAAAAAA":3438,"232":3439,"ak":3440,"quer":3441,"seg":3442,"ard":3443,"stack":3444,"())))":3445,"tar":3446,"python":3447,"sert":3448,"mal":3449,"ools":3450,"functools":3451,"func":3452,"abc":3453,"_n":3454,"01":3455,"tuple":3456,"61":3457,"s2":3458,"perm":3459,"pp":3460,"=(":3461,"new_":3462,"344":3463,"go":3464,"the":3465,"dx":3466,"lr":3467,"212":3468,"pas":3469,"next_":3470,"09":3471,"x_":3472,"//=":3473,"put":3474,"63":3475,"'#":3476,"pt":3477,"s1":3478,"we":3479,"ic":3480,"[[]":3481,"target":3482,"DP":3483,"ation":3484,"rst":3485,"y2":3486,"num_":3487,"last":3488,"ps":3489,"erator":3490,"even":3491,"100000000":3492,"sh":3493,"od":3494,"65":3495,"]!=":3496,"500":3497,"path":3498,"sum_":3499,"234":3500,"query":3501,"LE":3502,"fac":3503,"init__":3504,"__init__":3505,"word":3506,"#!":3507,")])":3508,"777":3509,"################":3510,"ii":3511,"token":3512,"='":3513,"cimal":3514,")==":3515,"current":3516,"wr":3517,"ther":3518,"arch":3519,"remove":3520,"A_":3521,"pass":3522,"mon":3523,"usr":3524,"rr":3525,"tokens":3526,"env":3527,"から":3528,"a1":3529,"roup":3530,"permut":3531,"kai":3532,"keys":3533,"ST":3534,"wa":3535,"ans_":3536,"accum":3537,"ulate":3538,"ment":3539,"other":3540,"popleft":3541,"l_":3542,"ou":3543,"log":3544,"スト":3545,"edges":3546,"81":3547,"WA":3548,"101":3549,"ju":3550,"im":3551,"air":3552,"ki":3553,");":3554,"et":3555,"hild":3556,"_sum":3557,"permutations":3558,"ない":3559,"order":3560,"group":3561,"duct":3562,"c1":3563,"can":3564,"['":3565,"a2":3566,"ble":3567,"cc":3568,"]),":3569,"product":3570,"\"#":3571,"+-+-+-+-":3572,"loop":3573,"LS":3574,"_i":3575,"search":3576,"ith":3577,"#!/":3578,"-(":3579,"83":3580,"c2":3581,"91":3582,"84":3583,"mx":3584,"93":3585,"get_":3586,"dig":3587,"3333":3588,"96":3589,"[\"":3590,"accumulate":3591,"tmp_":3592,"して":3593,"ele":3594,"rank":3595,"used":3596,"bl":3597,"parents":3598,"82":3599,"operator":3600,"mul":3601,"]=='":3602,"==\"":3603,"am":3604,"python3":3605,"dep":3606,"71":3607,"**(":3608,"De":3609,"\"))":3610,"'))":3611,"r_":3612,"bal":3613,"86":3614,"544":3615,"ha":3616,"cs":3617,"MAX":3618,"'''":3619,"dge":3620,"pair":3621,"lower":3622,"base":3623,"b_":3624,"distance":3625,"numbers":3626,"plus":3627,"[:-":3628,"->":3629,"by":3630,"del":3631,"In":3632,"bisect_right":3633,"und":3634,"566":3635,"child":3636,"minus":3637,"52":3638,"bb":3639,"output":3640,"ction":3641,":])":3642,"step":3643,"read_":3644,"5555":3645,"03":3646,"first":3647,"args":3648,"std":3649,"72":3650,"1000000007":3651,"grid":3652,"t_":3653,"p2":3654,"p1":3655,"cl":3656,")**":3657,"ni":3658,"red":3659,"zero":3660,"dom":3661,"sep":3662,"update":3663,"]%":3664,")*(":3665,"]>":3666,"digit":3667,"insert":3668,"random":3669,"calc":3670,"ng":3671,"eld":3672,"jk":3673,"']":3674,"#####":3675,"p_":3676,"vv":3677,"(),":3678,"bi":3679,"=='":3680,"SI":3681,"入力":3682,"]<":3683,"ax":3684,"ice":3685,"common":3686,"),(":3687,"make":3688,"]][":3689,"depth":3690,"IO":3691,"573":3692,"sy":3693,"リスト":3694,"resolve":3695,"uf":3696,"gy":3697,"alp":3698,"neg":3699,"74":3700,"reversed":3701,"code":3702,"comp":3703,"As":3704,"a_list":3705,"ify":3706,"list_":3707,"count_":3708,"adj":3709,"94":3710,"\"+":3711,"ange":3712,"kaijo":3713,"sw":3714,"xx":3715,"211":3716,"AR":3717,"input_":3718,"fo":3719,"Num":3720,"]])":3721,"----------------":3722,"733":3723,"Se":3724,"deep":3725,"MI":3726,"open":3727,"cept":3728,"\"]":3729,"char":3730,"::":3731,"my":3732,"+(":3733,"_cnt":3734,"========":3735,"d2":3736,"heapify":3737,"deepcopy":3738,"dis":3739,"so":3740,"_t":3741,"RE":3742,"AN":3743,"334":3744,"getter":3745,"case":3746,"est":3747,"_x":3748,"nn":3749,"cle":3750,"場合":3751,"ob":3752,"upper":3753,"++":3754,"ity":3755,"l2":3756,"gh":3757,"l1":3758,"Un":3759,"d1":3760,"test":3761,"ka":3762,"Int":3763,"wn":3764,"zy":3765,"itemgetter":3766,"nodes":3767,"is_prime":3768,"fe":3769,"aku":3770,"yi":3771,"\"):":3772,"06":3773,"_1":3774,"glo":3775,"LR":3776,"cy":3777,"judge":3778,"primes":3779,"1012":3780,"ary":3781,"sl":3782,"AAAAAAAAAAAAAAAAAAAAAAAAAAAAAAAAAAAAAAAAAAAAAAAAAAAAAAAAAAAAAAAA":3783,"ti":3784,"755":3785,"wh":3786,"n1":3787,"sm":3788,"753":3789,"file":3790,"global":3791,"XY":3792,"n2":3793,"00000":3794,"zeros":3795,"cond":3796,"sr":3797,"ache":3798,"most_":3799,"737":3800,"333":3801,"])+":3802,"chr":3803,"lines":3804,"'#':":3805,"ans2":3806,"ms":3807,"757":3808,"xs":3809,"75":3810,"ive":3811,"cos":3812,")[":3813,"readlines":3814,"vert":3815,"999":3816,"v2":3817,"v1":3818,"tw":3819,"ans1":3820,"to_":3821,"i2":3822,"mer":3823,"card":3824,"b1":3825,"'):":3826,"cand":3827,"lon":3828,"write":3829,"=[[":3830,"_2":3831,"most_common":3832,"pq":3833,"tx":3834,"stat":3835,"rev":3836,"ks":3837,"lack":3838,"br":3839,"_memo":3840,"na":3841,"weight":3842,"Decimal":3843,"AL":3844,"rix":3845,"ute":3846,"ain":3847,"_y":3848,"%(":3849,"553":3850,"low":3851,"stdout":3852,"ED":3853,"ba":3854,"Tree":3855,"04":3856,"_index":3857,"UN":3858,"day":3859,"try":3860,"height":3861,"1111":3862,"imum":3863,"except":3864,"Ch":3865,"dice":3866,"make_":3867,"文字":3868,"m1":3869,"Find":3870,"って":3871,"asci":3872,"555":3873,":]:":3874,"OK":3875,"S_":3876,"ition":3877,"556":3878,"change":3879,"xrange":3880,"554":3881,"kaijo_memo":3882,"lm":3883,"BC":3884,"vw":3885,"'+":3886,"Ans":3887,"373":3888,"dtype":3889,"5377":3890,"mone":3891,"htt":3892,"sk":3893,"666":3894,"://":3895,"MAP":3896,"_l":3897,"io":3898,"3232":3899,"DE":3900,"II":3901,"seq":3902,"とき":3903,"nC":3904,"ある":3905,"r1":3906,"99999999":3907,"Di":3908,"200":3909,"...":3910,"=-":3911,"deg":3912,"ren":3913,"ine":3914,"b2":3915,"877":3916,"))+":3917,"money":3918,"r2":3919,",(":3920,"rest":3921,"seen":3922,"tt":3923,"has":3924,"ru":3925,"matrix":3926,"power":3927,"1e":3928,"decimal":3929,"bc":3930,")>":3931,"top":3932,"Py":3933,"om":3934,"まで":3935,"400":3936,"ji":3937,"g2":3938,"v_":3939,"points":3940,"92":3941,"ry":3942,"t1":3943,"price":3944,"nd":3945,"xi":3946,"cmb":3947,"0000000000000000":3948,"62":3949,"SR":3950,"PO":3951,"ate_":3952,"110":3953,"ay":3954,"match":3955,"long":3956,"all_":3957,"same":3958,"INT":3959,"ctor":3960,"した":3961,"Union":3962,"here":3963,"dire":3964,"100000":3965,"mn":3966,"rs":3967,"567":3968,"m2":3969,"3222":3970,"cnt_":3971,"sx":3972,"coder":3973,"の数":3974,"ko":3975,"https":3976,"IT":3977,"ts":3978,"3212":3979,"assert":3980,"fore":3981,"要素":3982,"px":3983,"RO":3984,"i1":3985,"He":3986,"Po":3987,"の最":3988,"ub":3989,"])-":3990,"5733":3991,"444":3992,"patter":3993,"LL":3994,"je":3995,"()[":3996,"atcoder":3997,"x3":3998,"TF":3999,"kk":4000,"_d":4001,"ca":4002,"ANS":4003,"yo":4004,"high":4005,"AT":4006,"{}\".":4007,"fin":4008,"A2":4009,"vo":4010,"UM":4011,"acc":4012,"\"#\":":4013,"_h":4014,"543":4015,"nv":4016,"85":4017,"+-+-+-+-+-+-+-+-":4018,"rec":4019,"nc":4020,"wi":4021,"000000":4022,"_cache":4023,"lru":4024,"1000000":4025,"head":4026,"^^":4027,"=\"\")":4028,"prime_":4029,"remain":4030,"t2":4031,"ascii_":4032,"dw":4033,"union":4034,"A1":4035,"った":4036,"なら":4037,"_min":4038,"black":4039,"yy":4040,"))))":4041,"5737":4042,">>=":4043,"mm":4044,"goal":4045,"いる":4046,"頂点":4047,"],[":4048,"]>=":4049,"'.':":4050,"5577":4051,"95":4052,"state":4053,"Node":4054,"coprime":4055,"ide":4056,"nj":4057,"_dict":4058,"なる":4059,"(''.":4060,"UnionFind":4061,"_f":4062,"(\"\".":4063,"g1":4064,"lru_cache":4065,"210":4066,"Err":4067,"LIST":4068,"sible":4069,"TLE":4070,"bs":4071,"ans_list":4072,"x0":4073,"れる":4074,"nxt":4075,"dh":4076,"_node":4077,"_p":4078,"nw":4079,"ers":4080,"NG":4081,"Pr":4082,"num_list":4083,"zz":4084,"bfs":4085,"RR":4086,"GC":4087,"second":4088,"ama":4089,"dele":4090,"ly":4091,"df":4092,"''.":4093,"878":4094,"last_":4095,"Mod":4096,"')]":4097,"hq":4098,"Error":4099,"ali":4100,"cm":4101,"ces":4102,"ger":4103,"extend":4104,"'#'":4105,"clu":4106,"Sort":4107,"ds":4108,"])):":4109,"field":4110,"_r":4111,"stra":4112,"180":4113,"av":4114,"776":4115,"189":4116,"121":4117,"wise":4118,"den":4119,"[],":4120,"\".\":":4121,"5537":4122,"radi":4123,"sin":4124,"buf":4125,"before":4126,"])%":4127,"uu":4128,"y3":4129,"Seg":4130,"_with":4131,"111":4132,"dq":4133,"vertex":4134,"800":4135,"zation":4136,"\"#\"":4137,"hoge":4138,"ky":4139,"))]":4140,"jj":4141,"SS":4142,"_v":4143,"merge":4144,"][-":4145,"info":4146,"lt":4147,"safe":4148,"766":4149,"321":4150,"343":4151,"route":4152,"計算":4153,"bool":4154,"rem":4155,"ON":4156,"535":4157,"575":4158,"param":4159,"ang":4160,"433":4161,"gyaku":4162,"Ar":4163,"nb":4164,"8244":4165,"delete":4166,"Sum":4167,"clude":4168,"_A":4169,"################################":4170,"NI":4171,"cw":4172,"123":4173,"candi":4174,"hs":4175,"jp":4176,"\")))":4177,"late":4178,"876":4179,"inputs":4180,"109":4181,"vs":4182,"yield":4183,"rx":4184,"OR":4185,"])]":4186,"tra":4187,"整数":4188,"ので":4189,"\")]":4190,"998244":4191,"????????????????":4192,"める":4193,"05":4194,"counts":4195,"S2":4196,"5533":4197,"kw":4198,"appendleft":4199,"_idx":4200,"LF":4201,"cted":4202,"773":4203,"ach":4204,"141":4205,"iterate_":4206,"iterate_tokens":4207,"3233":4208,"_length":4209,"789":4210,"pattern":4211,"')))":4212,"]<=":4213,"ori":4214,")}":4215,"998244353":4216,"mini":4217,"sig":4218,"in_":4219,"nk":4220,"keta":4221,"])))":4222,"nl":4223,"include":4224,"man":4225,"[]:":4226,",\"":4227,"ww":4228,"vi":4229,"_size":4230,"two":4231,"_set":4232,"hy":4233,"gyaku_":4234,"147":4235,"02":4236,"UT":4237,"blue":4238,"\"\".":4239,"template":4240,"off":4241,"LC":4242,"Fi":4243,"2344":4244,"7777":4245,"1112":4246,"kou":4247,"探索":4248,"nh":4249,"inverse":4250,"amari":4251,"える":4252,"colors":4253,"fr":4254,"nex":4255,")),":4256,"))%":4257,"sol":4258,"値を":4259,"radians":4260,"こと":4261,"S1":4262,"360":4263,"])*":4264,"h1":4265,"5000":4266,"road":4267,"war":4268,"lazy":4269,"pon":4270,"3234":4271,"数を":4272,"replacement":4273,"AP":4274,"+=(":4275,"list1":4276,"cp":4277,"_with_":4278,"119":4279,"jkstra":4280,"ev":4281,"_number":4282,"lists":4283,"5373":4284,"距離":4285,"]//":4286,"323":4287,"ipy":4288,"139":4289,"ード":4290,"inpl":4291,"of_":4292,"s_list":4293,"tas":4294,"Ro":4295,"MM":4296,"reach":4297,"Max":4298,"179":4299,"done":4300,"zu":4301,"ート":4302,"5357":4303,"maze":4304,"el":4305,"hp":4306,"Ex":4307,"Val":4308,"ag":4309,"round":4310,"finv":4311,"af":4312,"ープ":4313,"white":4314,"454":4315,"('\\":4316,"SP":4317,"589":4318,"ant":4319,"chk":4320,"AAAAAAAAAAAAAAAAAAAAAAAAAAAAAAAAAAAAAAAAAAAAAAAAAAAAAAAAAAAAAAAAAAAAAAAAAAAAAAAAAAAAAAAAAAAAAAAAAAAAAAAAAAAAAAAAAAAAAAAAAAAAAAAA":4321,"scipy":4322,"899":4323,"a3":4324,"alph":4325,"_left":4326,"pc":4327,"factorization":4328,"mall":4329,"using":4330,"rl":4331,"='')":4332,"ek":4333,"DI":4334,"UF":4335,"ARC":4336,"322":4337,"yd":4338,"A_list":4339,"/=":4340,"/(":4341,"sho":4342,"are":4343,"ir":4344,"h2":4345,"返す":4346,"wor":4347,"roots":4348,"BB":4349,"cho":4350,"=[[]":4351,"Index":4352,"rand":4353,"lb":4354,"NQ":4355,"443":4356,"169":4357,"出力":4358,"######":4359,"={}":4360,"Eve":4361,"ER":4362,"221":4363,"LO":4364,"int64":4365,"half":4366,"_val":4367,"667":4368,"c0":4369,"meth":4370,"300":4371,"ence":4372,"memb":4373,"define":4374,"side":4375,"Ai":4376,"Le":4377,"Str":4378,"mult":4379,"(((":4380,"507":4381,"read_int":4382,"f0":4383,"434":4384,"456":4385,"149":4386,"repe":4387,"[:]":4388,"_str":4389,"c3":4390,"656":4391,"539":4392,"qq":4393,"minimum":4394,"tmp2":4395,"_len":4396,"'.'":4397,"aaa":4398,"ative":4399,"([])":4400,"番目":4401,"PY":4402,"over":4403,"repeat":4404,"IL":4405,"5573":4406,"prod":4407,"cx":4408,"Re":4409,"ingo":4410,"配列":4411,"dp2":4412,"hh":4413,"238":4414,"229":4415,"find_":4416,"mar":4417,">>>":4418,"TH":4419,")<":4420,"erase":4421,"pppp":4422,"549":4423,"POS":4424,"old":4425,"1200":4426,"arge":4427,"cap":4428,"[:,":4429,"1222":4430,"BLE":4431,"3577":4432,"889":4433,"combinations_with_":4434,"IM":4435,"combinations_with_replacement":4436,"375":4437,"cu":4438,"103":4439,"ator":4440,"nm":4441,"_start":4442,"bug":4443,"segfunc":4444,"conne":4445,"ject":4446,"================":4447,"ast":4448,"ies":4449,"ye":4450,"make_divisors":4451,"unite":4452,"N0":4453,"td":4454,"(\"-":4455,"act":4456,"最小":4457,"emp":4458,"れば":4459,"209":4460,"ZE":4461,"h_":4462,"599":4463,"yes":4464,"669":4465,"SIBLE":4466,"POSSIBLE":4467,"];":4468,"NT":4469,"SE":4470,"a0":4471,"]].":4472,"raw":4473,"St":4474,"gx":4475,"mod_":4476,"cycle":4477,"costs":4478,"449":4479,"_bo":4480,"vector":4481,"{}'.":4482,"digits":4483,"fir":4484,"IR":4485,"ループ":4486,"Pos":4487,"mode":4488,"fill":4489,"k1":4490,"text":4491,"369":4492,"times":4493,"position":4494,"eve":4495,"]-=":4496,"259":4497,"579":4498,"(\"#":4499,"()])":4500,"vel":4501,"Ne":4502,"divisor":4503,"277":4504,"contest":4505,"最大":4506,")[::-":4507,"offset":4508,"w1":4509,"y0":4510,"drea":4511,"decode":4512,"ID":4513,"547":4514,"FS":4515,"LI_":4516,"455":4517,"f1":4518,"part":4519,"dijkstra":4520,"787":4521,"k2":4522,"107":4523,"269":4524,"3733":4525,"mu":4526,"\".\"":4527,"3200":4528,"gt":4529,"1234":4530,"//(":4531,"vot":4532,"Gr":4533,"初期":4534,"OF":4535,"gi":4536,"677":4537,"rb":4538,"401":4539,"_to":4540,"mas":4541,")<=":4542,"PQ":4543,"gs":4544,"debug":4545,"cumsum":4546,"f2":4547,"Yo":4548,"TU":4549,"mt":4550,"method":4551,"527":4552,"wv":4553,"もの":4554,"ten":4555,"cards":4556,"gyaku_kaijo_memo":4557,"570":4558,"ial":4559,"add_":4560,"_from":4561,"129":4562,"]]:":4563,"FR":4564,"pf":4565,"ins":4566,"inst":4567,"550":4568,"CO":4569,"3322":4570,"ores":4571,"Point":4572,"(\"\\":4573,"modin":4574,"307":4575,"341":4576,"box":4577,"L2":4578,"``":4579,"abet":4580,",'":4581,":]))":4582,"calc_":4583,"367":4584,"loc":4585,"xyz":4586,"hb":4587,"Que":4588,"('#":4589,"199":4590,"bun":4591,"127":4592,"389":4593,"cnt2":4594,"文字列":4595,"cb":4596,"求める":4597,"var":4598,"nCr":4599,"509":4600,"597":4601,"529":4602,"A3":4603,"tai":4604,"627":4605,"mand":4606,"370":4607,"lice":4608,"BG":4609,"rees":4610,"Value":4611,"239":4612,"angle":4613,"alist":4614,"621":4615,"_N":4616,"ku":4617,"inter":4618,"modinv":4619,"flush":4620,"309":4621,"_id":4622,"dt":4623,"ノード":4624,"5557":4625,"x4":4626,"s3":4627,"txt":4628,"first_":4629,"BD":4630,"ModInt":4631,"ln":4632,"'?":4633,"取得":4634,"()[:-":4635,"ml":4636,"w2":4637,"bx":4638,"down":4639,"eval":4640,"gin":4641,"i8":4642,"SL":4643,"curr":4644,"432":4645,"uvw":4646,"();":4647,"inte":4648,"lowercase":4649,"153":4650,"600":4651,"uni":4652,"137":4653,"でき":4654,"ptr":4655,"168":4656,"groupby":4657,"349":4658,"Be":4659,"factorize":4660,"Qu":4661,"front":4662,"let":4663,"sign":4664,"){":4665,"alphabet":4666,"197":4667,"tl":4668,"559":4669,"num2":4670,"push":4671,"sele":4672,"board":4673,"ace":4674,"ones":4675,"work":4676,"([(":4677,"551":4678,"raise":4679,"CH":4680,"ascii_lowercase":4681,"ND":4682,"element":4683,"tate":4684,"332":4685,"dj":4686,"atan":4687,"this":4688,"3533":4689,"m_":4690,"bingo":4691,"B1":4692,"ow":4693,"120":4694,"][:":4695,"bit_length":4696,"676":4697,"223":4698,"2112":4699,"???":4700,"601":4701,"children":4702,"hw":4703,"数の":4704,"いて":4705,"cr":4706,"gb":4707,"city":4708,"T1":4709,"0x":4710,"}\".":4711,"members":4712,"kouho":4713,"#############":4714,"\"-":4715,"117":4716,"167":4717,"At":4718,"_right":4719,"同じ":4720,"'-":4721,"399":4722,"Ke":4723,"161":4724,"scores":4725,"181":4726,"now_":4727,"678":4728,"big":4729,"Sorted":4730,"7533":4731,"db":4732,"factors":4733,"small":4734,"pivot":4735,"Ma":4736,"short":4737,"area":4738,"297":4739,"Prime":4740,"To":4741,"command":4742,"ける":4743,"その":4744,"C2":4745,"Sun":4746,"back":4747,"combination":4748,"EP":4749,"bot":4750,"typ":4751,"sb":4752,"Min":4753,"f_":4754,"p3":4755,"maxi":4756,"gu":4757,"B2":4758,"5757":4759,"An":4760,"ched":4761,"\").":4762,"XX":4763,"()):":4764,"NN":4765,"108":4766,"289":4767,"RL":4768,"fter":4769,"569":4770,"dest":4771,"exp":4772,"TFTF":4773,"503":4774,"LIR":4775,"alpha":4776,"('-":4777,"fw":4778,"sto":4779,"link":4780,"1001":4781,"found":4782,"303":4783,"'*":4784,"379":4785,"UV":4786,"3377":4787,"\"*":4788,"L1":4789,"131":4790,"sums":4791,"ata":4792,"hon":4793,"len_":4794,"gre":4795,"direction":4796,":],":4797,"buil":4798,"lock":4799,"KI":4800,"md":4801,"={":4802,"lg":4803,"cnt1":4804,"Si":4805,"279":4806,"By":4807,"138":4808,"reachable":4809,"tmp1":4810,"519":4811,"(-(-":4812,"_to_":4813,"large":4814,"489":4815,"mov":4816,"list2":4817,"divmod":4818,"qs":4819,"))):":4820,")],":4821,"M1":4822,"329":4823,"654":4824,"530":4825,"T2":4826,"lp":4827,"stop":4828,"ga":4829,"maximum":4830,"SC":4831,"437":4832,"Even":4833,"oko":4834,"ws":4835,"{:":4836,"])==":4837,"GH":4838,"_ele":4839,"rc":4840,"より":4841,"dp1":4842,"248":4843,"_ans":4844,"AD":4845,"_flag":4846,"bt":4847,"887":4848,"293":4849,"処理":4850,"level":4851,"v0":4852,"よう":4853,"insort":4854,"Queue":4855,"cent":4856,"indic":4857,"pn":4858,"j2":4859,"159":4860,"_point":4861,"479":4862,"580":4863,"237":4864,"470":4865,"Cw":4866,"Lo":4867,"qi":4868,"587":4869,"numerator":4870,"s0":4871,"randint":4872,"]]=":4873,"p_list":4874,"num1":4875,"arse":4876,"3600":4877,"1212":4878,"545":4879,"q2":4880,"C1":4881,"mask":4882,"D2":4883,"src":4884,"NM":4885,"=[-":4886,"bon":4887,"767":4888,"n3":4889,"War":4890,"const":4891,"]==-":4892,"max_num":4893,"instance":4894,"vl":4895,"q1":4896,"Dw":4897,"3757":4898,"459":4899,"411":4900,"219":4901,"5355":4902,"249":4903,"sieve":4904,"tail":4905,"157":4906,"[[-":4907,"istmas":4908,"133":4909,"ghi":4910,"BIT":4911,"best":4912,"Chr":4913,"BR":4914,"fn":4915,"mc":4916,"136":4917,"7377":4918,"NE":4919,"space":4920,"hen":4921,"448":4922,"ices":4923,"elem":4924,")>=":4925,"ated":4926,"177":4927,"unit":4928,"299":4929,"267":4930,"217":4931,"dot":4932,"\"?":4933,"win":4934,"HW":4935,"rate":4936,"kwargs":4937,"387":4938,"Ty":4939,"ide_ele":4940,"MIN":4941,"Christmas":4942,"207":4943,"317":4944,"(\":":4945,"617":4946,"KB":4947,"zfill":4948,"]==\"#":4949,"You":4950,"の要素":4951,"vec":4952,"Yay":4953,"total_":4954,"Wr":4955,"cor":4956,"quit":4957,"abcdef":4958,"--------------------------------":4959,"Ob":4960,"err":4961,"HP":4962,"203":4963,"661":4964,"Data":4965,"Nz":4966,"499":4967,"with":4968,"OT":4969,"[::":4970,"227":4971,"Clo":4972,"han":4973,"以上":4974,"_sort":4975,"=\"\"":4976,"ushi":4977,"IF":4978,"').":4979,":(":4980,"397":4981,"fx":4982,"LA":4983,"ie":4984,"pprint":4985,"187":4986,"(\"{}":4987,"sz":4988,"大き":4989,"='\\":4990,")]:":4991,"candidate":4992,"253":4993,"vvvv":4994,"Mz":4995,"moji":4996,"^^^^":4997,"CC":4998,"y4":4999,"stock":5000,"_array":5001,"''''":5002,"Odd":5003,"427":5004,"dc":5005,"][(":5006,"String":5007,"uv":5008,"283":5009,"r0":5010,"2000":5011,"Li":5012,"_input":5013,"IS":5014,"347":5015,"247":5016,"abcdefghi":5017,"ud":5018,"function":5019,"FF":5020,"l0":5021,"integer":5022,"311":5023,"144":5024,":].":5025,"UG":5026,"isinstance":5027,"Sc":5028,"p0":5029,"())]":5030,"257":5031,"\"\\":5032,"565":5033,"uc":5034,"2222":5035,")&":5036,"N_":5037,"run":5038,"250":5039,")]))":5040,"160":5041,"345":5042,"M2":5043,"~~":5044,"更新":5045,"Bs":5046,"653":5047,"Sunny":5048,"419":5049,"###":5050,"cut":5051,"214":5052,"を返す":5053,"以下":5054,"indices":5055,"Dh":5056,"ner":5057,"819":5058,"H2":5059,"mple":5060,")/(":5061,"n0":5062,"rm":5063,"tom":5064,"D1":5065,"|=":5066,"orig":5067,"deno":5068,"empty":5069,"LM":5070,"cout":5071,"j1":5072,"301":5073,"UP":5074,"327":5075,"335":5076,"380":5077,"Bo":5078,"udy":5079,"+=[":5080,"_k":5081,"287":5082,"AF":5083,"f4":5084,"La":5085,"の場合":5086,"rep":5087,"abcdefghijk":5088,"),(-":5089,"7577":5090,"_fd":5091,"maxsize":5092,"fil":5093,"のとき":5094,"Mo":5095,"409":5096,"N2":5097,"201":5098,"00000000000000000000000000000000":5099,"_map":5100,"UD":5101,"105":5102,"477":5103,"hu":5104,"nopq":5105,"iseki":5106,"WW":5107,"dst":5108,"ling":5109,"b_list":5110,"ae":5111,"OP":5112,"lmnopq":5113,"xor":5114,"541":5115,"B_":5116,"H1":5117,"Of":5118,"exist":5119,"cin":5120,"170":5121,"my_":5122,"Ret":5123,"count2":5124,"vx":5125,"になる":5126,"ます":5127,"pw":5128,"988":5129,"checked":5130,"|]":5131,"pos_":5132,"308":5133,"3737":5134,"]/":5135,"700":5136,"IP":5137,"flow":5138,"^=":5139,"649":5140,"gg":5141,"son":5142,"388":5143,"_lists":5144,"240":5145,"abcdefghijklmnopq":5146,"pot":5147,"rows":5148,"183":5149,"れて":5150,"xl":5151,"uvwxyz":5152,"679":5153,"663":5154,"pen":5155,"_of_":5156,"切り":5157,"_e":5158,"yer":5159,"163":5160,"いく":5161,")!=":5162,"QU":5163,"b0":5164,"bp":5165,"tri":5166,"Cloudy":5167,"3344":5168,"pairwise":5169,"6f":5170,"abcdefghijklmnopqrst":5171,"481":5172,"Ve":5173,"gen":5174,"_counter":5175,"655":5176,"AO":5177,"roop":5178,"JK":5179,"609":5180,"sparse":5181,"350":5182,"x_list":5183,"Ss":5184,"seek":5185,"....":5186,"618":5187,"Alice":5188,"128":5189,"ック":5190,"_base":5191,"wo":5192,"GE":5193,"709":5194,"lx":5195,"だけ":5196,"517":5197,"Bu":5198,"1600":5199,"BA":5200,"hist":5201,"test_":5202,"derr":5203,"tb":5204,"theta":5205,"imo":5206,"contests":5207,"spe":5208,"nr":5209,"=>":5210,"EST":5211,"218":5212,"RG":5213,"age":5214,"mem":5215,"mk":5216,"Set":5217,"699":5218,"delta":5219,"MD":5220,"org":5221,"stderr":5222,"minator":5223,"+[":5224,"429":5225,"CA":5226,"590":5227,"658":5228,"abcdefghijklmnopqrstuvwxyz":5229,"E3":5230,"bf":5231,"256":5232,"CD":5233,"ij":5234,",[":5235,"P8":5236,"540":5237,"1000000000":5238,"mark":5239,"negative":5240,"X2":5241,"ブル":5242,"wk":5243,"b3":5244,"need":5245,"_S":5246,"619":5247,"BL":5248,"tasks":5249,"dr":5250,"_pos":5251,"MT":5252,"());":5253,"cache":5254,"]],":5255,"))//":5256,"after":5257,"102":5258,"(\")":5259,"i3":5260,"1100":5261,"447":5262,"static":5263,"ET":5264,"d3":5265,"object":5266,"()),":5267,"テー":5268,"5353":5269,"EX":5270,"ソート":5271,"288":5272,"MP":5273,"457":5274,"uke":5275,"SegTree":5276,"denominator":5277,"511":5278,"argv":5279,"143":5280,"Nj":5281,"DD":5282,"l3":5283,"Flag":5284,"any":5285,"N1":5286,"cn":5287,"cess":5288,"AX":5289,"_0":5290,"_value":5291,"d0":5292,"dv":5293,"==-":5294,"(\"%":5295,"788":5296,",*":5297,"center":5298,"テーブル":5299,"fix":5300,"497":5301,"633":5302,"ght":5303,"151":5304,"639":5305,"ape":5306,"_mod":5307,"cre":5308,"1010":5309,"cf":5310,"Or":5311,"each":5312,"nq":5313,"v4":5314,"degrees":5315,"取り":5316,"593":5317,"letter":5318,"追加":5319,"minj":5320,"移動":5321,"216":5322,"563":5323,"aut":5324,"436":5325,"GCD":5326,"439":5327,"lv":5328,"sn":5329,"PX":5330,"IG":5331,"sg":5332,"を求める":5333,"_m":5334,"3357":5335,"258":5336,"_divisors":5337,"ruiseki":5338,"MF":5339,"good":5340,"AY":5341,"_table":5342,"312":5343,"'\\":5344,"150":5345,"2018":5346,"997":5347,"combinations_count":5348,"vy":5349,"5337":5350,"_inv":5351,"za":5352,"271":5353,"ents":5354,"kind":5355,"GT":5356,"ef":5357,"sent":5358,"909":5359,"_dic":5360,"148":5361,"days":5362,"[(-":5363,"modp":5364,"wf":5365,"datetime":5366,"にする":5367,"iv":5368,"BX":5369,"逆元":5370,"BT":5371,"nf":5372,"Return":5373,"e1":5374,"count1":5375,"809":5376,"idth":5377,"bottom":5378,"273":5379,"ph":5380,"begin":5381,"_time":5382,"191":5383,"イン":5384,"yoko":5385,"469":5386,"2800":5387,"Segment":5388,"exam":5389,"If":5390,"]=(":5391,"bits":5392,"_cost":5393,"さい":5394,"必要":5395,"SIZE":5396,"417":5397,"588":5398,"m0":5399,"BP":5400,"xa":5401,"max_a":5402,"+\"":5403,"れた":5404,"330":5405,"Mj":5406,"ath":5407,"Inp":5408,"CT":5409,"We":5410,"できる":5411,"ball":5412,"pu":5413,"[[[":5414,"words":5415,"z2":5416,"368":5417,"ME":5418,"ascii_upper":5419,"3755":5420,"118":5421,"X1":5422,"7357":5423,"leaf":5424,"122":5425,"AS":5426,"193":5427,"swap":5428,"155":5429,"区間":5430,"mag":5431,"steps":5432,"bw":5433,"ari":5434,"7J":5435,"VV":5436,"Edge":5437,"X8":5438,"HH":5439,"244":5440,"659":5441,"220":5442,"GI":5443,"fct":5444,"C8":5445,"ZZ":5446,"shi":5447,"488":5448,"sed":5449,"sd":5450,"241":5451,"est_":5452,"]]+":5453,"sec":5454,"mis":5455,"ya":5456,"input_list":5457,"778":5458,"263":5459,"476":5460,"t0":5461,"ascii_uppercase":5462,"487":5463,"合わ":5464,"}'.":5465,"('{}":5466,"173":5467,"198":5468,"filter":5469,"pb":5470,"AH":5471,"D_":5472,"629":5473,"問題":5474,"779":5475,"383":5476,"dl":5477,"log2":5478,"ull":5479,"453":5480,"CE":5481,"では":5482,"gcd_list":5483,"Bv":5484,"339":5485,"AAAAAAAAAAAAAAAAAAAAAAAAAAAAAAAAAAAAAAAAAAAAAAAAAAAAAAAAAAAAAAAAAAAAAAAAAAAAAAAAAAAAAAAAAAAAAAAAAAAAAAAAAAAAAAAAAAAAAAAAAAAAAAAAAAAAAAAAAAAAAAAAAAAAAAAAAAAAAAAAAAAAAAAAAAAAAAAAAAAAAAAAAAAAAAAAAAAAAAAAAAAAAAAAAAAAAAAAAAAAAAAAAAAAAAAAAAAAAAAAAAAAAAAAAAAAAAAA":5486,"newlines":5487,"の最小":5488,"491":5489,"ix":5490,"1e9":5491,"3557":5492,"BH":5493,")+(":5494,"#(":5495,"SUM":5496,"kv":5497,"mv":5498,"tan":5499,"1000000000000":5500,"8f":5501,"2020":5502,"yn":5503,"dg":5504,"z1":5505,"_in":5506,"637":5507,"171":5508,"140":5509,"Base":5510,"190":5511,"581":5512,"NU":5513,"Input":5514,"rad":5515,"])/":5516,"Dict":5517,"setwise":5518,"657":5519,"hor":5520,"501":5521,"floyd":5522,"ave":5523,"xb":5524,"11111111":5525,"town":5526,"csgraph":5527,"ess":5528,"=\"\\":5529,"735":5530,"]).":5531,"VE":5532,"561":5533,"c4":5534,"_B":5535,"P1":5536,"tran":5537,"(':":5538,"583":5539,"'?':":5540,"113":5541,"634":5542,"e2":5543,"set_":5544,"SW":5545,"room":5546,"turn":5547,"K2":5548,"]==\"#\":":5549,"YY":5550,"ure":5551,"608":5552,"):#":5553,"PE":5554,"rv":5555,"Xi":5556,"/+":5557,"ここ":5558,")%(":5559,"266":5560,"where":5561,"BW":5562,"P2":5563,"R2":5564,"obj":5565,"320":5566,"がある":5567,"の最大":5568,"NK":5569,"axis":5570,"Case":5571,"row_":5572,"568":5573,"636":5574,"uk":5575,"643":5576,"writ":5577,"それ":5578,"合わせ":5579,"{'":5580,"idge":5581,"]\"":5582,"tf":5583,"1233":5584,"508":5585,"Me":5586,"268":5587,"230":5588,"C3":5589,"bn":5590,"chi":5591,"cv":5592,"les":5593,"ース":5594,"3537":5595,"ini":5596,"TY":5597,"]**":5598,"aw":5599,"PUT":5600,"xm":5601,"Af":5602,"},":5603,"Rain":5604,"5544":5605,"ossible":5606,"Your":5607,"DV":5608,"ため":5609,"までの":5610,"Fra":5611,"under":5612,"178":5613,"tp":5614,"Cy":5615,"280":5616,"ips":5617,"dou":5618,"alk":5619,"So":5620,"zi":5621,"itive":5622,"XW":5623,"gf":5624,"cir":5625,"Imp":5626,"888":5627,"('.":5628,"min_cost":5629,"error":5630,"53577":5631,"Bf":5632,"Go":5633,"Rainy":5634,"VW":5635,"rect":5636,"aj":5637,"Hs":5638,"final":5639,"510":5640,"cit":5641,"Comb":5642,"判定":5643,"vr":5644,"これ":5645,"abcd":5646,"cou":5647,"231":5648,"w0":5649,"{},":5650,"Ls":5651,"Ap":5652,"PR":5653,"006":5654,"H8":5655,"xj":5656,"ui":5657,"個数":5658,"S3":5659,"Xs":5660,"大きい":5661,"+/":5662,"514":5663,"cro":5664,"_func":5665,"gc":5666,"fib":5667,"Cs":5668,"dm":5669,"407":5670,"Up":5671,":]):":5672,"Ns":5673,"hypot":5674,"213":5675,"H4":5676,"_lst":5677,"371":5678,"416":5679,"526":5680,"labe":5681,"G2":5682,"kn":5683,"531":5684,"20000":5685,"((-":5686,"nok":5687,"A4":5688,"i0":5689,"につ":5690,"yj":5691,"PI":5692,"として":5693,"([[":5694,"])**":5695,"imos":5696,"g3":5697,"pairs":5698,"Av":5699,"prime_factorize":5700,"hit":5701,"MX":5702,"true":5703,"+-+-+-+-+-+-+-+-+-+-+-+-+-+-+-+-":5704,"S0":5705,"xr":5706,"A0":5707,"GO":5708,"TD":5709,"add_edge":5710,"writable":5711,"h_list":5712,"J8":5713,"mf":5714,"Root":5715,"NY":5716,"lu":5717,"dream":5718,"B3":5719,"3456":5720,"Aj":5721,"zo":5722,"SF":5723,"512":5724,"Left":5725,"(\":(\")":5726,"a_i":5727,"v3":5728,"665":5729,"B8":5730,"vals":5731,"っている":5732,"424":5733,"aの":5734,"AZ":5735,"xf":5736,"Ps":5737,"tm":5738,"668":5739,"560":5740,"467":5741,"Bob":5742,"IMPOSSIBLE":5743,"Mb":5744,"PRO":5745,"prime_list":5746,"origin":5747,"lw":5748,"P4":5749,"pri":5750,"heappushpop":5751,"eq":5752,"sen":5753,"AV":5754,"3433":5755,"290":5756,"WV":5757,"CK":5758,"7733":5759,"Dist":5760,"tc":5761,")//(":5762,"your":5763,"413":5764,"B7":5765,"xd":5766,"である":5767,"X_":5768,"3454":5769,"L4":5770,"gz":5771,"ost":5772,"ット":5773,"cell":5774,"622":5775,"ket":5776,"u1":5777,"best_":5778,"Is":5779,"コスト":5780,"popcount":5781,"154":5782,"5f":5783,"WH":5784,"llman":5785,"390":5786,"P0":5787,"LT":5788,"611":5789,"neig":5790,"year":5791,"ena":5792,"689":5793,"CX":5794,"pm":5795,")+\"":5796,"sushi":5797,"LV":5798,"gw":5799,"non":5800,"32233":5801,"cols":5802,"bomb":5803,"seach":5804,"281":5805,"L0":5806,"gX":5807,"eps":5808,"ja":5809,"==[]:":5810,"464":5811,"NX":5812,"素数":5813,"Fo":5814,"xe":5815,"lun":5816,"7355":5817,"B9":5818,"359":5819,")(":5820,"like":5821,"qual":5822,"32344":5823,"multip":5824,"A8":5825,"ward":5826,"521":5827,"ABLE":5828,"GR":5829,"_tmp":5830,"270":5831,"TT":5832,"769":5833,"]+[":5834,"way":5835,"DH":5836,"DX":5837,"478":5838,"mh":5839,"707":5840,"i4":5841,"factinv":5842,"(')":5843,"sum1":5844,"ded":5845,"260":5846,"\"?\":":5847,"381":5848,"328":5849,"L8":5850,"dir":5851,"GS":5852,"N8":5853,"{\"":5854,"())),":5855,"[-(":5856,"xp":5857,"Az":5858,"のリスト":5859,"ution":5860,"素因":5861,"eat":5862,"V1":5863,"xv":5864,"どう":5865,"初期化":5866,"Impossible":5867,"C0":5868,"CW":5869,"340":5870,"double":5871,"799":5872,"493":5873,"width":5874,"is_integer":5875,"A7":5876,"F8":5877,"gH":5878,"10000000":5879,"ics":5880,"352":5881,"全て":5882,"rn":5883,"hand":5884,"tle":5885,"R1":5886,"回数":5887,"組み":5888,"I2":5889,"NW":5890,"tv":5891,"xn":5892,"ates":5893,"591":5894,"lcm_base":5895,"OU":5896,"RT":5897,"yen":5898,"208":5899,"M8":5900,"wH":5901,"())):":5902,"ZY":5903,"ib":5904,"ed_":5905,"dates":5906,"left_":5907,"5678":5908,"しない":5909,"Fraction":5910,"LSR":5911,"uy":5912,"ination":5913,"363":5914,"AG":5915,"suu":5916,"_data":5917,"007":5918,"M0":5919,"\"\")":5920,"613":5921,"P9":5922,"ント":5923,"REST":5924,"hash":5925,"Cf":5926,"lines_":5927,"Right":5928,"wb":5929,"L9":5930,"グループ":5931,"440":5932,"nuke":5933,"B0":5934,":#":5935,"LJ":5936,")][":5937,"D8":5938,"ary_":5939,"Q3":5940,"32232":5941,"Number":5942,"A9":5943,"Df":5944,"430":5945,"BF":5946,"xc":5947,"ater":5948,"5375":5949,"segtree":5950,"taka":5951,"DW":5952,"cmd":5953,"AE":5954,"a4":5955,"lic":5956,"unsafe":5957,"M9":5958,"ous":5959,"right_":5960,"t3":5961,"546":5962,"hj":5963,"BZ":5964,"mount":5965,"iterable":5966,"166":5967,"n4":5968,"770":5969,"AK":5970,"bk":5971,"hl":5972,"N3":5973,"gJ":5974,"results":5975,"tes":5976,"\",\"\").":5977,"mae":5978,"pppppppp":5979,"PH":5980,"32212":5981,"グラ":5982,"-(-":5983,"Bz":5984,"_for":5985,"の入力":5986,"5755":5987,"BO":5988,"bef":5989,"seachList":5990,"AJ":5991,"not_":5992,"Bi":5993,"QH":5994,"(\".":5995,"Ly":5996,"480":5997,"ux":5998,"wE":5999,"V2":6000,"pv":6001,"}:":6002,"L3":6003,"aok":6004,"})":6005,"130":6006,"MY":6007,"べて":6008,"A5":6009,"Bj":6010,"proble":6011,"Sy":6012,"onest":6013,"dup":6014,"'')":6015,"460":6016,"sj":6017,"X0":6018,"Ac":6019,"DENI":6020,")[-":6021,"QZ":6022,"5777":6023,"518":6024,"Al":6025,"VED":6026,"ose":6027,"AW":6028,"wj":6029,"32112":6030,"????????????":6031,"348":6032,"SH":6033,"X4":6034,"happ":6035,"158":6036,"687":6037,"****":6038,"L6":6039,"gO":6040,"Br":6041,"qui":6042,"current_":6043,"MH":6044,"chain":6045,"+'":6046,"min_num":6047,"DENIED":6048,"gF":6049,"tk":6050,"_bit":6051,"LCM":6052,"wl":6053,"oo":6054,"571":6055,"dreamer":6056,"5773":6057,"B4":6058,"_child":6059,"1011":6060,"\");":6061,"fu":6062,"XV":6063,"Gen":6064,"cj":6065,"Cnt":6066,"li2":6067,"KZ":6068,"647":6069,"番目の":6070,"Y2":6071,"SegmentTree":6072,"261":6073,"993":6074,"Ae":6075,"most":6076,"438":6077,"ory":6078,"dk":6079,"INPUT":6080,"d4":6081,"Graph":6082,"medi":6083,"APPRO":6084,"My":6085,"RD":6086,"463":6087,"PP":6088,"3337":6089,"z3":6090,"dfs_":6091,"NF":6092,"=['":6093,"5676":6094,"colum":6095,"412":6096,"m3":6097,"UNREST":6098,"423":6099,"bridge":6100,"q3":6101,"process":6102,"Sh":6103,"dec":6104,"when":6105,"組み合わせ":6106,"G8":6107,"gZ":6108,"SK":6109,"light":6110,"418":6111,"UNRESTOR":6112,"E8":6113,"小さい":6114,"UNRESTORABLE":6115,"NZ":6116,"B5":6117,"s_number":6118,"697":6119,"gK":6120,"gV":6121,"3455":6122,"gap":6123,"pre_":6124,"L5":6125,"NR":6126,"PC":6127,"001":6128,"009":6129,"524":6130,"Quer":6131,"B6":6132,"LY":6133,"_sorted":6134,"APPROVED":6135,"Q2":6136,"isu":6137,"Q4":6138,"dp_":6139,"ao":6140,"mida":6141,"M5":6142,"find_root":6143,"max_count":6144,"][::-":6145,"select":6146,"522":6147,"v8":6148,"]=\"":6149,"D3":6150,"Test":6151,"w3":6152,"eraser":6153,"gith":6154,"可能":6155,"E7":6156,"I8":6157,"U4":6158,"returns":6159,"github":6160,"D4":6161,"N9":6162,"]]+=":6163,"628":6164,"isei":6165,"f0f0":6166,"Pi":6167,"660":6168,"qy":6169,"unique":6170,"620":6171,"k0":6172,"print_":6173,"G1":6174,"rd":6175,"anslist":6176,"nokori":6177,"J7":6178,"bの":6179,"Line":6180,"ref":6181,"降順":6182,"finis":6183,"について":6184,"Bl":6185,"G9":6186,"Q7":6187,"))*":6188,"とする":6189,"_war":6190,"Ab":6191,"BY":6192,"OW":6193,"pd":6194,"318":6195,"J9":6196,"!\")":6197,"DY":6198,"zW":6199,"Not":6200,"5333":6201,"Pe":6202,"green":6203,"Possible":6204,"zj":6205,"load":6206,"468":6207,"sat":6208,"xt":6209,"Nb":6210,"temp_":6211,"_maxes":6212,"670":6213,"gl":6214,"V0":6215,"]=[":6216,"441":6217,"Ju":6218,"LZ":6219,"block":6220,"出す":6221,"book":6222,"init_val":6223,"QK":6224,"5677":6225,"J4":6226,"(\"\")":6227,"U1":6228,"z8":6229,"opt":6230,"473":6231,"Factor":6232,"strings":6233,"ita":6234,"NH":6235,"vn":6236,"wc":6237,"urce":6238,"Pk":6239,"o1":6240,"degree":6241,"FI":6242,"QW":6243,"mr":6244,"FT":6245,"003":6246,"2212":6247,"Q1":6248,"---":6249,"393":6250,"check_":6251,"V8":6252,"g0":6253,"XK":6254,"llo":6255,"624":6256,"N4":6257,"possible":6258,"edgelist":6259,"largest":6260,"422":6261,"ster":6262,"G4":6263,"gW":6264,"616":6265,"j0":6266,"MO":6267,"]=='#':":6268,"D9":6269,"J3":6270,"E5":6271,"J6":6272,"E6":6273,"X6":6274,"deli":6275,"C7":6276,"wt":6277,"z0":6278,"_nums":6279,"(*[":6280,"nor":6281,"n_list":6282,"Ce":6283,"関数":6284,"Cv":6285,"Uy":6286,"njit":6287,"gv":6288,"607":6289,"oku":6290,"staticmethod":6291,"yak":6292,"count_list":6293,"I0":6294,"I4":6295,"f3":6296,"d8":6297,"2233":6298,"RW":6299,"Y1":6300,"10112":6301,"536":6302,"898":6303,"420":6304,"Th":6305,"dle":6306,"z7":6307,"mod2":6308,"132":6309,"f8":6310,"UH":6311,"200000":6312,"RH":6313,"T0":6314,"max_value":6315,"combi":6316,"a_max":6317,"bound":6318,"LH":6319,"MON":6320,"865":6321,"U8":6322,"UK":6323,"ql":6324,"C9":6325,"S_list":6326,"g9":6327,"ター":6328,"E9":6329,"L7":6330,"614":6331,"305":6332,"swit":6333,"Ok":6334,"倍数":6335,"Pa":6336,"coin":6337,"Q8":6338,"statist":6339,"N5":6340,"c5":6341,"wF":6342,"Am":6343,"P5":6344,"スペ":6345,"昇順":6346,"z9":6347,"797":6348,"initial":6349,"829":6350,"A6":6351,"qK":6352,"Z6":6353,"g8":6354,"req":6355,"55377":6356,"スペース":6357,"いた":6358,"条件":6359,"'),":6360,"素因数":6361,"T4":6362,"))/":6363,"h0":6364,"q0":6365,"SUN":6366,"j3":6367,"statistics":6368,"dists":6369,"Ax":6370,"L_":6371,"GY":6372,"g4":6373,"671":6374,"Heisei":6375,"E2":6376,"P6":6377,"251":6378,"に変":6379,"h3":6380,"int1":6381,"p4":6382,"Len":6383,"Do":6384,"M4":6385,"J0":6386,"NS":6387,"status":6388,"median":6389,"E1":6390,"約数":6391,"from_":6392,"450":6393,"UY":6394,"236":6395,"NV":6396,"zZ":6397,"Ay":6398,"b4":6399,"fy":6400,"gY":6401,"513":6402,"G3":6403,"JZ":6404,"T3":6405,"alread":6406,"なので":6407,"5566":6408,"TFTFTFTF":6409,"TBD":6410,"({":6411,"U3":6412,"_int":6413,"ascii":6414,"D0":6415,"PZ":6416,"G0":6417,"jy":6418,"391":6419,"MZ":6420,"ec":6421,"経路":6422,"rows_number":6423,"US":6424,"k3":6425,"Bx":6426,"JY":6427,"Lx":6428,"O9":6429,"JH":6430,"alg":6431,"CY":6432,"F0":6433,"rp":6434,"R3":6435,"集合":6436,"O8":6437,"R0":6438,"shall":6439,"Map":6440,"circle":6441,"グラフ":6442,"Xy":6443,"zH":6444,"rot":6445,"henes":6446,"OV":6447,"QY":6448,"arange":6449,"middle":6450,"osthenes":6451,"P3":6452,"Q0":6453,"RI":6454,"UW":6455,"qZ":6456,"\":\"":6457,"LW":6458,"g5":6459,"53377":6460,"erated":6461,"_tree":6462,"kab":6463,"326":6464,"BV":6465,"となる":6466,"410":6467,"binary":6468,"neighb":6469,"PW":6470,"TI":6471,"マス":6472,"{:.":6473,"nH":6474,"a5":6475,")-(":6476,"z5":6477,"KK":6478,"Q5":6479,"U5":6480,"Except":6481,"Dy":6482,"au":6483,"iali":6484,"156":6485,"D7":6486,"z4":6487,"378":6488,"516":6489,"M3":6490,"243":6491,"999999999999":6492,"jY":6493,"First":6494,"\"+\"":6495,"anss":6496,"UZ":6497,"listA":6498,"3211":6499,"Exception":6500,"Qv":6501,"T8":6502,"reg":6503,"indexed":6504,"cross":6505,"=''":6506,"@@":6507,"U0":6508,"j8":6509,"7537":6510,"TW":6511,"o2":6512,"ope":6513,"134":6514,"読み":6515,"414":6516,"c_list":6517,"の時":6518,"em":6519,"Q9":6520,"SY":6521,"807":6522,"G5":6523,"すべて":6524,"F4":6525,"qY":6526,"Cost":6527,"mincost":6528,"rence":6529,"累積":6530,"5433":6531,"J5":6532,"Lr":6533,"Qy":6534,"_10":6535,"ls_":6536,"kaku":6537,"U7":6538,"255":6539,"520":6540,"F2":6541,"PK":6542,"Xk":6543,"ints":6544,"246":6545,"498":6546,"read_str":6547,"void":6548,"S8":6549,"gI":6550,"Pl":6551,"usu":6552,"temp2":6553,"Ev":6554,"番号":6555,"O4":6556,"X5":6557,"位置":6558,"roll":6559,"483":6560,"TUE":6561,"Qf":6562,"mw":6563,"598":6564,"GW":6565,"qW":6566,"Dice":6567,"QV":6568,"GK":6569,"q8":6570,"dZ":6571,"slist":6572,"x9":6573,"CZ":6574,"Dv":6575,"__str":6576,"__str__":6577,"0000000":6578,"invs":6579,"parse":6580,"EV":6581,"n8":6582,"u2":6583,"numba":6584,"Fast":6585,"zK":6586,"BK":6587,"R8":6588,"red_":6589,"dist_":6590,"Sw":6591,"WED":6592,"cH":6593,"zf":6594,"Query":6595,"F1":6596,"zv":6597,"todo":6598,"Ge":6599,"zY":6600,"max_score":6601,"sample":6602,"LK":6603,"315":6604,"G6":6605,"THU":6606,"458":6607,"673":6608,"E4":6609,"Qe":6610,"703":6611,"x8":6612,"_j":6613,"urid":6614,"connected":6615,"Python":6616,"688":6617,"OY":6618,"552":6619,"57377":6620,"1st":6621,"長さ":6622,"5753":6623,"comple":6624,"C4":6625,"FRI":6626,"kyurid":6627,"enamida":6628,"Generated":6629,"kyuridenamida":6630,"Q6":6631,"Gv":6632,"N6":6633,"ash":6634,"Au":6635,"ile":6636,"291":6637,"sing":6638,"Bb":6639,"D5":6640,"G7":6641,"Jf":6642,"S9":6643,"U6":6644,"Array":6645,"AM":6646,"Ff":6647,"m4":6648,"336":6649,"FY":6650,"}\")":6651,"2147":6652,"binary_":6653,"ValueError":6654,"d7":6655,"F9":6656,"4836":6657,"408":6658,"U9":6659,"next_node":6660,"n_max":6661,"188":6662,"\"{":6663,"dY":6664,"j4":6665,"区切り":6666,"q9":6667,"U2":6668,"qa":6669,"を作":6670,"_score":6671,"tu":6672,"modu":6673,"P7":6674,"DR":6675,"EY":6676,"JW":6677,"endl":6678,"Bp":6679,"Cre":6680,"PV":6681,"Sb":6682,"5575":6683,"Ci":6684,"Lf":6685,"d9":6686,"ping":6687,"zV":6688,"apper":6689,"641":6690,"33333333":6691,"T9":6692,"dK":6693,"kx":6694,"S4":6695,"331":6696,"254":6697,"の距離":6698,"ipt":6699,"Uf":6700,"_end":6701,"g6":6702,"Jv":6703,"338":6704,"X9":6705,"5335":6706,"N7":6707,"honest":6708,"mY":6709,"Uv":6710,"626":6711,"X3":6712,"4444":6713,"Dx":6714,"q7":6715,"MV":6716,"IV":6717,"OZ":6718,"q4":6719,"r3":6720,"Oo":6721,"alt":6722,"'])":6723,"Gy":6724,"ee":6725,"MK":6726,"_T":6727,"XZ":6728,"431":6729,"ious":6730,"sv":6731,"属する":6732,"FZ":6733,"428":6734,"あり":6735,"att":6736,"ero":6737,"links":6738,"fact_inv":6739,"Nf":6740,"z6":6741,"466":6742,"Nv":6743,"j9":6744,"I9":6745,"MW":6746,"分解":6747,"Gf":6748,"X7":6749,"_root":6750,"nY":6751,"facinv":6752,"DZ":6753,"MR":6754,"mW":6755,"F5":6756,"divs":6757,"Mat":6758,"Nk":6759,":\",":6760,"Pw":6761,"C5":6762,"Lv":6763,"zk":6764,"hH":6765,"Sa":6766,"SAT":6767,"nW":6768,"3753":6769,"clear":6770,"GZ":6771,"Nr":6772,"readInt":6773,"2400":6774,"Ds":6775,"ければ":6776,"Xl":6777,"qv":6778,"conv":6779,"box_":6780,"source":6781,"sum_a":6782,"短距離":6783,"================================":6784,"StringIO":6785,"Ny":6786,"qH":6787,"426":6788,"Cr":6789,"UR":6790,"n5":6791,"squ":6792,"alid":6793,"625":6794,"IH":6795,"最後":6796,"kazu":6797,"dH":6798,"inc":6799,"_black":6800,"connect":6801,"author":6802,"の中":6803,"posi":6804,"queries":6805,")#":6806,"b5":6807,"CV":6808,"D6":6809,"T5":6810,"lip":6811,"_keys":6812,"])*(":6813,"ROUN":6814,"EH":6815,"M7":6816,"qx":6817,"始点":6818,"laz":6819,"can_":6820,"Sr":6821,"g7":6822,"sun":6823,"J1":6824,"JV":6825,"j5":6826,"p8":6827,"奇数":6828,"hashi":6829,"ったら":6830,"Je":6831,"_C":6832,"qf":6833,"SZ":6834,"mZ":6835,"choice":6836,"771":6837,"layer":6838,"n9":6839,"q6":6840,"398":6841,"ik":6842,"zr":6843,"isPrime":6844,"]==\".\":":6845,"quence":6846,"TK":6847,"iw":6848,"490":6849,"(['":6850,"5654":6851,"E0":6852,"FW":6853,"numer":6854,"cnts":6855,"J2":6856,"hv":6857,"数字":6858,"989":6859,"O1":6860,"mK":6861,"shortest_":6862,"three":6863,"MAX_":6864,"366":6865,"Ts":6866,"ROUND_":6867,"3434":6868,"Pu":6869,"cZ":6870,"sup":6871,"EW":6872,"55733":6873,"Lazy":6874,"Px":6875,"カウ":6876,"Pro":6877,"stom":6878,"Bt":6879,"bj":6880,"qe":6881,"prop":6882,"次元":6883,"Jy":6884,"F3":6885,"Ll":6886,"qw":6887,"XH":6888,"991":6889,"divide":6890,"max_val":6891,"ichi":6892,"Pv":6893,"T7":6894,"ia":6895,"おく":6896,"Fv":6897,"IZ":6898,"bust":6899,"_key":6900,"_3":6901,"h9":6902,"}')":6903,"lcm_list":6904,"\"*(":6905,"clo":6906,"206":6907,"Dj":6908,"Tf":6909,"8766":6910,"I7":6911,"Qj":6912,"swith":6913,"custom":6914,"Fe":6915,"Iv":6916,"full":6917,"998":6918,"label":6919,"IW":6920,"M6":6921,"qV":6922,"O0":6923,"Qp":6924,"21474836":6925,"Lw":6926,"複数":6927,"5553":6928,"++)":6929,"182":6930,"Ao":6931,"OH":6932,"897":6933,"q5":6934,"face":6935,"(\"{":6936,"pow2":6937,"previous":6938,"Aw":6939,"show":6940,"gR":6941,"Sp":6942,"d5":6943,"Alist":6944,"I3":6945,"IY":6946,"hZ":6947,"格納":6948,"GV":6949,"int_":6950,"Sv":6951,"_be":6952,"I6":6953,"al_":6954,"shape":6955,"Bw":6956,"Mx":6957,"\"...":6958,"907":6959,"Nx":6960,"Xw":6961,"読み込":6962,"Mv":6963,"k_":6964,"h7":6965,"initiali":6966,"Bk":6967,"gp":6968,"n6":6969,"DK":6970,"dW":6971,"moves":6972,"Er":6973,"部分":6974,"106":6975,"228":6976,"zR":6977,"skip":6978,"SV":6979,"cur_":6980,"298":6981,"523":6982,"tips":6983,"152":6984,"keyence":6985,"入れる":6986,"Lu":6987,"zw":6988,"Ef":6989,"Ni":6990,"I1":6991,"S7":6992,"Sk":6993,"存在":6994,"104":6995,"EK":6996,"qj":6997,"C6":6998,"(':(')":6999,"222":7000,"NA":7001,"O5":7002,"ュー":7003,"の値":7004,"train":7005,"c7":7006,"ew":7007,"resh":7008,"ops":7009,"O7":7010,"T6":7011,"hr":7012,"Combination":7013,"累積和":7014,"BUF":7015,"Cb":7016,"O2":7017,"TZ":7018,"F7":7019,"S6":7020,"h8":7021,"''''''''":7022,"TV":7023,"O3":7024,"mH":7025,"'{":7026,"Qo":7027,"Uo":7028,"qr":7029,"preorder":7030,"l4":7031,"insort_left":7032,"Nt":7033,"setdefault":7034,"jump":7035,"assertIO":7036,"Ck":7037,"cY":7038,"Pf":7039,"bro":7040,"zx":7041,"c9":7042,"Db":7043,"Mi":7044,"Uw":7045,"793":7046,"compos":7047,"show_":7048,"Fy":7049,"I5":7050,"amax":7051,"32234":7052,"\"]:":7053,"Sf":7054,"ものを":7055,"Uu":7056,"ift":7057,"S5":7058,"_cand":7059,"Oe":7060,"d6":7061,"m8":7062,")]=":7063,"_card":7064,"JR":7065,"gj":7066,"h6":7067,"Created":7068,"ごと":7069,"Gu":7070,"eight":7071,"361":7072,"Tv":7073,"hY":7074,"int32":7075,"ople":7076,"=[(":7077,"階乗":7078,"))-":7079,"7737":7080,"switch":7081,"FK":7082,"Pj":7083,"403":7084,"nK":7085,"Uk":7086,"578":7087,"hf":7088,"の整数":7089,"uri":7090,"Object":7091,"islower":7092,"Eu":7093,"Ux":7094,")).":7095,"Sj":7096,"ype":7097,"m6":7098,"偶数":7099,"tei":7100,"5454":7101,"\"),":7102,"Lt":7103,"Ue":7104,"pj":7105,"next_v":7106,"person":7107,"eff":7108,"スタ":7109,"str_list":7110,"730":7111,"Qb":7112,"unittest":7113,"Dr":7114,"F6":7115,"FH":7116,"qb":7117,"7353":7118,"Col":7119,"IK":7120,"dV":7121,"_bin":7122,"4544":7123,"Mf":7124,"mins":7125,"Su":7126,"BUFSIZE":7127,"m9":7128,"mint":7129,"qk":7130,"3375":7131,"どうか":7132,"pow_":7133,"750":7134,"c8":7135,"men":7136,"Ti":7137,"せる":7138,"namespace":7139,"dp0":7140,"IOBase":7141,"この":7142,"ream":7143,"vertices":7144,"candidates":7145,"Xf":7146,"Xo":7147,"gk":7148,"h5":7149,"deq":7150,"Qs":7151,"Mk":7152,"Ry":7153,"csr_":7154,"RY":7155,"gra":7156,"かどうか":7157,"task":7158,"hk":7159,"Bit":7160,"rnk":7161,"]);":7162,"lista":7163,"mean":7164,"Ir":7165,"R7":7166,"5775":7167,"interse":7168,"Qr":7169,"qt":7170,"multi":7171,"Con":7172,"sorted_":7173,"FastIO":7174,"balance":7175,"680":7176,"Lk":7177,"_next":7178,"5655":7179,"Nu":7180,"775":7181,"Qk":7182,"Uj":7183,"691":7184,"O6":7185,"Ov":7186,"mj":7187,"Mt":7188,"post":7189,"heights":7190,"UE":7191,"inorder":7192,"Lb":7193,"^^^^^^^^":7194,"使う":7195,"ctr":7196,"rotate":7197,"old_":7198,"Cu":7199,"qp":7200,"zl":7201,"cond_":7202,"Fun":7203,"nZ":7204,"Lj":7205,"2017":7206,"']:":7207,"Xe":7208,"で割":7209,"vvvvvvvv":7210,"242":7211,"input_line":7212,"Xv":7213,"RZ":7214,"__x":7215,"594":7216,"648":7217,"Key":7218,"\"%":7219,")].":7220,"693":7221,"ターン":7222,"Pt":7223,"hW":7224,"_bound":7225,"PD":7226,"KIH":7227,"mV":7228,"Ur":7229,"644":7230,"640":7231,"EOF":7232,"PJ":7233,"m5":7234,"783":7235,"]='":7236,"Xr":7237,"alice":7238,"Ms":7239,"cW":7240,"]\"):":7241,"hK":7242,"max1":7243,"DFS":7244,"walk":7245,"632":7246,"AGC":7247,"Rs":7248,"Te":7249,"Rf":7250,"57355":7251,"complex":7252,"csr_matrix":7253,"Tw":7254,"Qw":7255,"4344":7256,"Io":7257,"that":7258,"6666":7259,"west":7260,"満た":7261,"paths":7262,"Oy":7263,"Fu":7264,"NJ":7265,"603":7266,"modpow":7267,"Bin":7268,"EZ":7269,"538":7270,"local":7271,"Gs":7272,"===":7273,"slo":7274,"キュー":7275,"flag2":7276,"Xj":7277,"you":7278,"_arr":7279,"0000000000000000000000000000000000000000000000000000000000000000":7280,"FV":7281,"sumA":7282,"2147483647":7283,"is_ok":7284,"場合は":7285,"ign":7286,"one_":7287,"magic":7288,"カウント":7289,"│＊":7290,"＊│":7291,"len_s":7292,"################################################################":7293,"素因数分解":7294,"Qi":7295,"R6":7296,"Ra":7297,"471":7298,":`":7299,"Ri":7300,"land":7301,"people":7302,"630":7303,"Qx":7304,"Nl":7305,"R9":7306,"Nw":7307,"denom":7308,"3221":7309,"に対":7310,"sta":7311,"Ak":7312,"list_a":7313,"[:(":7314,"ように":7315,"なく":7316,"])//":7317,"765":7318,"R4":7319,"itr":7320,"desc":7321,"([\"":7322,"8888":7323,"warp":7324,"Mw":7325,"node_":7326,"cK":7327,"hV":7328,"Ee":7329,"_to_n":7330,"EPS":7331,"_print":7332,"tem":7333,"_back":7334,"pZ":7335,"kan":7336,"R5":7337,"の個数":7338,"AtCo":7339,"gn":7340,"max2":7341,"7337":7342,"h4":7343,"Du":7344,"Mr":7345,"curr_":7346,"idx1":7347,"answers":7348,"neighbor":7349,"316":7350,"][\"":7351,"res2":7352,"548":7353,"&=":7354,"kyori":7355,"ced":7356,"groups":7357,"('#')":7358,"#-":7359,"isuu":7360,"quest":7361,"_cum":7362,"1000000000000000000":7363,"Gx":7364,"Ut":7365,"ym":7366,"column":7367,"already":7368,"Gb":7369,"XT":7370,"cV":7371,"qo":7372,"731":7373,"max_v":7374,"'*(":7375,"900":7376,"RV":7377,"less":7378,"Ie":7379,"781":7380,"'...":7381,"PyObject":7382,"floyd_war":7383,"floyd_warshall":7384,"c6":7385,"座標":7386,"hn":7387,"yl":7388,"BE":7389,"Gj":7390,"Gw":7391,"pY":7392,"RK":7393,"asum":7394,"Mu":7395,"Time":7396,"masu":7397,"Gk":7398,"hx":7399,"xlist":7400,"zs":7401,"順に":7402,"53733":7403,"Rv":7404,"H0":7405,"Jw":7406,"mit":7407,"dn":7408,"Ij":7409,"Xu":7410,"Qt":7411,"合計":7412,"mina":7413,"631":7414,"Search":7415,"&&":7416,"Us":7417,"7877":7418,"Xx":7419,"Che":7420,"Fs":7421,"Jx":7422,"55357":7423,"881":7424,"cious":7425,"取り出す":7426,"fast":7427,"eratosthenes":7428,"している":7429,"Wrapper":7430,"358":7431,"LD":7432,"Wor":7433,"second_":7434,"pin":7435,"balls":7436,"IOWrapper":7437,"It":7438,"aW":7439,"__class":7440,"135":7441,"__class__":7442,"Ct":7443,"Jo":7444,"Tj":7445,"取る":7446,"E_":7447,"376":7448,"Cx":7449,"K1":7450,"LLI":7451,"a6":7452,"false":7453,"Jt":7454,"x_max":7455,"zt":7456,"plist":7457,"EOFError":7458,"bob":7459,"AtCoder":7460,"Jj":7461,"distan":7462,"Fk":7463,"Rx":7464,"ong":7465,"11112":7466,"Jr":7467,"んで":7468,"ids":7469,"RS":7470,"Ub":7471,"Oj":7472,"a7":7473,"された":7474,"fb":7475,"10012":7476,"最初":7477,"aoki":7478,"Cj":7479,"Ou":7480,"kill":7481,"appe":7482,"than":7483,"Jk":7484,"受け":7485,"701":7486,"slv":7487,"Ot":7488,"sss":7489,"Rw":7490,"));":7491,"adjac":7492,"show_flg":7493,"reachable_from":7494,"ima":7495,"通り":7496,"('?":7497,"med":7498,"zc":7499,"ways":7500,"Ey":7501,"kot":7502,"l8":7503,"Ko":7504,"DEF":7505,"delicious":7506,"zb":7507,"_10_to_n":7508,"Id":7509,"{(":7510,"search_":7511,"types":7512,"\"])":7513,"Xt":7514,"hc":7515,"310":7516,"761":7517,"1つ":7518,"W2":7519,"wrap":7520,"答え":7521,"sorted_list":7522,"four":7523,"composition":7524,"p9":7525,"built":7526,"780":7527,"malle":7528,"repr":7529,"Fb":7530,"foo":7531,"(\"#\")":7532,"られる":7533,"]=='.':":7534,"))[":7535,"5554":7536,"version":7537,"4566":7538,"ックス":7539,"Hello":7540,"typing":7541,"763":7542,"Ow":7543,"\"],":7544,"primeNum":7545,"directed":7546,"べる":7547,"7654":7548,"683":7549,"trans":7550,"356":7551,"638":7552,"yu":7553,"odd_":7554,"weights":7555,"Bn":7556,"lk":7557,"m7":7558,"にな":7559,"':'":7560,"Fro":7561,"lst2":7562,"_ls":7563,"2234":7564,"rw":7565,"隣接":7566,"Jb":7567,"Tx":7568,"lst1":7569,"ncr":7570,"read_int_n":7571,"rf":7572,"681":7573,"event":7574,"pH":7575,"broken":7576,"パターン":7577,"calculate":7578,"solution":7579,"インデ":7580,"pref":7581,"Iu":7582,"NC":7583,"768":7584,"suma":7585,"iro":7586,"Dk":7587,"W1":7588,"game":7589,"の値を":7590,"max_index":7591,"elements":7592,"minedge":7593,"],-":7594,"sib":7595,"_sh":7596,"):]":7597,"Eb":7598,"37355":7599,"公倍数":7600,"(',":7601,"57357":7602,":.":7603,"操作":7604,"ponent":7605,"Main":7606,"pk":7607,"sear":7608,"Check":7609,"650":7610,"421":7611,"Gi":7612,"K8":7613,"Sn":7614,"Ui":7615,"690":7616,"ndp":7617,"一番":7618,"方向":7619,"木の":7620,"319":7621,"[,":7622,"p5":7623,"p6":7624,"%%":7625,"Ji":7626,"を計算":7627,"558":7628,"7677":7629,"Sx":7630,"798":7631,"World":7632,"Sd":7633,"VZ":7634,"_at":7635,"Returns":7636,"initialize":7637,"165":7638,"990":7639,"DEB":7640,"(*(":7641,"が同じ":7642,"isupper":7643,"57733":7644,"461":7645,"vowe":7646,"インデックス":7647,"Pb":7648,"Bc":7649,"Sl":7650,"a8":7651,"ran2":7652,"maxv":7653,"str1":7654,"Fr":7655,"ran1":7656,"*/":7657,"Xb":7658,"全部":7659,"3210":7660,"]!=-":7661,"sosu":7662,"happy":7663,"再帰":7664,"Iy":7665,"Ad":7666,"MQ":7667,"diffe":7668,"には":7669,"1199":7670,"Bytes":7671,"EE":7672,"_result":7673,"sunuke":7674,"Ul":7675,"aY":7676,")[:":7677,"pK":7678,"wa_":7679,"dev":7680,"576":7681,"updat":7682,"871":7683,"lower_divisors":7684,"'+'":7685,"866":7686,"{{":7687,"hour":7688,"SortedList":7689,"8988":7690,"_can":7691,"upper_divisors":7692,"BytesIO":7693,"V9":7694,"7888":7695,"14159":7696,"100001":7697,"have":7698,"AAAAAAAAAAAAAAAAAAAAAAAAAAAAAAAAAAAAAAAAAAAAAAAAAAAAAAAAAAAAAAAAAAAAAAAAAAAAAAAAAAAAAAAAAAAAAAAAAAAAAAAAAAAAAAAAAAAAAAAAAAAAAAAAAAAAAAAAAAAAAAAAAAAAAAAAAAAAAAAAAAAAAAAAAAAAAAAAAAAAAAAAAAAAAAAAAAAAAAAAAAAAAAAAAAAAAAAAAAAAAAAAAAAAAAAAAAAAAAAAAAAAAAAAAAAAAAAAAAAAAAAAAAAAAAAAAAAAAAAAAAAAAAAAAAAAAAAAAAAAAAAAAAAAAAAAAAAAAAAAAAAAAAAAAAAAAAAAAAAAAAAAAAAAAAAAAAAAAAAAAAAAAAAAAAAAAAAAAAAAAAAAAAAAAAAAAAAAAAAAAAAAAAAAAAAAAAAAAAAAAAAAAAAAAAAAAAAAAAAAAAAAAAAAAAAAAAAAAAAAAAAAAAAAAAAAAAAAAAAAAAAAAAAAAAAAAAAAAAAAAAAAAAAAAAAA":7699,"/*":7700,"Dt":7701,"LB":7702,"LIN":7703,"az":7704,"q_":7705,"数値":7706,"7753":7707,"ident":7708,"T_":7709,"Pri":7710,"max_n":7711,"gyaku_kaijo":7712,"_odd":7713,"a_b":7714,"GG":7715,"vf":7716,"451":7717,"Ru":7718,"Tk":7719,"Vs":7720,"(\"?":7721,"maxA":7722,"1599":7723,"Tb":7724,"gP":7725,"player":7726,"=\",":7727,"Ql":7728,"hite":7729,"します":7730,"でも":7731,"23344":7732,"ansl":7733,"57533":7734,"bub":7735,"oc":7736,"flat":7737,"gE":7738,"rest_":7739,"ved":7740,"DIV":7741,"lable":7742,"hihi":7743,"612":7744,"H3":7745,"LX":7746,"])>":7747,"sum_w":7748,"node_list":7749,"790":7750,"Last":7751,"Zero":7752,"971":7753,"argsort":7754,"Iw":7755,"285":7756,"Fx":7757,"vt":7758,"まり":7759,"('')":7760,"55737":7761,"Os":7762,"QX":7763,"action":7764,"時間":7765,"002":7766,"play":7767,"prob":7768,"read_float":7769,"choose":7770,"Gt":7771,"H9":7772,"Uz":7773,"t_list":7774,"'],":7775,"&(":7776,"_info":7777,"bad":7778,"_update":7779,"penal":7780,"multiple":7781,"yp":7782,"Ox":7783,"Out":7784,"Rr":7785,"a_s":7786,"mylist":7787,"Qz":7788,"]}":7789,"sequence":7790,"correct":7791,"kabu":7792,"791":7793,"Ix":7794,"Tu":7795,"_check":7796,"次の":7797,"eration":7798,"265":7799,"827":7800,"yt":7801,"ako":7802,"!')":7803,"n7":7804,"先頭":7805,"strs":7806,"u_":7807,"min_index":7808,"スタート":7809,"binary_search":7810,"?????":7811,"Cl":7812,"Jl":7813,"Rk":7814,"YN":7815,"610":7816,"ser":7817,"HK":7818,"res1":7819,")^":7820,"]]==":7821,"distances":7822,"updated":7823,"Solve":7824,"dum":7825,"ey":7826,"])[":7827,"kari":7828,"883":7829,"disc":7830,"個の":7831,"()}":7832,"())-":7833,"mapping":7834,"Jc":7835,"stru":7836,"32334":7837,"st_size":7838,"505":7839,"901":7840,"attack":7841,"For":7842,"Oi":7843,"Vf":7844,"Fj":7845,"hantei":7846,"~~~~":7847,"Da":7848,"border":7849,"の最短距離":7850,"Ej":7851,"Js":7852,"MB":7853,"114":7854,"dange":7855,"pW":7856,"入力例":7857,"Answer":7858,"K0":7859,"Z8":7860,"なければ":7861,"<<(":7862,"H6":7863,"yb":7864,"削除":7865,"_weight":7866,"Args":7867,"終了":7868,"history":7869,"839":7870,"Ho":7871,"cities":7872,"Ft":7873,"HY":7874,"37357":7875,"V5":7876,"Kv":7877,"Rj":7878,"Uq":7879,"ass":7880,"73577":7881,"PL":7882,"2nd":7883,"=[\"":7884,"quick":7885,"square":7886,"rous":7887,"sum2":7888,"argmax":7889,"vowel":7890,"525":7891,"CAL":7892,"H5":7893,"_edge":7894,"utes":7895,"compile":7896,"!!":7897,"890":7898,"XYZ":7899,"K9":7900,"324":7901,"VY":7902,"both":7903,"i5":7904,"コン":7905,"公約数":7906,"summ":7907,"276":7908,"7f":7909,"stair":7910,"10001":7911,"れている":7912,"W3":7913,"176":7914,"K4":7915,"coor":7916,"73533":7917,"OE":7918,"hm":7919,"364":7920,"の2":7921,"a_sum":7922,"cq":7923,"takahashi":7924,"832":7925,"XD":7926,"(\",":7927,"group_":7928,"build":7929,"1111111111111111":7930,"Fw":7931,"QQ":7932,"gest":7933,"BFS":7934,"に変換":7935,"Ol":7936,"DEBUG":7937,"tn":7938,"Hv":7939,"))==":7940,"394":7941,"bellman":7942,"2334":7943,"elm":7944,"3334":7945,"temp1":7946,"811":7947,"ses":7948,"3355":7949,"tmp_ans":7950,"SA":7951,"bubble":7952,"651":7953,"Cn":7954,"Cont":7955,"Draw":7956,"Z5":7957,"Z7":7958,"範囲":7959,"real":7960,"891":7961,"typedef":7962,"CG":7963,"Ik":7964,"Next":7965,"contain":7966,"nxt_":7967,"Ta":7968,"893":7969,"ional":7970,"H7":7971,"dama":7972,"chars":7973,"922":7974,":=":7975,"K3":7976,"K6":7977,"を満た":7978,"6544":7979,"INT_":7980,"313":7981,"Ca":7982,"Dl":7983,"125":7984,"QE":7985,"call":7986,"33577":7987,"37577":7988,"5656":7989,"_NUM":7990,"problem":7991,"]%=":7992,"brary":7993,"CP":7994,"760":7995,"983":7996,"Ii":7997,"Py_":7998,"UX":7999,"場所":8000,"context":8001,"new_x":8002,"NP":8003,"済み":8004,"numlist":8005,"('.')":8006,"LazySegTree":8007,"NUM":8008,"]\",":8009,"380000":8010,"K5":8011,"465":8012,"kotae":8013,"810":8014,"ZW":8015,"p7":8016,"880":8017,"mallest":8018,"KY":8019,"SX":8020,"tj":8021,"prim":8022,"]=-":8023,"pypy":8024,"3444":8025,":',":8026,"C_":8027,"F_":8028,"sli":8029,"ader":8030,"],[-":8031,"37533":8032,"+-+-+-+-+-+-+-+-+-+-+-+-":8033,"+-+-+-+-+-+-+-+-+-+-+-+-+-+-+-+-+-+-+-+-+-+-+-+-+-+-+-+-":8034,"#-+-+-+-+-+-+-+-+-+-+-+-+-+-+-+-+-+-+-+-+-+-+-+-+-+-+-+-+-":8035,"のみ":8036,"island":8037,"max_x":8038,"Dn":8039,"indexes":8040,"vote":8041,"bus":8042,"一つ":8043,"num_of_":8044,"Rb":8045,"e_":8046,"求め":8047,"gd":8048,"Bq":8049,"Ib":8050,"[])":8051,"7757":8052,"7878":8053,"RX":8054,"V3":8055,"とい":8056,"53777":8057,"prec":8058,"Type":8059,"only":8060,"shall_":8061,"Ml":8062,"fstat":8063,"801":8064,"Positive":8065,"300000":8066,"y_list":8067,"s_l":8068,"Y0":8069,"Ba":8070,"Lc":8071,"s4":8072,"584":8073,"()))))":8074,"注意":8075,"compare":8076,"K7":8077,"segment":8078,"bunbo":8079,"valid":8080,"864":8081,"On":8082,"Tt":8083,"zX":8084,"reached":8085,"'][":8086,"V4":8087,"Hf":8088,"hd":8089,"orith":8090,"idx2":8091,"pie":8092,"V7":8093,"max_i":8094,"cmp":8095,"plan":8096,"083":8097,"Gl":8098,"ban":8099,"...,":8100,"Score":8101,"QP":8102,"にして":8103,"expe":8104,"shortest_path":8105,"逆元テーブル":8106,"0b":8107,"Cc":8108,"gD":8109,"zn":8110,"ABCD":8111,"dangerous":8112,"822":8113,"W8":8114,"入れ":8115,"SO":8116,"WY":8117,"stable":8118,"STR":8119,"||":8120,"ans3":8121,"maxx":8122,"flag1":8123,"Stable":8124,"TA":8125,"()).":8126,"cake":8127,"HZ":8128,"list3":8129,"Bm":8130,"テスト":8131,"itions":8132,"'?'":8133,"現在":8134,"7755":8135,"202":8136,"hat":8137,"]]-":8138,"ータ":8139,"extra":8140,"]]))":8141,"wy":8142,"ority":8143,"Ford":8144,"検索":8145,"良い":8146,"\"\":":8147,"factorial_list":8148,"remainder":8149,"Arr":8150,"oe":8151,"wx":8152,"532":8153,"sibling":8154,"879":8155,"MS":8156,"値の":8157,"maxs":8158,"標準":8159,"stones":8160,"_flg":8161,"PQR":8162,"506":8163,"item__":8164,"_city":8165,"d_list":8166,"たい":8167,"target_list":8168,"考える":8169,"gcd_":8170,"ABD":8171,"snuke":8172,"354":8173,"_q":8174,"改行":8175,"keep":8176,"NL":8177,"Na":8178,"OO":8179,"Z2":8180,"911":8181,"Dp":8182,"Kf":8183,"bd":8184,"xu":8185,"maxa":8186,"division":8187,"checker":8188,"857":8189,"Mc":8190,"いい":8191,"direct":8192,"kr":8193,"以外":8194,"difference":8195,"844":8196,"zJ":8197,"retu":8198,"TE":8199,"wall":8200,"stk":8201,"646":8202,"inv_":8203,"abc0":8204,"6566":8205,"H_":8206,"qc":8207,"いない":8208,"mods":8209,"moved":8210,",=":8211,"Vy":8212,"V6":8213,"確定":8214,"argum":8215,"csum":8216,"変数":8217,"lazy_":8218,"propag":8219,"Fl":8220,"Y3":8221,"Z4":8222,"二分":8223,"qX":8224,"Qn":8225,"Zy":8226,"を取得":8227,"UVW":8228,"7557":8229,"Lm":8230,"inds":8231,"getcontext":8232,"Z9":8233,"_sub":8234,"vp":8235,"Rt":8236,"77355":8237,"pay":8238,"GX":8239,"LP":8240,"sur":8241,"37377":8242,"849":8243,"Z3":8244,"bit_":8245,"even_":8246,"FX":8247,"しい":8248,"全探索":8249,"sets":8250,"225":8251,"903":8252,"condition":8253,"r_list":8254,"AQ":8255,"bm":8256,"operation":8257,"Neg":8258,"vari":8259,"Tl":8260,"Y5":8261,"stand":8262,"7678":8263,"IndexError":8264,"スペース区切り":8265,"Hk":8266,"dro":8267,"含ま":8268,"3000":8269,"xmax":8270,"以下の":8271,"_word":8272,"869":8273,"free":8274,"サイ":8275,"aps":8276,"error_print":8277,"prv":8278,"equal":8279,")+'":8280,"803":8281,"------------":8282,"JX":8283,"()[::-":8284,"Ga":8285,"W0":8286,"304":8287,"tmp_list":8288,"*((":8289,"wp":8290,"lens":8291,"12212":8292,"patterns":8293,"Binary":8294,"ぞれ":8295,"\"-\"":8296,"Rl":8297,"va":8298,"apply":8299,"MC":8300,"12232":8301,"member":8302,"それぞれ":8303,"_color":8304,"目の":8305,"TO":8306,"Vj":8307,"kl":8308,"727":8309,"take":8310,"55555555":8311,"g_":8312,"inputData":8313,"val2":8314,"W4":8315,"Z1":8316,"EF":8317,"IJK":8318,"wait":8319,"720":8320,"929":8321,"探す":8322,"acant":8323,"PS":8324,"QJ":8325,"IX":8326,"Nd":8327,"k5":8328,"tab":8329,"lcs":8330,"odds":8331,"していく":8332,"!=-":8333,"LIS":8334,"mula":8335,"selection":8336,"reshape":8337,"orithm":8338,"Tz":8339,"列挙":8340,"i6":8341,"startswith":8342,"Y4":8343,"five":8344,"Gc":8345,"えて":8346,"7766":8347,"tak":8348,"shift":8349,"kaibun":8350,"rain":8351,"flags":8352,"719":8353,"The":8354,"W5":8355,"Eo":8356,"Il":8357,"qn":8358,"fac_list":8359,"Aut":8360,"33377":8361,"hig":8362,"')+":8363,"JJ":8364,"Ky":8365,"Bal":8366,"Hu":8367,"xの":8368,"coord":8369,"12112":8370,"6766":8371,"searched":8372,"185":8373,"919":8374,"amount":8375,"cat":8376,"fp":8377,"ants":8378,"mp_":8379,"11012":8380,"Ew":8381,"blist":8382,"5455":8383,"939":8384,"TX":8385,"SRL":8386,"Es":8387,"x5":8388,"最も":8389,"重複":8390,"ESS":8391,"Gq":8392,"vk":8393,"lis_":8394,"('{":8395,"ather":8396,"GRE":8397,"Nc":8398,"CB":8399,"Cz":8400,"UL":8401,"結果":8402,"ink":8403,"_white":8404,"したい":8405,"prices":8406,"pick":8407,"warshall_":8408,"single":8409,"form":8410,"rand_":8411,"77533":8412,"remaining":8413,"penalty":8414,"Sz":8415,"r4":8416,"53737":8417,"ABCDEF":8418,"MJ":8419,"HAL":8420,"Np":8421,"mX":8422,"23444":8423,"+=\"":8424,"標準入力":8425,"pointer":8426,"Bellman":8427,"finish":8428,"Ha":8429,"残り":8430,"ddn":8431,"729":8432,"])])":8433,"used_":8434,"行う":8435,"[\"\"":8436,"77377":8437,"12344":8438,"LOCAL":8439,"'[":8440,"Et":8441,"UJ":8442,"fP":8443,"dpx":8444,"))])":8445,"input_raw":8446,"W6":8447,"()-":8448,"rg":8449,"trees":8450,"3432":8451,"_numbers":8452,"intersection":8453,"QD":8454,"Vo":8455,"acos":8456,"rat":8457,"3373":8458,"SB":8459,"Ws":8460,"を追加":8461,"ール":8462,"its":8463,"2nn":8464,"fc":8465,"j6":8466,"read_ints":8467,"読み込み":8468,"]['":8469,"given":8470,"Scan":8471,"W9":8472,"142":8473,"bbb":8474,"853":8475,"Z0":8476,"FO":8477,"SJ":8478,"dct":8479,"prev_":8480,"monster":8481,"2100":8482,"Ku":8483,"SD":8484,"rgb":8485,"33357":8486,"1800":8487,"max_len":8488,"_X":8489,"more":8490,"]]]":8491,"log10":8492,"'}":8493,"zD":8494,"55355":8495,"Ua":8496,"low_":8497,"Hy":8498,"連続":8499,"_even":8500,"iy":8501,"行列":8502,"nCk":8503,"From":8504,"ナス":8505,"ような":8506,"IJKLM":8507,"1999":8508,"928":8509,"Nq":8510,"23322":8511,"readInts":8512,")**(":8513,"min_dist":8514,"koch":8515,"うち":8516,"382":8517,"53757":8518,"IJKLMNO":8519,"gm":8520,"hX":8521,"tell":8522,"_ford":8523,"Aa":8524,"Lq":8525,"f5":8526,"min_a":8527,"Ek":8528,"tbl":8529,"ptn":8530,"seki":8531,"dic2":8532,"Ld":8533,"Pc":8534,"fut":8535,"vd":8536,"new_y":8537,"highe":8538,"inl":8539,"sum_list":8540,"Lz":8541,"Wk":8542,"ih":8543,"にある":8544,"ライ":8545,"辞書":8546,"str_":8547,"状態":8548,"stone":8549,"Qc":8550,"Vacant":8551,"jx":8552,"BJ":8553,"Vk":8554,"b7":8555,"時は":8556,"b9":8557,"u0":8558,"の数字":8559,"GHIJKLMNO":8560,"LG":8561,"Op":8562,"gT":8563,"の長さ":8564,"arr2":8565,"s_map":8566,"s_len":8567,"warshall_floyd":8568,"HALF_":8569,"led":8570,"192":8571,"_non":8572,"PQRST":8573,"使用":8574,"21012":8575,"Nm":8576,"とか":8577,"7788":8578,"convert":8579,"astype":8580,"norm":8581,"ROUND_HALF_":8582,"cket":8583,"water":8584,"406":8585,"1を":8586,"859":8587,"Group":8588,"j7":8589,"がない":8590,"seed":8591,"GHIJKLMNOPQRST":8592,"Ln":8593,"l_list":8594,"ta_":8595,"{}:":8596,"Zf":8597,"Qq":8598,"anced":8599,"ATER":8600,"Fz":8601,"Y9":8602,"gG":8603,"j_":8604,"alind":8605,"Vv":8606,"JPY":8607,"Zv":8608,"ずつ":8609,"suf":8610,"Bd":8611,"HE":8612,"Kr":8613,"Rc":8614,"b8":8615,"設定":8616,"gess":8617,"53533":8618,"3535":8619,"452":8620,"export":8621,"LESS":8622,"library":8623,"minv":8624,"Md":8625,"Sq":8626,"nec":8627,"??????":8628,"x_min":8629,"Find_":8630,"UVWXYZ":8631,"Cq":8632,"Ph":8633,"xk":8634,"]-(":8635,"cial":8636,"718":8637,"817":8638,"Iz":8639,"mass":8640,"usuu":8641,"positive":8642,"ei":8643,"alc":8644,"145":8645,"7676":8646,"++++":8647,"bellman_ford":8648,"937":8649,"ときは":8650,":(-":8651,"yr":8652,"stream":8653,"conson":8654,"target_":8655,"algorithm":8656,"Hw":8657,"Ks":8658,"Lp":8659,"but":8660,"ABCDEFGHIJKLMNOPQRST":8661,"star":8662,"s_i":8663,"she":8664,"ップ":8665,"inner":8666,"()))]":8667,"str2":8668,"idx_":8669,"a_l":8670,"GREATER":8671,"future":8672,"WE":8673,"与え":8674,"方が":8675,"35377":8676,"値が":8677,"(\"{}\".":8678,"filen":8679,"425":8680,"Pq":8681,"SQ":8682,"hea":8683,"add__":8684,"#%%":8685,"833":8686,"Bh":8687,"freq":8688,"だと":8689,"store":8690,"())+":8691,"alindro":8692,"820":8693,"bh":8694,"thir":8695,"mul__":8696,",),":8697,"W7":8698,"f9":8699,"apple":8700,"All":8701,"Ze":8702,"53755":8703,"aka":8704,"test_入力例":8705,"gq":8706,"rantime":8707,"ACK":8708,"passed":8709,"fv":8710,"read_func":8711,"RRR":8712,"Y7":8713,"の頂点":8714,"Pn":8715,"dp3":8716,"in_n":8717,"385":8718,"xxx":8719,"lz":8720,"5434":8721,"sides":8722,"END":8723,"Uc":8724,"sympy":8725,"リストの":8726,"_candi":8727,"GJ":8728,"数が":8729,"を見":8730,"umi":8731,"max_h":8732,"interval":8733,"1110":8734,"MMMM":8735,"BQ":8736,"Dc":8737,"b6":8738,"imple":8739,"w4":8740,"チェ":8741,"種類":8742,"li_":8743,"_counts":8744,"shortest":8745,"COD":8746,"a9":8747,"i9":8748,"1232":8749,"group_count":8750,"l9":8751,"gcds":8752,"near":8753,"taro":8754,"diction":8755,"Dire":8756,"higher":8757,"cells":8758,"consonant":8759,"Oc":8760,"5456":8761,"TS":8762,"jv":8763,"(\".\")":8764,"group_members":8765,"623":8766,"Ah":8767,"CJ":8768,"OJ":8769,"302":8770,"factorials":8771,"ABCDEFGHIJKLMNOPQRSTUVWXYZ":8772,"Aq":8773,"Cp":8774,"Dz":8775,"Rz":8776,"314":8777,"amin":8778,"そう":8779,"858":8780,"840":8781,"k4":8782,"l6":8783,"高さ":8784,"det":8785,"272":8786,"next_pos":8787,"CQ":8788,"dpy":8789,"195":8790,"letters":8791,"Fen":8792,"選ぶ":8793,"succ":8794,"チェック":8795,"950":8796,"lmi":8797,"55555":8798,"[],[]":8799,"Find_Root":8800,"722":8801,"Lh":8802,"Yy":8803,"とこ":8804,"作成":8805,"77357":8806,"9988":8807,"next_x":8808,"faces":8809,"850":8810,"あれば":8811,"優先":8812,"564":8813,"tp_":8814,"Cm":8815,"DF":8816,"Iq":8817,"Y8":8818,"rui":8819,"G_":8820,"Mq":8821,"Nh":8822,"sei":8823,"otal":8824,"57737":8825,"Kw":8826,"Nn":8827,"UQ":8828,"dered":8829,"boundary":8830,"Mp":8831,"untime":8832,"index_":8833,"buy":8834,"ppp":8835,"ごとに":8836,"l5":8837,"};":8838,"////":8839,"]+(":8840,"dist2":8841,"yakusu":8842,"region":8843,"=((":8844,"YE":8845,"iz":8846,"2399":8847,"_area":8848,"YW":8849,"繰り":8850,"ene":8851,"a_count":8852,"all_group_members":8853,"けて":8854,"min_val":8855,"special":8856,"Cd":8857,"824":8858,"Tmp":8859,"ared":8860,"415":8861,"lca":8862,"base_10_to_n":8863,"GQ":8864,"KV":8865,"OX":8866,"RP":8867,"という":8868,"Mh":8869,"frag":8870,"some":8871,"record":8872,"'-'":8873,"TFTFTFTFTFTFTFTF":8874,"([-":8875,"816":8876,"Yv":8877,"なか":8878,"index2":8879,"avai":8880,"を満たす":8881,"u9":8882,"val1":8883,"2653":8884,"frac":8885,"848":8886,"Zr":8887,"damage":8888,"Kx":8889,"gQ":8890,"stud":8891,"lunlun":8892,"Sm":8893,"33232":8894,"'%":8895,"870":8896,"Fq":8897,"割り":8898,"時に":8899,"286":8900,"\"...\")":8901,"TJ":8902,"js":8903,"ning":8904,"33212":8905,"55533":8906,"504":8907,"初期値":8908,"adjacent":8909,"IE":8910,"3332":8911,"how":8912,"Hr":8913,"Wa":8914,"22232":8915,"hole":8916,"Runtime":8917,"981":8918,"Matrix":8919,"IJ":8920,"ual":8921,"formula":8922,"7773":8923,"22112":8924,"txy":8925,"ukei":8926,"dX":8927,"i7":8928,"よい":8929,"マイ":8930,"3353":8931,"115":8932,"modint":8933,"........":8934,"55337":8935,"999999999":8936,"GP":8937,"Zo":8938,"'.',":8939,"alindrome":8940,"t8":8941,"_wa":8942,"ことが":8943,"748":8944,"_ind":8945,"nlist":8946,"march":8947,"Y6":8948,"自分":8949,"22212":8950,"CR":8951,"Mm":8952,"Wo":8953,"u8":8954,"dish":8955,"759":8956,"834":8957,"CS":8958,"TL":8959,"w9":8960,"指定":8961,"dijk":8962,"(-(":8963,"726":8964,"Wy":8965,"_all":8966,"5556":8967,"Char":8968,"fixed":8969,"マイナス":8970,"<(":8971,"EQU":8972,"ZV":8973,"sf":8974,"sublist":8975,"Kk":8976,"_gcd":8977,"i番目":8978,"lmax":8979,"t4":8980,"が1":8981,"Gz":8982,"]+\"":8983,"Balanced":8984,"*(-":8985,"CF":8986,"MU":8987,"GD":8988,"Mn":8989,"Tq":8990,"53337":8991,"http":8992,":])))":8993,"Tn":8994,"yaku":8995,"Scanner":8996,"918":8997,"_string":8998,"ize":8999,"v9":9000,"s_num":9001,"830":9002,"される":9003,"Vis":9004,"ah":9005,"veni":9006,"739":9007,"969":9008,"B_list":9009,"En":9010,"Gp":9011,"Xm":9012,"yc":9013,"ches":9014,"\"?\"":9015,"12233":9016,"SU":9017,"Tp":9018,"seat":9019,"の数を":9020,"lh":9021,"Dijkstra":9022,"736":9023,"934":9024,"978":9025,"PF":9026,"his":9027,"facts":9028,"dice1":9029,"argest":9030,"forward":9031,"iti":9032,"ALL":9033,"RA":9034,"v_list":9035,"55577":9036,"bis":9037,"短経路":9038,"33757":9039,"power_func":9040,"\"][":9041,")=":9042,"Hi":9043,"Ic":9044,"clist":9045,"によ":9046,"22344":9047,"の最大値":9048,"EQUAL":9049,"k8":9050,"tgt":9051,"unc":9052,"acum":9053,"********":9054,"Ec":9055,"Kj":9056,"Pz":9057,"Ye":9058,"kei":9059,"957":9060,"ging":9061,"やつ":9062,"und_":9063,"ほう":9064,"discard":9065,"856":9066,"Od":9067,"Rm":9068,"vc":9069,"sive":9070,"ffff":9071,"860":9072,"Xa":9073,"bet":9074,"Divis":9075,"'-':":9076,"_search":9077,"hed":9078,"which":9079,"BS":9080,"min1":9081,"????????????????????????????????":9082,"ところ":9083,"868":9084,"Hj":9085,"OS":9086,"Ys":9087,"east":9088,"mp_def":9089,"gth":9090,"m_list":9091,"check_list":9092,"number_list":9093,"Dic":9094,"Uh":9095,"[:],":9096,"getenv":9097,"uo":9098,"かを":9099,"Gn":9100,"Ht":9101,"r8":9102,"v6":9103,"Size":9104,"past":9105,"new_list":9106,"reachable_to_":9107,"_op":9108,"w8":9109,"()+":9110,"Gh":9111,"Oz":9112,"bar":9113,"到達":9114,"Zx":9115,"_new":9116,"w7":9117,"100100":9118,"_before":9119,"LQ":9120,"_add":9121,"heap化":9122,"Code":9123,"targets":9124,"ROUND_HALF_UP":9125,"Kt":9126,"f6":9127,"exact":9128,"max_idx":9129,"ACGT":9130,"836":9131,"53357":9132,"new_h":9133,"Vx":9134,"zoku":9135,"32211":9136,"=[[-":9137,"gole":9138,"goukei":9139,"932":9140,"jun":9141,"]!=\"":9142,"original":9143,"super":9144,"828":9145,"nth":9146,"max_sum":9147,"conveni":9148,"ときの":9149,"complexity":9150,"sor":9151,"末尾":9152,"53557":9153,"rial":9154,"06d":9155,"926":9156,"Jz":9157,"qm":9158,"u4":9159,"9877":9160,"959":9161,"Fc":9162,"idai":9163,"402":9164,"081":9165,"longest":9166,"Mint":9167,"各頂点":9168,"int_list":9169,"1024":9170,"jobs":9171,"Directed":9172,"Ud":9173,"データ":9174,"7876":9175,"]!='":9176,">(":9177,"Gm":9178,"k9":9179,"ug":9180,"Pd":9181,"qd":9182,"使わ":9183,"927":9184,"CL":9185,"Hx":9186,"kt":9187,"wd":9188,"Negative":9189,"826":9190,"Fm":9191,"Wj":9192,"YX":9193,"まだ":9194,"e3":9195,"kj":9196,"224":9197,"findroot":9198,"cands":9199,"_nonzero":9200,"mono":9201,"033":9202,"728":9203,"Fd":9204,"ard_":9205,"siz":9206,"methods":9207,"Color":9208,"Gd":9209,"uru":9210,"module":9211,"prof":9212,"99999":9213,"]^":9214,"is_same":9215,"867":9216,"Vb":9217,"596":9218,"Im":9219,"ov":9220,"べき":9221,"logging":9222,"\"-\":":9223,"Ki":9224,"u3":9225,"3443":9226,"ful":9227,"oi":9228,"れない":9229,"を出力":9230,"('%":9231,"isprime":9232,"##############":9233,"に対して":9234,"地点":9235,"57773":9236,"Hc":9237,"M_":9238,"bas":9239,"__get":9240,"s_count":9241,"1の":9242,"Vr":9243,"u5":9244,"min_x":9245,"5443":9246,"DJ":9247,"flip":9248,"dai":9249,"Total":9250,"_loop":9251,"rail":9252,"53753":9253,"flatten":9254,"l7":9255,"))**":9256,"min_c":9257,"miss":9258,"714":9259,"での":9260,"上限":9261,"arr1":9262,"deleteFirst":9263,"scan":9264,"apsack":9265,"v7":9266,"problems":9267,"Visit":9268,"Qm":9269,"245":9270,"suit":9271,"RGB":9272,"Ih":9273,"Yx":9274,"fig":9275,"33355":9276,"compute":9277,"740":9278,"Kb":9279,"Oa":9280,"skill":9281,"に行":9282,"count_nonzero":9283,"306":9284,"Qa":9285,"W_":9286,"f7":9287,"outputData":9288,"coordin":9289,"init_":9290,"3199":9291,"でない":9292,"57577":9293,"getN":9294,"next_h":9295,"next_y":9296,"Length":9297,"4000":9298,"gue":9299,")]+":9300,"cumul":9301,"リストに":9302,"818":9303,"cnt_list":9304,"5735":9305,"Ng":9306,"encoding":9307,"__r":9308,"374":9309,"55753":9310,"lazy_segtree":9311,"615":9312,"?\":":9313,"Fp":9314,"Rp":9315,"7775":9316,"Vl":9317,"Hb":9318,"Pm":9319,"k6":9320,"mod1":9321,"a_cnt":9322,"inv_t":9323,"091":9324,"logN":9325,"Distance":9326,"zd":9327,"書き":9328,"present":9329,"min_i":9330,"1行":9331,"Oq":9332,"\"%(":9333,"です":9334,"Zb":9335,"h_max":9336,"xmin":9337,"5432":9338,"146":9339,"dic1":9340,"(\"#\",":9341,"Ei":9342,"Fh":9343,"vj":9344,"zh":9345,"max_cnt":9346,"\"[":9347,"'':":9348,"Om":9349,")))))":9350,"Vi":9351,"Ww":9352,"e9":9353,"__MOD":9354,"35577":9355,"5444":9356,"Dq":9357,"RJ":9358,"s5":9359,"585":9360,"ABC0":9361,"ML":9362,"Xp":9363,"ios":9364,"stc":9365,"しておく":9366,"DT":9367,"FJ":9368,"rj":9369,"ビット":9370,"プル":9371,"274":9372,"tile":9373,"satis":9374,"BIG":9375,"Pp":9376,"Um":9377,"Wi":9378,"Zj":9379,"imag":9380,"y_min":9381,"912":9382,"_L":9383,"33533":9384,"parity":9385,"Yn":9386,"r_query":9387,"merge_sort":9388,"third":9389,"gL":9390,"は0":9391,"__add__":9392,"ING":9393,"\"+\":":9394,"文字列を":9395,"_cards":9396,"_li":9397,"r9":9398,"v5":9399,"のうち":9400,"end_":9401,"s6":9402,"vb":9403,"の計算":9404,"value_":9405,"close":9406,"635":9407,"854":9408,"_matrix":9409,"365":9410,"avg":9411,"('#'":9412,"FE":9413,"RQ":9414,"未満":9415,"st2":9416,"coins":9417,"5667":9418,"selected":9419,"AI":9420,"53537":9421,"ZIP":9422,"aq":9423,"fm":9424,"124":9425,"XJ":9426,"uj":9427,"3321":9428,"pts":9429,"リストを":9430,"\"##":9431,"Sat":9432,"t5":9433,"の総":9434,"ween":9435,"5666":9436,"capac":9437,"Kl":9438,"めて":9439,"'#')":9440,"914":9441,"OQ":9442,"57337":9443,"53373":9444,"partial":9445,"bの昇順":9446,"box_col":9447,"Res":9448,"nlargest":9449,"Card":9450,"available":9451,"MN":9452,"cls":9453,"modinv_list":9454,"ox":9455,"a_num":9456,"++){":9457,",[]":9458,"Yj":9459,"_vertex":9460,"つける":9461,"22233":9462,"ans_1":9463,"bの降順":9464,"struct":9465,"#.":9466,"712":9467,"756":9468,"RU":9469,"7776":9470,"subset":9471,"Tm":9472,"o3":9473,"submit":9474,"pppppppppppppppp":9475,"q_list":9476,"xが":9477,"zm":9478,"**-":9479,"getList":9480,"new_w":9481,"highest":9482,"El":9483,"12234":9484,"?????????":9485,"ccc":9486,"Rq":9487,"Tc":9488,"Wx":9489,"57353":9490,"Equal":9491,"WZ":9492,"fh":9493,"071":9494,"__getitem__":9495,"711":9496,"nan":9497,"深さ":9498,"chmin":9499,"sieve_of_":9500,"Xq":9501,"貪欲":9502,"changed":9503,"yv":9504,"sentence":9505,"ignore":9506,"一致":9507,"____":9508,"ch_":9509,"1400":9510,"randrange":9511,"Contest":9512,"_minus":9513,"hmax":9514,"Fact":9515,"1e18":9516,"Oh":9517,"Vu":9518,"**.":9519,"953":9520,"<<=":9521,"Eq":9522,"tans":9523,"maxnum":9524,"MAX_N":9525,"'+':":9526,"NIL":9527,"DC":9528,"dict_":9529,"entry":9530,"ans_tmp":9531,"847":9532,"記録":9533,"input1":9534,"paint":9535,"&-":9536,"Dd":9537,"NB":9538,"w_list":9539,"sum_b":9540,"2799":9541,"=\"\".":9542,"Hl":9543,"Yf":9544,"ifact":9545,")]*":9546,"ans_l":9547,"dice2":9548,"VK":9549,"Wb":9550,"924":9551,"スコ":9552,"5535":9553,"最小公倍数":9554,"979":9555,"Ez":9556,"GF":9557,"^(":9558,"st1":9559,"iterator":9560,"kakudo":9561,"\";":9562,"UU":9563,"yk":9564,"1399":9565,"peri":9566,"Td":9567,"33233":9568,"uld":9569,"prime_factor":9570,"Make":9571,"Cycle":9572,"スコア":9573,"Mult":9574,"Wf":9575,"Xn":9576,"Yr":9577,"x7":9578,"しか":9579,"重み":9580,"max_A":9581,"\"#\")":9582,"deleteLast":9583,"944":9584,"ript":9585,"row1":9586,"749":9587,"WK":9588,"WS":9589,"Xz":9590,"連結":9591,"cnt_b":9592,"093":9593,"dictionary":9594,"TP":9595,"tap":9596,"w5":9597,"まず":9598,"asin":9599,"ameter":9600,"2つ":9601,"Ed":9602,"maxn":9603,"++.":9604,"y5":9605,"th_":9606,"116":9607,"next_w":9608,"ans_2":9609,"ことで":9610,"738":9611,"812":9612,"Lg":9613,"R_":9614,"Rn":9615,"Use":9616,"調べる":9617,"sel_":9618,"html":9619,"matched":9620,"permutation":9621,"lower_bound":9622,"stdc":9623,"ucli":9624,"AU":9625,"P_":9626,"VI":9627,"kak":9628,"w6":9629,"('{}:":9630,"'...')":9631,"org_":9632,"圧縮":9633,"_cy":9634,"のノード":9635,"compr":9636,"hlist":9637,"t9":9638,"55537":9639,"min_idx":9640,"min_diff":9641,"0001":9642,"house":9643,"1回":9644,"Jq":9645,"LMI":9646,"対象":9647,"roo":9648,"parent_":9649,"lq":9650,"sche":9651,"967":9652,"Fn":9653,"Wu":9654,"ranch":9655,"save":9656,"Jn":9657,"TQ":9658,"ample":9659,"don":9660,"セット":9661,"数える":9662,"inn":9663,"layer0":9664,"__MOD__":9665,"HV":9666,"Idx":9667,"_zero":9668,"しま":9669,"余り":9670,"tmp_sum":9671,"196":9672,"3573":9673,"837":9674,"930":9675,"wm":9676,"job":9677,"frm":9678,"できない":9679,"948":9680,"DO":9681,"t6":9682,"max_c":9683,"ABs":9684,"kosuu":9685,"838":9686,"rh":9687,"yB":9688,"defin":9689,"Now":9690,"???????????":9691,"744":9692,"UO":9693,"getlist":9694,"#[":9695,"910":9696,"Dm":9697,"Xc":9698,"ZK":9699,"fk":9700,"辺の":9701,"_cycle":9702,"gC":9703,"=[(-":9704,"10000000000":9705,"div__":9706,"city_":9707,"yx":9708,"ここから":9709,"i_list":9710,"zq":9711,"1211":9712,"iln":9713,"3777":9714,"food":9715,"Rd":9716,"lj":9717,"3323":9718,"938":9719,"FQ":9720,"MG":9721,"y_max":9722,"ッチ":9723,"coef":9724,"olution":9725,"7899":9726,"35733":9727,"sub__":9728,"9999999999":9729,"events":9730,"connection":9731,"IQ":9732,"まる":9733,"確認":9734,"oper":9735,"diff_":9736,"zp":9737,"37353":9738,"645":9739,"trunc":9740,"row2":9741,"BellmanFord":9742,"Wv":9743,"Zk":9744,"asc":9745,"ical":9746,"))%(":9747,"57777":9748,"kinds":9749,"rel":9750,"encode":9751,"])<":9752,"dim":9753,"7789":9754,"vertex_start":9755,"vertex_end":9756,"''''''''''''''''":9757,"Ia":9758,"N_list":9759,"Snuke":9760,"Yb":9761,"asu":9762,"acc_":9763,"INV":9764,"gB":9765,"inputList":9766,"5567":9767,"7889":9768,"最小の":9769,"桁目":9770,"計算用":9771,"auto":9772,"('?',":9773,"上げ":9774,"替え":9775,"routes":9776,"57537":9777,"names":9778,"inm":9779,"572":9780,"prefix":9781,"sml":9782,"drop":9783,"1文字":9784,"DQ":9785,"UTF":9786,"Zu":9787,"らない":9788,"\")+":9789,"insort_right":9790,"77577":9791,"1900":9792,"input_str":9793,"alphabets":9794,"960":9795,"LU":9796,"sai":9797,"空白":9798,"2232":9799,"syo":9800,"終わ":9801,"順列":9802,"186":9803,"node_id":9804,"_car":9805,"create":9806,"finished":9807,"H_list":9808,"ymax":9809,"eru":9810,"num_b":9811,"aba":9812,"evens":9813,"53333":9814,"472":9815,"roads":9816,"制限":9817,"Xh":9818,"tolist":9819,"boo":9820,"2111":9821,"Vector":9822,"guess":9823,"940":9824,"_dist":9825,"ifac":9826,"cnt0":9827,"expr":9828,"compon":9829,"LLIN":9830,"capacity":9831,"TC":9832,"e4":9833,"r5":9834,"mergeSort":9835,"'<":9836,"=''.":9837,"k7":9838,"resid":9839,"342":9840,"s_dict":9841,"351":9842,"754":9843,"port":9844,"arp":9845,"s_c":9846,"time_":9847,"_small":9848,"EQ":9849,"i番目の":9850,"today":9851,"999999":9852,"XS":9853,"Xd":9854,"126":9855,"]+'":9856,"7656":9857,"35537":9858,"Hn":9859,"]]*":9860,"oy":9861,"個数を":9862,"asa":9863,"Yw":9864,"_find":9865,"kb":9866,"seven":9867,"10f":9868,"[''":9869,"b_i":9870,"が0":9871,"\",\"\")":9872,"Jm":9873,"zen":9874,"}{":9875,"no_":9876,"argmin":9877,"Output":9878,"1121":9879,"ONLIN":9880,"724":9881,"BN":9882,"Par":9883,"んだ":9884,"近い":9885,"leader":9886,"just":9887,"knapsack":9888,"\"}":9889,"814":9890,"Ag":9891,"Zw":9892,"の和":9893,"partition":9894,"ではない":9895,"Kp":9896,"bq":9897,"index1":9898,"conver":9899,"+{}":9900,"isp":9901,"を行う":9902,"__repr":9903,"ddprint":9904,"min_pos":9905,"Fennec":9906,"__repr__":9907,"980":9908,"DL":9909,"IINF":9910,"また":9911,"update_":9912,"_box":9913,"最大公約数":9914,"Dif":9915,"Ea":9916,"のは":9917,"solver":9918,"stairs":9919,"Ip":9920,"Vw":9921,"iN":9922,"yg":9923,"の配列":9924,"and_":9925,"37537":9926,"functions":9927,"SortedSet":9928,"Jd":9929,"Zs":9930,"_temp":9931,"bur":9932,"受け取る":9933,"PN":9934,"rock":9935,"\"\",":9936,"b_cnt":9937,"period":9938,"rhs":9939,"正解":9940,"184":9941,"outh":9942,"141592653":9943,"JQ":9944,"x6":9945,"op2":9946,"1799":9947,"Ordered":9948,"o8":9949,"LOG":9950,"Factorial":9951,"rooms":9952,"954":9953,"949":9954,"TR":9955,"WQ":9956,"cz":9957,"反転":9958,"s_set":9959,"a_min":9960,"jf":9961,"見て":9962,"(\"{:.":9963,")];":9964,"lowest":9965,"-{}":9966,"955":9967,"GU":9968,"Hm":9969,"Yi":9970,"3343":9971,"7655":9972,"question":9973,"OC":9974,"e5":9975,"(){":9976,"502":9977,"x_i":9978,"#################":9979,"l_max":9980,"=',":9981,"IC":9982,"gar":9983,"u6":9984,"s_d":9985,"Heap":9986,"variable":9987,"_values":9988,"inity":9989,"org_inp":9990,"hyo":9991,"Vz":9992,"が存在":9993,"的に":9994,"sters":9995,"numList":9996,"すると":9997,"mii":9998,"Em":9999,"Ja":10000,"cmath":10001,"kc":10002,"r6":10003,"top_":10004,"cursor":10005,"item_at":10006,"item_at_car":10007,"ization":10008,"ZX":10009,"y9":10010,"実行":10011,"lll":10012,"FP":10013,"egcd":10014,"gM":10015,"足す":10016,"tele":10017,"op1":10018,"情報":10019,"('{:.":10020,"7898":10021,"3445":10022,"rq":10023,"ymin":10024,"33755":10025,"734":10026,"=%":10027,"に追加":10028,"diffs":10029,"GB":10030,"3735":10031,"162":10032,"5600":10033,"ときに":10034,"_dup":10035,"Vt":10036,"numb":10037,"getvalue":10038,"するか":10039,"descript":10040,"ratio":10041,"description":10042,"3223":10043,"264":10044,"586":10045,"2110":10046,"57753":10047,"ally":10048,"changes":10049,"seconds":10050,"917":10051,"HS":10052,"Jp":10053,"RB":10054,"に属する":10055,"への最短距離":10056,"併合":10057,"__mul__":10058,"22234":10059,"(\"#\"":10060,"を作る":10061,"GA":10062,"HQ":10063,"o0":10064,")]+=":10065,"3575":10066,"newlist":10067,"anten":10068,"DM":10069,"Hq":10070,"rfind":10071,"6677":10072,"496":10073,"misc":10074,"OB":10075,"Wl":10076,"hz":10077,"もし":10078,"pare":10079,"lst_":10080,"672":10081,"calcul":10082,"assertEqual":10083,"list2d":10084,"PU":10085,"o4":10086,"37557":10087,"soin":10088,"linklist":10089,"gram":10090,"YZ":10091,"jw":10092,"nal":10093,"PM":10094,"の位置":10095,"tax":10096,"Dis":10097,"YK":10098,"Yz":10099,"zan":10100,"ani":10101,"new_score":10102,"\"+\"+":10103,"sieve_of_eratosthenes":10104,"Ver":10105,"なし":10106,"maxl":10107,"1123":10108,"Vn":10109,"datas":10110,"ans_array":10111,"hanako":10112,"OrderedDict":10113,"s8":10114,"xys":10115,"すれば":10116,"445":10117,"3775":10118,"958":10119,"XB":10120,"bz":10121,"008":10122,"atan2":10123,"Zi":10124,"_row":10125,"っち":10126,"ename":10127,"ashi":10128,"5477":10129,"dule":10130,"00000000000000000000000000000000000000000000000000000000000000000000000000000000000000000000000000000000000000000000000000000000":10131,"なが":10132,"LIR_":10133,"^^^^^^^^^^^^^^^^":10134,"vvvvvvvvvvvvvvvv":10135,"コンテスト":10136,"936":10137,"CM":10138,"FD":10139,"month":10140,"min_v":10141,"33733":10142,"typename":10143,"/%":10144,"_M":10145,"xw":10146,"とり":10147,"💩💩":10148,"908":10149,"ccw":10150,"AKIH":10151,"Hp":10152,"jr":10153,"stu":10154,"toshi":10155,"間に":10156,"len_t":10157,"node2":10158,")``":10159,"y8":10160,"かつ":10161,"メモ":10162,"max_ans":10163,"new_s":10164,"10110":10165,"f_inf":10166,"PT":10167,"_ab":10168,"e0":10169,"fg":10170,"qh":10171,"sA":10172,"frame":10173,"717":10174,"987":10175,"Fg":10176,"Kn":10177,"_lis":10178,"クト":10179,"orth":10180,"968":10181,":%":10182,"VX":10183,"lity":10184,"']*":10185,"vh":10186,"opponent":10187,"Same":10188,"Ya":10189,"jb":10190,"rmin":10191,"online":10192,"exec":10193,"uler":10194,"A_max":10195,"JU":10196,"_parent":10197,"kit":10198,"u7":10199,"時の":10200,"list_s":10201,"3773":10202,"saidai":10203,"2500":10204,"aves":10205,"_case":10206,"BU":10207,"kp":10208,"sum_A":10209,"linked":10210,"Factorization":10211,"JO":10212,"gain":10213,"aaaa":10214,"success":10215,"HX":10216,"Sg":10217,"かる":10218,"dio":10219,"infinity":10220,"v_odd":10221,"modulo":10222,"\"##\"":10223,"4d":10224,"HO":10225,"LN":10226,"_of":10227,"！！":10228,"3553":10229,"頂点数":10230,"Qd":10231,"Qh":10232,"Red":10233,"branch":10234,"__future":10235,"findall":10236,"ACL":10237,"@@@@":10238,"__future__":10239,"743":10240,"FLA":10241,"_buffer":10242,"xB":10243,"35573":10244,"747":10245,"_prime":10246,"aList":10247,"_range":10248,")]]":10249,"max_pos":10250,"55757":10251,"bridges":10252,"3f":10253,"920":10254,"PG":10255,"エリ":10256,"372":10257,"i2s":10258,"Height":10259,"yakusuu":10260,":\"":10261,"RN":10262,"[{}":10263,"\")[":10264,"pena":10265,"1個":10266,"?':":10267,"Wt":10268,"Za":10269,"rmax":10270,"xh":10271,"で初期化":10272,"を使う":10273,"ティ":10274,"beki":10275,"dow":10276,"smaller":10277,"defined":10278,":'":10279,"Jh":10280,"toS":10281,"docs":10282,"33753":10283,"FG":10284,"speed":10285,"'>":10286,"3345":10287,"is_b":10288,"Weight":10289,"_nodes":10290,"にお":10291,"prime_factors":10292,"SN":10293,"Wc":10294,"kf":10295,"xA":10296,"',['":10297,")*(-":10298,"lines_input":10299,"Tup":10300,"want":10301,"に入":10302,"タプル":10303,"abb":10304,"\"\"\"\"":10305,"592":10306,"392":10307,"will":10308,"'',":10309,"500000":10310,"PA":10311,"Vq":10312,"WB":10313,"eh":10314,"('/":10315,"396":10316,"a_n":10317,"976":10318,"hes":10319,"977":10320,"::-":10321,"FU":10322,"jl":10323,"tow":10324,"Priority":10325,"YNe":10326,"絶対":10327,"sti":10328,"+='":10329,"ss2nn":10330,"a_1":10331,"A_i":10332,"Start":10333,"されたリスト":10334,"933":10335,"Ep":10336,"Hd":10337,"JT":10338,"Yt":10339,"WX":10340,"ラス":10341,"max_l":10342,"全ての":10343,"Table":10344,"など":10345,"lls":10346,"mod_inv":10347,"_candidate":10348,"710":10349,"alf":10350,"xo":10351,"候補":10352,"346":10353,"164":10354,"MAXN":10355,"73333":10356,"clock":10357,"count_b":10358,"6676":10359,"temp_list":10360,"5665":10361,"gU":10362,"former":10363,"inputInt":10364,"35373":10365,"location":10366,"vL":10367,"5445":10368,"_short":10369,"515":10370,"CI":10371,"s9":10372,"出現":10373,"284":10374,"max_gcd":10375,"*=(":10376,"oki":10377,"0x33333333":10378,"AAAAAAAAAAAAAAAAAAAAAAAAAAAAAAAAAAAAAAAAAAAAAAAAAAAAAAAAAAAAAAAAAAAAAAAAAAAAAAAAAAAAAAAAAAAAAAAAAAAAAAAAAAAAAAAAAAAAAAAAAAAAAAAAAAAAAAAAAAAAAAAAAAAAAAAAAAAAAAAAAAAAAAAAAAAAAAAAAAAAAAAAAAAAAAAAAAAAAAAAAAAAAAAAAAAAAAAAAAAAAAAAAAAAAAAAAAAAAAAAAAAAAAAAAAAAAAAAAAAAAAAAAAAAAAAAAAAAAAAAAAAAAAAAAAAAAAAAAAAAAAAAAAAAAAAAAAAAAAAAAAAAAAAAAAAAAAAAAAAAAAAAAAAAAAAAAAAAAAAAAAAAAAAAAAAAAAAAAAAAAAAAAAAAAAAAAAAAAAAAAAAAAAAAAAAAAAAAAAAAAAAAAAAAAAAAAAAAAAAAAAAAAAAAAAAAAAAAAAAAAAAAAAAAAAAAAAAAAAAAAAAAAAAAAAAAAAAAAAAAAAAAAAAAAAAAAAAAAAAAAAAAAAAAAAAAAAAAAAAAAAAAAAAAAAAAAAAAAAAAAAAAAAAAAAAAAAAAAAAAAAAAAAAAAAAAAAAAAAAAAAAAAAAAAAAAAAAAAAAAAAAAAAAAAAAAAAAAAAAAAAAAAAAAAAAAAAAAAAAAAAAAAAAAAAAAAAAAAAAAAAAAAAAAAAAAAAAAAAAAAAAAAAAAAAAAAAAAAAAAAAAAAAAAAAAAAAAAAAAAAAAAAAAAAAAAAAAAAAAAAAAAAAAAAAAAAAAAAAAAAAAAAAAAAAAAAAAAAAAAAAAAAAAAAAAAAAAAAAAAAAAAAAAAAAAAAAAAAAAAAAAAAAAAAAAAAAAAAAAAAAAAAAAAAAAAAAAAAAAAAAAAAAAAAAAAAAAAAAAAAAAAAAAAAAAAAAAAAAAAAAAAAAAAAAAAAAAAAAAAAAAAAAAAAAAAAAAAAAAAAAAAAAAAAAAAAAAAAAAAAAAAAAAAAAAAAAAAAAAAAAAAAAAAAAAAAAAAAAAAAAAA":10379,"75555":10380,"fq":10381,"nz":10382,"nil":10383,"another":10384,"35737":10385,"855":10386,"Kd":10387,"VH":10388,"6678":10389,"55755":10390,"000000000000000":10391,"loop_start":10392,"の要素を":10393,"Pre":10394,"mething":10395,"Proble":10396,"ank":10397,"35357":10398,"から最小":10399,"make_modinv_list":10400,"BRBG":10401,"846":10402,"DS":10403,"PB":10404,"Rh":10405,"iの":10406,"単位":10407,"thing":10408,"475":10409,"f0f0f0f0":10410,"Yk":10411,"check2":10412,"Va":10413,"Yu":10414,"jt":10415,"a_lst":10416,"00000000000000000000":10417,"cmax":10418,"されている":10419,"の取得":10420,"tmp_s":10421,"point_list":10422,"xyc":10423,"something":10424,"------------------------------------------------":10425,"\"]))":10426,"Temp":10427,"Wq":10428,"iK":10429,"reward":10430,"574":10431,"LFR":10432,"YNeos":10433,"kumi":10434,"やる":10435,"sel":10436,"')[":10437,"10011":10438,"nega":10439,"CRE":10440,"Eh":10441,"Wz":10442,"aft":10443,"bra":10444,"o9":10445,"data2":10446,"recursive":10447,"slime":10448,"サイズ":10449,"Any":10450,"JD":10451,"Mg":10452,"rN":10453,"エラ":10454,"tmp3":10455,"53773":10456,"Points":10457,"\"-\"+":10458,"DBG":10459,"JF":10460,"Yl":10461,"含む":10462,"lis2":10463,"uniq":10464,"Vp":10465,"WI":10466,"Yq":10467,"Zt":10468,"_path":10469,"y6":10470,"ense":10471,"708":10472,"PriorityQueue":10473,"\"=":10474,"DB":10475,"RC":10476,"o7":10477,"uz":10478,"クエリ":10479,"進数":10480,"node_num":10481,"vlist":10482,"exponent":10483,"s_input":10484,"s_max":10485,"string_list":10486,"list_A":10487,"'##":10488,"916":10489,"CSF":10490,"cul":10491,"最短経路":10492,"点を":10493,"a_array":10494,"adj_list":10495,"yz":10496,"は1":10497,"])<=":10498,"55777":10499,"4454":10500,"candy":10501,"exists":10502,"次元配列":10503,"VQ":10504,"r7":10505,"yの":10506,"並び":10507,"試合":10508,"1210":10509,"expected":10510,"含まれる":10511,"yC":10512,"8877":10513,"]))%":10514,"zero_":10515,"_two":10516,"appear":10517,"monoid":10518,"\"<":10519,"FA":10520,"fft":10521,"stdio":10522,"a_2":10523,"koho":10524,"758":10525,"_readline":10526,"77353":10527,"FAC":10528,"TKB":10529,"を格納":10530,"beta":10531,"subs":10532,"35533":10533,"_points":10534,"==(":10535,"6654":10536,"getInt":10537,"aizu":10538,"BLACK":10539,"二分探索":10540,"dijkstr":10541,":[":10542,"_diff":10543,"minn":10544,"]]):":10545,")+[":10546,"solv":10547,">;":10548,"tg":10549,"span":10550,"664":10551,"GL":10552,"Hz":10553,"Kc":10554,"への":10555,"やす":10556,"5307":10557,"ing_":10558,"ってる":10559,")},":10560,"greater":10561,"KS":10562,"_V":10563,"nai":10564,"als":10565,"5543":10566,"directions":10567,"}:{":10568,"964":10569,"Kq":10570,"582":10571,"ls2":10572,"35557":10573,"read_all":10574,"smr":10575,"計算量":10576,"File":10577,"ために":10578,"EL":10579,"442":10580,"n_q":10581,"\")]*":10582,"の最小値":10583,"books":10584,"identity":10585,"\">":10586,"One":10587,"WR":10588,"fen":10589,"lap":10590,"n_c":10591,"positions":10592,"csf":10593,"必要がある":10594,"Auto":10595,"XA":10596,"stx":10597,"cook":10598,"4800":10599,"XQ":10600,"fd":10601,"33557":10602,"ex2":10603,"node1":10604,"CN":10605,"minp":10606,"5565":10607,"12334":10608,"8989":10609,"Modint":10610,"863":10611,"Pg":10612,"_R":10613,"jZ":10614,"jq":10615,"pS":10616,"pz":10617,"分け":10618,"前の":10619,"11222":10620,"]==\"?\":":10621,"MII":10622,"skl":10623,"_dum":10624,"e6":10625,"lar":10626,"\"\"))":10627,"buff_readline":10628,"avl_":10629,"DU":10630,"Dig":10631,"加算":10632,"55353":10633,"num3":10634,"tmp_max":10635,"w_max":10636,"concat":10637,"monsters":10638,"ea":10639,"います":10640,"変更":10641,"appro":10642,"{}{}":10643,"494":10644,"Problem":10645,"でに":10646,"ans_max":10647,"705":10648,"km":10649,"nX":10650,"wmax":10651,"方を":10652,"mari":10653,"DVSR":10654,"2d":10655,"iから":10656,"yf":10657,"bag":10658,"should":10659,"EXT":10660,"print_function":10661,"li1":10662,"53353":10663,"OUT":10664,"kz":10665,"search_list":10666,"between":10667,"EO":10668,"tre":10669,"or_":10670,"dataset":10671,"count_1":10672,"trace":10673,"CREF":10674,"？？":10675,"5545":10676,"562":10677,"8899":10678,"STX":10679,"Second":10680,"\"]*":10681,"IU":10682,"tq":10683,"vol":10684,"194":10685,"Decre":10686,"lipboard":10687,"convenient":10688,"821":10689,"lang":10690,"先に":10691,"分割":10692,"++;":10693,"されたリストa":10694,"XL":10695,"o5":10696,"uw":10697,"requi":10698,"dis_":10699,"iss":10700,"cost1":10701,"37777":10702,"n_1":10703,"outputDataList":10704,"_now":10705,"know":10706,"t7":10707,"throw":10708,"cnt_a":10709,"node_size":10710,"a_ls":10711,"37757":10712,"YA":10713,"Zz":10714,"day_":10715,"push_back":10716,"EN":10717,"inputMap":10718,"spf":10719,"_by_":10720,"sais":10721,"'#'):":10722,"Gg":10723,"Ka":10724,"mq":10725,"数列":10726,"get_num":10727,"cost2":10728,"c_i":10729,"ONLINE_":10730,"Vc":10731,"_OF":10732,"ped":10733,"xg":10734,"分ける":10735,"at_start":10736,"iple":10737,"]=='.'":10738,"で割った":10739,"fileno":10740,"EJ":10741,"gray":10742,"ly_":10743,"vY":10744,"leaves":10745,"atter":10746,"input_data":10747,"QT":10748,"35757":10749,"group_num":10750,"8192":10751,"の場合は":10752,"最後に":10753,"Flo":10754,"Kz":10755,"高い":10756,"atch":10757,"rease":10758,"33537":10759,"ab_list":10760,"204":10761,"Inv":10762,"最大の":10763,"jd":10764,"allow":10765,"sum_num":10766,"294":10767,"----------":10768,"_walk":10769,"mize":10770,"fPtr":10771,"profit":10772,"AutoDecre":10773,"AutoDecrefPtr":10774,"くなる":10775,"右に":10776,"4433":10777,"282":10778,"max_s":10779,"max_w":10780,"KW":10781,"bg":10782,"))*(":10783,"maxL":10784,"result_list":10785,"submiss":10786,"'+'+":10787,"1e10":10788,"sigma":10789,"reachable_from_start":10790,"reachable_to_end":10791,"submissions":10792,"Hh":10793,"たら":10794,"多い":10795,"446":10796,"]==\".\"":10797,"73557":10798,"Visited":10799,"QC":10800,"Zp":10801,"の番号":10802,"Inverse":10803,"v_even":10804,"labels":10805,"Zh":10806,"iling":10807,"sから":10808,"input2":10809,"<=(":10810,"NULL":10811,"141592653589":10812,"onlinejudge":10813,"QO":10814,"Sto":10815,"aN":10816,"y7":10817,"dpi":10818,"op3":10819,"nexts":10820,"sugar":10821,"added":10822,"internal":10823,"SortedDict":10824,"Wp":10825,"kd":10826,"iness":10827,"hight":10828,"linalg":10829,"clus":10830,"pool":10831,"=[[[":10832,"56789":10833,"a_dict":10834,"99999999999":10835,"2001":10836,"11111111111111111111111111111111":10837,"Zq":10838,"eo":10839,"を求め":10840,"min_b":10841,"2211":10842,"474":10843,"lines_export":10844,"QF":10845,"_total":10846,"maxlen":10847,"');":10848,"4400":10849,"296":10850,"uclid":10851,"Calc":10852,"XU":10853,"e7":10854,"e8":10855,"iip":10856,"inside":10857,"Change":10858,"53775":10859,"greed":10860,"??????????????":10861,"slove":10862,"dummy":10863,"Vm":10864,"))`":10865,"])!=":10866,"hex":10867,"ference":10868,"75377":10869,"generate":10870,"bv":10871,"()],":10872,";}":10873,"TN":10874,"[((":10875,"ove":10876,"あと":10877,"lay":10878,"175":10879,"_sw":10880,"23454":10881,"A_B":10882,"fileobject":10883,"')]*":10884,"_TEXT":10885,"END_OF":10886,"p_i":10887,"s7":10888,"hid":10889,"vers":10890,"sil":10891,"max_p":10892,"482":10893,"57335":10894,"57375":10895,"two_":10896,"Log":10897,"_children":10898,"menu":10899,"GM":10900,"stri":10901,"cost_list":10902,"53735":10903,"read_str_n":10904,"END_OF_TEXT":10905,"Bg":10906,"ZH":10907,"kh":10908,"lent":10909,"73537":10910,"QL":10911,"slice":10912,"smallest":10913,"を使":10914,"以降":10915,"34544":10916,"'))))":10917,"Loop":10918,"を作成":10919,"KH":10920,"iX":10921,"base_":10922,"sink":10923,"966":10924,"53355":10925,"_cal":10926,"77733":10927,"kkk":10928,"&(-":10929,"005":10930,"5037":10931,"s_b":10932,"-{":10933,"823":10934,"VR":10935,"Wm":10936,"jm":10937,"n_b":10938,"当に":10939,"挿入":10940,"順番":10941,"spac":10942,"_same":10943,"divi":10944,"arguments":10945,"947":10946,"Wn":10947,"Zl":10948,"必ず":10949,"preplace":10950,"rown":10951,"35753":10952,"ならば":10953,"must":10954,"heapreplace":10955,"単位元":10956,"ちら":10957,"比較":10958,"高速":10959,"ansi":10960,"erd":10961,"min2":10962,"key_":10963,"max_b":10964,"最大値を":10965,"9999999999999":10966,"0から":10967,"XOR":10968,"ais":10969,"jsp":10970,"の合計":10971,"引く":10972,"sed_":10973,"323333":10974,"[[]]":10975,"ii2":10976,"iii":10977,"black_":10978,"building":10979,"037":10980,"716":10981,"JP":10982,"bY":10983,"nmax":10984,"resp":10985,"listed":10986,"minx":10987,"prog":10988,"qz":10989,"then":10990,"33737":10991,"jh":10992,"選択":10993,"lenS":10994,"???????":10995,"LEN":10996,"要素数":10997,"これで":10998,"1221":10999,"4434":11000,"6656":11001,"57757":11002,"ans_min":11003,"read_float_n":11004,"に行く":11005,"\"(\":":11006,"Tg":11007,"aL":11008,"dll":11009,"note":11010,"642":11011,"tical":11012,"HM":11013,"SG":11014,"dz":11015,"ted":11016,"lib":11017,"ans0":11018,"55557":11019,"5077":11020,"max_length":11021,"view":11022,"BTC":11023,"LMIIS":11024,"970":11025,"Range":11026,"_4":11027,"上の":11028,"printf":11029,"_line":11030,"b_count":11031,"hello":11032,"num_v":11033,".*":11034,"Amax":11035,"まま":11036,"後ろ":11037,"辺を":11038,"])>=":11039,"534":11040,"evalu":11041,"heap化されたリストa":11042,"vu":11043,"stor":11044,"alst":11045,"example":11046,"idxs":11047,"s_1":11048,"9999999":11049,"\"*\":":11050,"Edges":11051,"connected_num":11052,"golem":11053,"kitai":11054,"dijkstra_":11055,"EC":11056,"IB":11057,"VF":11058,"に更新":11059,"this_":11060,"386":11061,"s_a":11062,"doub":11063,"dfs2":11064,"30000":11065,"Ug":11066,"7778":11067,"A_sum":11068,"SEG":11069,"spaces":11070,"'@":11071,"5e":11072,"732":11073,"dA":11074,"o6":11075,"max_k":11076,"jud":11077,"取り出す時は":11078,",,":11079,"=<":11080,"rk":11081,"sB":11082,"ating":11083,"33344":11084,"2333":11085,"'*'":11086,"'(':":11087,"4100000":11088,"Wh":11089,"けない":11090,"9878":11091,"weather":11092,"77753":11093,"Parent":11094,"EA":11095,"sco":11096,"すでに":11097,"左端":11098,"生成":11099,"del_":11100,"__len":11101,"maxim":11102,"8876":11103,"XO":11104,"(\"/":11105,"235":11106,"min_value":11107,"does":11108,"shu":11109,"4554":11110,"閉路":11111,"77537":11112,"minute":11113,"3555":11114,"ied":11115,"spot":11116,"lamp":11117,"174":11118,"iron":11119,"\"/":11120,":{":11121,"RF":11122,"yh":11123,"みたい":11124,"2221":11125,"animal":11126,"9f":11127,"のが":11128,"元テーブル":11129,"(\"<":11130,")]):":11131,"aの昇順":11132,"wu":11133,"あまり":11134,"前に":11135,"res_list":11136,"57557":11137,"argument":11138,"clusive":11139,"QB":11140,"`.":11141,"が入":11142,"splitlines":11143,"34344":11144,"min_y":11145,"'-'+":11146,"sheet":11147,"UC":11148,"X_dum":11149,"gate":11150,"右端":11151,"max_list":11152,"sysread":11153,"37337":11154,"37733":11155,"X_dumy":11156,"Ig":11157,"Vd":11158,"訪問":11159,"mod_list":11160,"check1":11161,"Function":11162,"4334":11163,"GN":11164,"KX":11165,"iB":11166,"maerd":11167,"maxh":11168,"chan":11169,"prime_factorization":11170,"Yd":11171,"_re":11172,"ラグ":11173,"if_":11174,"aries":11175,"(\"+":11176,"-=(":11177,"Inf":11178,"SSS":11179,"070":11180,"WJ":11181,"from_start":11182,"score_list":11183,"\"...\"":11184,"746":11185,"Vh":11186,"jit":11187,"minA":11188,"34566":11189,"s_2":11190,"score_":11191,"33333":11192,"計算用テーブル":11193,"VO":11194,"mig":11195,"rng":11196,"解説":11197,"ends":11198,"53375":11199,"enter":11200,"nsmallest":11201,"n_y":11202,"kaisu":11203,"hyou":11204,"solved":11205,"Board":11206,"list3d":11207,"operations":11208,"1j":11209,"7v":11210,"RM":11211,"_query":11212,"持つ":11213,"5370":11214,"2016":11215,"index_list":11216,"max_point":11217,"37755":11218,"plat":11219,"n_x":11220,"'*':":11221,"逆元テーブル計算用テーブル":11222,"貪欲法":11223,"Cg":11224,"Cir":11225,"KE":11226,"QS":11227,"YH":11228,"xと":11229,"じゃ":11230,"ステ":11231,"定義":11232,"実装":11233,"_cut":11234,"(\"#\"*":11235,"qiita":11236,"ucas":11237,"list_b":11238,"9876":11239,"starmap":11240,".\"\"\"":11241,"KN":11242,"Math":11243,"]#":11244,"_u":11245,"hori":11246,"_after":11247,"query_":11248,"COM":11249,"puz":11250,"400000":11251,"4556":11252,"YD":11253,"jH":11254,"mz":11255,"そこ":11256,"321012":11257,"environ":11258,"wari":11259,"0x3333333333333333":11260,"7573":11261,"1223":11262,"10010":11263,"606":11264,"486":11265,"xy2":11266,"home":11267,"35755":11268,"shop":11269,"Nums":11270,"============":11271,"ほうが":11272,"VJ":11273,"_D":11274,"r_b":11275,"ージ":11276,"226":11277,"cks":11278,"57755":11279,"ARGS":11280,"KA":11281,"Lsq":11282,"SM":11283,"~-":11284,"フラグ":11285,"subtra":11286,"msg":11287,"renzoku":11288,"56766":11289,"blacks":11290,"replacement_of_":11291,"Begin":11292,"_duplic":11293,"__len__":11294,"replacement_of_found":11295,"KJ":11296,"WF":11297,"vq":11298,"gers":11299,"__readline":11300,"])),":11301,"fix_":11302,"pad":11303,"num_1":11304,"aの降順":11305,"CODE":11306,":]]":11307,"▒▒":11308,"出し":11309,"正直":11310,"(\">":11311,"1000001":11312,"1122":11313,"Dep":11314,"))[::-":11315,")]#":11316,"8800":11317,"435":11318,"use_":11319,",...,":11320,"039":11321,"Dg":11322,"JUD":11323,"Wd":11324,"XR":11325,"Zn":11326,"_ep":11327,"h_i":11328,"iq":11329,"参考":11330,"count_a":11331,"r_cnt":11332,"fee":11333,"iostream":11334,"ruisekiwa":11335,"maps":11336,"704":11337,"'#']":11338,"charact":11339,"4u":11340,"Add":11341,"TB":11342,"jc":11343,"を用":11344,"())**":11345,"least":11346,"lot":11347,"usa":11348,"acgt":11349,"min_price":11350,"c_sum":11351,"Kh":11352,"ZJ":11353,"Zm":11354,"icnt":11355,"a_set":11356,"www":11357,"platform":11358,"956":11359,"dlist":11360,"iL":11361,"させる":11362,"小数":11363,"sym":11364,"文字目":11365,"works":11366,"EG":11367,"Yh":11368,"b_c":11369,"えない":11370,"約数を":11371,"nums_":11372,"triangle":11373,"crement":11374,"Child":11375,"Yc":11376,"jn":11377,"endswith":11378,"33353":11379,"tmp_a":11380,"there":11381,"LSI":11382,"\"))))":11383,"sizes":11384,"BM":11385,"TG":11386,"xq":11387,"の組み合わせ":11388,"bucket":11389,"55773":11390,"'/":11391,"AList":11392,"ILL":11393,"QA":11394,"付き":11395,"__sub__":11396,"(\"=":11397,"now_x":11398,"なかった":11399,"030":11400,"Yp":11401,"eb":11402,"retval":11403,"isTest":11404,"min_count":11405,"new_node":11406,"Qg":11407,"](":11408,"sab":11409,"vR":11410,"ylist":11411,"ラン":11412,"==>":11413,"9989":11414,"is_p":11415,"Get":11416,"iC":11417,"lose":11418,"57735":11419,"tree_":11420,"(('":11421,"6554":11422,":]+":11423,"hum":11424,"kame":11425,"r_max":11426,"ting":11427,"値は":11428,"inline":11429,"s_n":11430,"隣接リスト":11431,"TOD":11432,"だった":11433,"ーシ":11434,"開始":11435,"arc":11436,"isdigit":11437,"nowx":11438,"to_end":11439,"の最小値を":11440,"Path":11441,"WO":11442,"hin":11443,"ity_":11444,"tmp_b":11445,"604":11446,"L_list":11447,"_file":11448,"count0":11449,"dps":11450,"look":11451,"s_sum":11452,"6400":11453,"proc":11454,"55375":11455,"read_int_list":11456,"55735":11457,"student":11458,"VP":11459,"セグ":11460,"ング":11461,"000001":11462,"team":11463,"NOW":11464,"050":11465,":[]":11466,"EB":11467,"her":11468,"vH":11469,"vg":11470,"ans_b":11471,"tour":11472,"isOK":11473,"22334":11474,"nei":11475,"000000000":11476,"75533":11477,"prime_de":11478,"total_time":11479,"JUDGE":11480,"6776":11481,"7666":11482,"00ff":11483,"321112":11484,"172":11485,"37753":11486,"current_node":11487,")|":11488,"6556":11489,"r_i":11490,"zQ":11491,"above":11492,"term":11493,"tuples":11494,"l_i":11495,"Row":11496,"ii2ss":11497,"053":11498,"OI":11499,"fj":11500,"は素数":11501,"ctest":11502,"]=='#'":11503,"neta":11504,"doctest":11505,"goods":11506,"で割り":11507,"piece":11508,"Diff":11509,"5k":11510,"_o":11511,"max_right":11512,"PyPy":11513,"]==\"#\"":11514,"CEIL":11515,"077":11516,"DG":11517,"JA":11518,"YV":11519,"_one":11520,"pips":11521,"くだ":11522,"33234":11523,"doc":11524,"ans_str":11525,"Zc":11526,"_in_":11527,"bai":11528,"fst":11529,"slen":11530,"代入":11531,")==(":11532,"ことを":11533,"いくつ":11534,"CU":11535,"south":11536,"らす":11537,"向グラフ":11538,"11000":11539,"enemy":11540,"doubling":11541,"ZQ":11542,"iin":11543,"ible":11544,"nの":11545,"くる":11546,"左から":11547,"memo2":11548,"####################":11549,"r_min":11550,"expect":11551,"'##'":11552,"+((":11553,"057":11554,"DN":11555,"End":11556,"FB":11557,"lue":11558,"mA":11559,"uh":11560,"lear":11561,"77777":11562,"week":11563,"5200":11564,"kosu":11565,"Beginner":11566,"&!":11567,"']),":11568,"OG":11569,"OL":11570,"Zd":11571,"_pair":11572,"xG":11573,"整数の入力":11574,"appeared":11575,"truncate":11576,"ください":11577,"iを":11578,"kur":11579,"wq":11580,"の文字":11581,"icase":11582,"Init":11583,"signs":11584,"\"*\"":11585,"cA":11586,"}}":11587,"see":11588,"isSame":11589,"getNM":11590,"currentCycle":11591,"(\"?\",":11592,"50000":11593,"aX":11594,"eye":11595,"\":\",":11596,"achi":11597,"uq":11598,"vm":11599,"combs":11600,"input_lines":11601,"S_LIST":11602,"ITE":11603,"_dense":11604,"_both_":11605,"from_iterable":11606,"階乗の":11607,"_mat":11608,"と同じ":11609,"12211":11610,"opti":11611,"a_index":11612,"tank":11613,"ここで":11614,"Bingo":11615,"fabs":11616,"mlist":11617,"enable":11618,"num_a":11619,"-------":11620,"a_int":11621,"word_list":11622,"trailing":11623,"sgn":11624,":{}\".":11625,"UI":11626,"_py":11627,"\")==":11628,"func_":11629,"substring":11630,"char_list":11631,"_from_dense":11632,"csgraph_from_dense":11633,"_load":11634,"posit":11635,"components":11636,"_rev":11637,"fY":11638,"gN":11639,"どちら":11640,"ポイン":11641,"alls":11642,"404":11643,"dist_u":11644,"'...'":11645,"~~~~~~~~":11646,"VC":11647,"nes":11648,"を更新":11649,"を探す":11650,"メント":11651,"33777":11652,"asarray":11653,"3037":11654,"min_n":11655,"77737":11656,"ROUND_CEIL":11657,"ROUND_CEILING":11658,"lper":11659,"pub":11660,"とも":11661,"左側":11662,"管理":11663,"new_dice":11664,"EU":11665,"Km":11666,"gS":11667,"iY":11668,"無理":11669,"aper":11670,"allow_":11671,"s_row":11672,"goo":11673,"waru":11674,"属するグループ":11675,"BI":11676,"Slist":11677,"VT":11678,"kar":11679,"][:]":11680,"read_values":11681,"946":11682,"_graph":11683,"dxy":11684,"()==":11685,"abcde":11686,"s2nn":11687,"kaisuu":11688,"active":11689,"FM":11690,"_type":11691,"bi_":11692,"fri":11693,"mapint":11694,"ular":11695,"5070":11696,"dist1":11697,"_cn":11698,"]%(":11699,"S_MAP":11700,"必要な":11701,"HI":11702,"zG":11703,"())[":11704,"enu":11705,"life":11706,"cha":11707,"a_li":11708,">>(":11709,"i_input":11710,"braries":11711,"test_input":11712,"与えられる":11713,"によって":11714,"!\"":11715,"dia":11716,"3057":11717,"492":11718,"KeyList":11719,"Tuple":11720,"みたいな":11721,"011":11722,"WT":11723,"XP":11724,"gusu":11725,"rY":11726,"())[:-":11727,"56544":11728,"-----":11729,"COUN":11730,"Parse":11731,"QR":11732,"XE":11733,"構築":11734,"(\"##":11735,"SortedKeyList":11736,"aT":11737,"得る":11738,")]==":11739,"arry":11740,"rival":11741,"num_of":11742,"logical":11743,"vertical":11744,"such":11745,"','')":11746,"x_1":11747,"p2D":11748,"069":11749,"_plus":11750,"r_n":11751,"vZ":11752,"removed":11753,"root_x":11754,"ARR":11755,"compress":11756,"HG":11757,"iP":11758,"nA":11759,"wZ":11760,"結合":11761,"33211":11762,"[];":11763,"akes":11764,"2121":11765,"よりも":11766,"dfs_from_start":11767,"dfs_to_end":11768,"hidari":11769,"DA":11770,"HF":11771,"KP":11772,"_pre":11773,"wJ":11774,"**(-":11775,"[:])":11776,"8878":11777,"37737":11778,"flg2":11779,"syou":11780,"3001":11781,"TestCase":11782,"方法":11783,"')):":11784,"olded":11785,"chmax":11786,"INFTY":11787,"の整数の入力":11788,"843":11789,"HJ":11790,"Xg":11791,"qJ":11792,"か判定":11793,"を超":11794,"引数":11795,"Com":11796,"max_dist":11797,"896":11798,"<==>":11799,"Item":11800,"QG":11801,"XF":11802,"_last":11803,"counta":11804,"ress":11805,"2210":11806,"6655":11807,"joint":11808,"tag":11809,"iim":11810,"Nodes":11811,"923":11812,"UB":11813,"XC":11814,"nR":11815,"operate":11816,"answer_list":11817,"div2":11818,"childs":11819,"total_cost":11820,"ONLINE_JUDGE":11821,"prime_decomposition":11822,"Class":11823,"Dou":11824,"Vg":11825,"ki_":11826,"kisu":11827,"oj":11828,"yet":11829,"箇所":11830,"返します":11831,"tower":11832,"32110":11833,"73777":11834,"para":11835,"9899":11836,"vwise":11837,"transp":11838,"010":11839,"1が":11840,"IA":11841,"cba":11842,"を入れる":11843,"品物":11844,"in_list":11845,"max_distance":11846,"perf":11847,"040":11848,"Og":11849,"sH":11850,"ans_a":11851,"proces":11852,"memory":11853,"逆元のリスト":11854,"Divisors":11855,"burger":11856,"b_num":11857,"uY":11858,"異なる":11859,"mary":11860,"33337":11861,"LI1":11862,"all_list":11863,"808":11864,"cum_sum":11865,"i_map":11866,"distance_list":11867,"木の高さ":11868,"contains":11869,"Result":11870,"#++++":11871,"FN":11872,"ZT":11873,"read_col":11874,"lgn":11875,"Depth":11876,":,":11877,":][::-":11878,"Lst":11879,"MSRL":11880,"n_s":11881,"tlist":11882,"ansList":11883,"\".\",":11884,"wrong":11885,"繰り返":11886,"9F":11887,"CNT":11888,"KQ":11889,"pnt":11890,"ゴール":11891,"切れる":11892,"本当に":11893,"line2":11894,"mented":11895,"???????????????":11896,"なくて":11897,"reachable_from_both_":11898,"reachable_from_both_sides":11899,"yq":11900,"}]":11901,"こう":11902,"の方が":11903,"inversion":11904,"anst":11905,"num_dict":11906,"vvv":11907,"_warp":11908,"inv_fact":11909,"ils":11910,"lY":11911,"oa":11912,"二部":11913,"ato":11914,"55373":11915,"322344":11916,"*=-":11917,"ttt":11918,"小数点":11919,"(\"=\")":11920,"060":11921,"のインデックス":11922,"をつ":11923,"read_list":11924,"data1":11925,"RED":11926,"twor":11927,"votes":11928,"effc":11929,"Functions":11930,",)":11931,"Rot":11932,"UA":11933,"XG":11934,"dprint":11935,"ダメ":11936,"違う":11937,"重さ":11938,"100010":11939,"??????????":11940,"9600":11941,"]=='?':":11942,")&(":11943,"すべての":11944,"MAX_INT":11945,"KD":11946,"lint":11947,"vali":11948,"法では":11949,"ints_":11950,"des":11951,"coin_":11952,"205":11953,"common_":11954,"TFTFTFTFTFTFTFTFTFTFTFTFTFTFTFTF":11955,"ポイント":11956,"-~":11957,"Raw":11958,"fZ":11959,"sW":11960,"コード":11961,"stem":11962,"5507":11963,"scc":11964,")*((":11965,"number_of_":11966,"loop_":11967,"tmp_score":11968,"slots":11969,"られた":11970,"ボール":11971,"countA":11972,"max_y":11973,"ential":11974,"ranks":11975,"ttl":11976,"より大きい":11977,"spect":11978,"cumulative":11979,"(\">\")":11980,"TODO":11981,"zF":11982,"{-":11983,"anti":11984,"a_lcm":11985,"move_":11986,"tie":11987,"nag":11988,"条件を満たす":11989,"evaluate":11990,"(\"<\")":11991,"4456":11992,"[[[[":11993,"ls1":11994,"11212":11995,"要素を":11996,"Primes":11997,"しまう":11998,"b_sum":11999,"tZ":12000,"zP":12001,"53573":12002,"min_ans":12003,"piv":12004,"の数が":12005,"Remove":12006,"my_module":12007,"751":12008,"KO":12009,"VL":12010,"最短距離":12011,"input_num":12012,"\")\":":12013,"mine":12014,"ac_list":12015,"362":12016,"bin_str":12017,"DP法では":12018,"('#',":12019,"並び替え":12020,"貪欲法か":12021,"本当に貪欲法か":12022,"7y":12023,"zE":12024,"ベクト":12025,"5570":12026,"ail":12027,"{})":12028,"dbg":12029,"generator":12030,"の中で":12031,"ベクトル":12032,"ead":12033,"king":12034,"77337":12035,"max_d":12036,"min_p":12037,"xy1":12038,"ストラ":12039,"QN":12040,"Ym":12041,"全体":12042,"lft":12043,"onem":12044,"2321":12045,"commands":12046,"切り上げ":12047,"duplic":12048,"Const":12049,"WP":12050,"bZ":12051,"cst":12052,"iD":12053,"uZ":12054,"zg":12055,"╬╬":12056,"in1":12057,"intn":12058,"37773":12059,"fastio":12060,"Circle":12061,"029":12062,"1から":12063,"JE":12064,"OM":12065,"aH":12066,"cg":12067,"iA":12068,"=[],[]":12069,"_big":12070,"invfact":12071,"11234":12072,"したもの":12073,"signed":12074,"optional":12075,"FACT":12076,"']))":12077,"+\"\\":12078,"8C":12079,"XN":12080,"zT":12081,"55566":12082,"lace":12083,"21222":12084,"sum_i":12085,"count_dict":12086,"IME":12087,"aoki_":12088,"proper":12089,"coordinate":12090,"Kg":12091,"xを":12092,"7200":12093,"('#'*":12094,"potential":12095,"'=":12096,"9k":12097,"QI":12098,"oct":12099,"前処理":12100,"into":12101,"inpm":12102,"('',":12103,"32210":12104,"56566":12105,"1009":12106,"]))))":12107,"input_methods":12108,"candies":12109,"without":12110,"examC":12111,"7e":12112,"FC":12113,"yw":12114,"スの":12115,"urui":12116,"retlist":12117,"len1":12118,"ex1":12119,"modfactorial_list":12120,"grp":12121,"9999999999999999":12122,"zahyo":12123,"(!":12124,"WG":12125,"mg":12126,"演算":12127,"pred":12128,"77557":12129,"networ":12130,"8889":12131,"heapL":12132,"215":12133,"sub_":12134,"next_p":12135,"Stack":12136,"Rg":12137,"X_list":12138,"ect":12139,"zO":12140,"とる":12141,"置き":12142,"disp":12143,"pow__":12144,"next_i":12145,"sum_of_":12146,"outputs":12147,"bigger":12148,"FL":12149,"Iter":12150,"Mon":12151,"_and":12152,"させ":12153,"1419":12154,"fici":12155,"s_in":12156,"hou":12157,"subclass":12158,"priority":12159,"優先探索":12160,"059":12161,":{}":12162,"jK":12163,"jV":12164,"simple":12165,"何も":12166,"thresh":12167,"dam":12168,"jou":12169,"###############":12170,"aZ":12171,"fmo":12172,"kJ":12173,"23333":12174,"orders":12175,"場合の":12176,"75733":12177,"の最小公倍数":12178,"873":12179,"WL":12180,"nS":12181,"()))[":12182,"line1":12183,"olved":12184,"786":12185,"elap":12186,"choco":12187,"nxt_v":12188,"scanf":12189,",:]":12190,"079":12191,"7w":12192,"Flg":12193,"次に":12194,"listB":12195,"])[::-":12196,"23234":12197,"GBB":12198,"HB":12199,"Two":12200,"smax":12201,"mai":12202,"5033":12203,"w_count":12204,"b_index":12205,"JL":12206,"lucas":12207,"nQ":12208,"north":12209,"maxval":12210,"factrial":12211,"495":12212,"r_idx":12213,"t_len":12214,"の要素数":12215,"851":12216,"HL":12217,"UKB":12218,"VS":12219,"ton":12220,"のものを":12221,"ョン":12222,"終点":12223,"ct1":12224,"4432":12225,"dicts":12226,"=[];":12227,"DP2":12228,"ans_lst":12229,"_hand":12230,"Grid":12231,"または":12232,"_000":12233,"bat":12234,"nas":12235,"tY":12236,"()[:":12237,"enc":12238,"map_int":12239,"tmp_num":12240,"595":12241,"]))]":12242,"min_distance":12243,"77757":12244,"make_factorial_list":12245,"スペース区切りの整数の入力":12246,"divider":12247,"_duplicates":12248,"Aの":12249,"の制限":12250,"奇数の":12251,"deci":12252,"edges_":12253,"input_int":12254,"最小値":12255,"SLs":12256,"converter":12257,"HR":12258,"wL":12259,"ただ":12260,"section":12261,"10100":12262,"named":12263,"23222":12264,"23434":12265,"connections":12266,"hito":12267,"happiness":12268,"value_if_":12269,"boole":12270,"value_if_inf":12271,"kes":12272,"stage":12273,"5057":12274,"------":12275,"_to_key":12276,"Buzz":12277,"pieces":12278,"WC":12279,"ZL":12280,"iu":12281,"qP":12282,"zC":12283,"表示":12284,"10e":12285,"55556":12286,"zyx":12287,"TM":12288,"cmin":12289,"f_list":12290,"だったら":12291,"instr":12292,"sum_s":12293,"type_":12294,"ARA":12295,"ILs":12296,"&#":12297,"KU":12298,"ris":12299,"替える":12300,"5030":12301,"35353":12302,"loops":12303,"Fizz":12304,"Base_10_to_n":12305,"0を":12306,"9b":12307,"9r":12308,"9y":12309,"P_list":12310,"rsl":12311,"ansb":12312,"one_cnt":12313,"start_":12314,"の入力を":12315,"941":12316,"Eg":12317,"JG":12318,"b_max":12319,"ival":12320,"pX":12321,"バー":12322,"2323":12323,"_tra":12324,"000002":12325,"8000":12326,"Asum":12327,"dT":12328,"素数を":12329,"edit":12330,"edge_":12331,"ans_set":12332,"is_prime_":12333,"LRD":12334,"examD":12335,"Black":12336,"SLL":12337,"VB":12338,"slow":12339,"今回":12340,"考え":12341,"mate":12342,"prepare":12343,"min_r":12344,"0000000000":12345,"75577":12346,"Blue":12347,"extract":12348,"[\"\"]":12349,"HC":12350,"acnt":12351,"bcnt":12352,"f_i":12353,"iM":12354,"jX":12355,"print_ans":12356,"ret2":12357,"])%(":12358,"die":12359,"moto":12360,"tou":12361,"now2":12362,"55553":12363,"len_S":12364,"examA":12365,"quick_sort":12366,"silver":12367,"6k":12368,"euclid":12369,"jyo":12370,"xz":12371,"右側":12372,"ency":12373,"LI2":12374,"3500":12375,"num_str":12376,"ない場合":12377,"Libraries":12378,"最後の":12379,"Price":12380,"COUNT":12381,"#@":12382,"({'":12383,"OA":12384,"jz":12385,"たど":12386,"に入れる":12387,"maxc":12388,")])))":12389,"57373":12390,">=(":12391,"7887":12392,"54566":12393,"fail":12394,"sabun":12395,"027":12396,"bW":12397,"vW":12398,"オリ":12399,"very":12400,"wei":12401,"actual":12402,"namedtuple":12403,"5y":12404,"VU":12405,"sita":12406,"かの":12407,"どこ":12408,"_list_":12409,"53335":12410,"075":12411,"252":12412,"Indexed":12413,"instead":12414,"channe":12415,"Constants":12416,"JB":12417,"paper":12418,"ua":12419,"wY":12420,"retsu":12421,"__slots":12422,"YesNo":12423,"ans_i":12424,"list_1":12425,"sosuu":12426,"配列の":12427,"のときは":12428,"正直者":12429,"__slots__":12430,"#-*-":12431,"KC":12432,"RCH":12433,"l_s":12434,"xC":12435,"xY":12436,"xZ":12437,"dpb":12438,"isn":12439,"542":12440,"5807":12441,"read_line":12442,"foot":12443,"10121":12444,"all_apply":12445,"players":12446,"9e":12447,"aが":12448,"個目":12449,"maxNum":12450,"1949":12451,"1353":12452,"popcnt":12453,"data_":12454,"cumprod":12455,"5j":12456,";;":12457,"KT":12458,"QM":12459,"arest":12460,"ear":12461,"pC":12462,"のに":12463,"peak":12464,"34444":12465,"最大値":12466,"approxi":12467,"HD":12468,"hgf":12469,"mR":12470,"nB":12471,"に戻":12472,"23334":12473,"reds":12474,"10122":12475,"has_":12476,"examB":12477,"approximate":12478,"6v":12479,"qE":12480,"sim":12481,"root_y":12482,"min_sum":12483,"find_row":12484,"rotate_":12485,"perf_counter":12486,"\"@":12487,"Bor":12488,"HT":12489,"VD":12490,"_neg":12491,"_offset":12492,"vlist_":12493,"1097":12494,"55573":12495,"dpa":12496,"sump":12497,"dic_c":12498,"x_2":12499,"l_alp":12500,"phase":12501,"dijkstra_heap":12502,"public":12503,"6e":12504,"kZ":12505,"leg":12506,"55544":12507,"array2":12508,"i_row":12509,"入力を":12510,"count_2":12511,"($":12512,"6o":12513,"831":12514,"KM":12515,"dpr":12516,"評価":12517,"now_y":12518,"出力の制限":12519,"ItoS":12520,"dL":12521,"mys":12522,"はない":12523,"解く":12524,"serv":12525,"also":12526,"edg":12527,"res_":12528,"verage":12529,"7932":12530,"Unite":12531,"mlk":12532,"Python3":12533,"'<':":12534,"Floyd":12535,"JC":12536,"クリ":12537,"ペア":12538,"最終":12539,"anum":12540,"attr":12541,"sumB":12542,"tmps":12543,"isP":12544,"colli":12545,"srq":12546,"calc_score":12547,"normal":12548,"layer1":12549,"////////":12550,"AKIHAB":12551,"KR":12552,"VM":12553,"hg":12554,"██":12555,"自身":12556,"電球":12557,"may":12558,"1039":12559,"w_cnt":12560,"arriv":12561,"ならない":12562,"_without":12563,"bonus":12564,"zont":12565,"#+++++":12566,"'==":12567,"-((":12568,"5u":12569,"9w":12570,"Sub":12571,"XM":12572,"cnum":12573,"fKB":12574,"kip":12575,"r_count":12576,"で返す":12577,"の倍数":12578,"足場":12579,"ct2":12580,"arra":12581,"mozi":12582,"*-*-":12583,"233212":12584,"200001":12585,"6j":12586,"WN":12587,"qG":12588,"のindex":12589,"loss":12590,"n_min":12591,"73377":12592,"11111":12593,"Fib":12594,"の最大公約数":12595,"hands":12596,"KeyError":12597,"builtins":12598,"_shortest":12599,"Var":12600,"t_i":12601,"に含まれる":12602,"__call":12603,"(\"\",":12604,"kek":12605,"cost_":12606,"fibo":12607,"ries":12608,"lcm_":12609,"c_1":12610,"-------------":12611,"__call__":12612,"7j":12613,"_max_":12614,"aP":12615,"325":12616,"_best_":12617,"'#',":12618,"radius":12619,"323344":12620,"6b":12621,"7r":12622,"C_list":12623,"WD":12624,"c_num":12625,"hJ":12626,"sC":12627,"sN":12628,"sY":12629,"こっち":12630,"後の":12631,"1049":12632,"322112":12633,"version_info":12634,"propagate_":12635,"V_":12636,"aJ":12637,"hE":12638,"zed":12639,"count3":12640,"readChar":12641,"unused":12642,"3070":12643,"602":12644,"s_cnt":12645,"diff_weight":12646,"################################################":12647,"FLAG_":12648,"XI":12649,"ZO":12650,"eger":12651,"mans":12652,"qR":12653,"yL":12654,"されて":12655,"li_a":12656,"set1":12657,"ddd":12658,"dict1":12659,"8898":12660,"data_list":12661,"elems":12662,"0x55555555":12663,"hai":12664,"kY":12665,"targ":12666,"uV":12667,"vV":12668,"round_":12669,"cntA":12670,"kets":12671,"Comp":12672,"pos2":12673,"get_root":12674,"states":12675,"逆元のリストを返す":12676,"'').":12677,"KF":12678,"Opt":12679,"cB":12680,"hL":12681,"iT":12682,"lQ":12683,"ベル":12684,"ルート":12685,"list4d":12686,"dir_":12687,"292":12688,"696":12689,"mountain":12690,"haten":12691,"+{":12692,"dmax":12693,"wV":12694,"に注意":12695,"選んだ":12696,"ish":12697,"54544":12698,"MARCH":12699,"_yen":12700,"create_":12701,"WHITE":12702,"0e":12703,"0の":12704,"080":12705,"0x0":12706,"KG":12707,"vz":12708,"向き":12709,"ansA":12710,"coup":12711,"rol":12712,"cnt3":12713,"--)":12714,"54344":12715,"counters":12716,"2343":12717,"params":12718,"4f":12719,"40000":12720,"aS":12721,"lW":12722,"anag":12723,"las":12724,"mbol":12725,"ind2":12726,"8887":12727,"array_result":12728,"aki":12729,"Sequence":12730,"boxes":12731,"bubble_sort":12732,"arrived":12733,"7t":12734,"ZS":12735,"の更新":12736,")->":12737,"bin_":12738,"_sushi":12739,"kaijyo":12740,"GHT":12741,"Erat":12742,"schedule":12743,"hgfed":12744,"srqpon":12745,"4j":12746,"7k":12747,"JM":12748,"Name":12749,"bsum":12750,"hQ":12751,"rz":12752,"wD":12753,"utsrqpon":12754,"1249":12755,"modcomb":12756,"delta_":12757,"55335":12758,"始点sから":12759,"cmp_to_key":12760,"migi":12761,"841":12762,"9j":12763,"ZP":12764,"iW":12765,"sou":12766,"回数を":12767,"1237":12768,"abbb":12769,"y_i":12770,"10123":12771,"jihgfed":12772,"wvutsrqpon":12773,"FLAG_LOG":12774,"Jg":12775,"aM":12776,"bX":12777,"[]):":12778,"poss":12779,"662":12780,"ask":12781,"get_input":12782,"Exist":12783,"(\".\",":12784,"を計算する":12785,"mlkjihgfed":12786,"(+":12787,"bK":12788,"cQ":12789,"げる":12790,"アル":12791,"換える":12792,"())])":12793,"3307":12794,"AAA":12795,"mod逆元のリストを返す":12796,"getRoot":12797,"extgcd":12798,"LIMI":12799,"tmp_1":12800,"21112":12801,"bunshi":12802,"Some":12803,"wvutsrqponmlkjihgfed":12804,"Adj":12805,"Zg":12806,"cash":12807,"eg":12808,"qF":12809,"snu":12810,"wG":12811,"minNum":12812,"strp":12813,"')':":12814,"ab_":12815,"acm":12816,"timedelta":12817,"conn":12818,"c_min":12819,"Short":12820,"variables":12821,"(|":12822,"7x":12823,"9o":12824,"dD":12825,"thread":12826,"')==":12827,"next_index":12828,"より小さい":12829,"0f":12830,"9C":12831,"YC":12832,"c_max":12833,"ome":12834,"qQ":12835,"みる":12836,"何個":12837,"表す":12838,"遷移":12839,"('+":12840,"''))":12841,"698":12842,"outer":12843,"233232":12844,"n_cols":12845,"あるか":12846,"11011":12847,"ives":12848,"zyxwvutsrqponmlkjihgfed":12849,"6x":12850,"6y":12851,"]|":12852,"hO":12853,"pls":12854,"uO":12855,"制約":12856,"topo":12857,"]+\"...\")":12858,"edge1":12859,"'.')":12860,"number_vertex":12861,"card_":12862,"つまり":12863,"であれば":12864,"2332":12865,"new_obj":12866,"prior":12867,"already_":12868,"collision":12869,"048":12870,"JN":12871,"ake":12872,"i_s":12873,"小さ":12874,"endregion":12875,"37573":12876,"sure":12877,"finditer":12878,"outs":12879,"gosen":12880,"_mapping":12881,"038":12882,"8y":12883,"WM":12884,"eprint":12885,"far":12886,"lO":12887,"qS":12888,"tlen":12889,"vQ":12890,"加える":12891,"日目":12892,"list_c":12893,"count_max":12894,"32100":12895,"content":12896,"fare":12897,"1359":12898,"max_diff":12899,"ched_":12900,"bins":12901,"divid":12902,"compose":12903,"charge":12904,"SRR":12905,"3s":12906,"7o":12907,"ZU":12908,"nT":12909,"was":12910,"枚数":12911,"==[":12912,"dp_x":12913,"mation":12914,"a_tmp":12915,"conf":12916,"diff_list":12917,"odd_count":12918,"rbst1":12919,"neighbors":12920,"postorder":12921,"Borys":12922,"058":12923,":{},":12924,"JS":12925,"_get":12926,"bH":12927,"nV":12928,"map_":12929,"1817":12930,"1889":12931,"{}\\":12932,"484":12933,"533377":12934,"集合に属する":12935,"character":12936,"EM":12937,"b_s":12938,"kisuu":12939,"qU":12940,"wP":12941,"(\"{:":12942,"7787":12943,"cur_node":12944,"diff1":12945,"num_2":12946,"('.',":12947,"による":12948,"ameters":12949,"028":12950,"EI":12951,"_group":12952,"ier":12953,"rlist":12954,"_num_":12955,"234544":12956,"dishes":12957,"OUTPUT":12958,"2D":12959,"4v":12960,"Imple":12961,"dR":12962,"rle":12963,"~(":12964,"時点":12965,"sumlist":12966,"c_l":12967,"リスト取得":12968,"21100":12969,"discount":12970,"8789":12971,"_town":12972,"017":12973,"752":12974,"_H":12975,"dQ":12976,"uous":12977,"証言":12978,"inlist":12979,"1069":12980,"\".\"):":12981,"23433":12982,"234566":12983,"55775":12984,"f0f":12985,"いたら":12986,"filename":12987,"property":12988,"5x":12989,"NMI":12990,"gA":12991,"jdx":12992,"xに更新":12993,"てる":12994,"使える":12995,"除く":12996,"pra":12997,"tmpans":12998,"577377":12999,"lis1":13000,"35355":13001,"35555":13002,"35553":13003,"x_y":13004,"_number_list":13005,"Raise":13006,"最初の":13007,"における":13008,"032":13009,"HN":13010,"cakes":13011,"wX":13012,"zM":13013,"\")])":13014,"sumi":13015,"1153":13016,"5053":13017,"5073":13018,"result2":13019,"color_list":13020,"21234":13021,"searchsorted":13022,"get_read_func":13023,"...]":13024,"出力する":13025,"('?','":13026,"036":13027,"5b":13028,"5v":13029,"^@":13030,"_log":13031,"hP":13032,"tim":13033,"半分":13034,"回り":13035,"関係":13036,"inputlist":13037,"listb":13038,"ume":13039,"!=\"":13040,"577733":13041,"533733":13042,"b_l":13043,"sole":13044,"べき乗":13045,"zontal":13046,"012":13047,"8k":13048,"A_n":13049,"VA":13050,"[''.":13051,"cJ":13052,"dS":13053,"hR":13054,"mut":13055,"serial":13056,"lenT":13057,"7767":13058,")+\":":13059,"11233":13060,"77755":13061,"8r":13062,"9x":13063,"YP":13064,"hT":13065,"jW":13066,"}-{":13067,"diag":13068,"mind":13069,"gcd2":13070,"arrive":13071,"quot":13072,"trl":13073,"surplus":13074,"strptime":13075,"Hg":13076,"もう":13077,"変換":13078,"('{}'.":13079,"1277":13080,"INCREF":13081,"min_left":13082,"divisor_list":13083,"そのまま":13084,"Py_INCREF":13085,"TypeError":13086,"各頂点への最短距離":13087,"エラト":13088,"6Y":13089,"6r":13090,"8o":13091,"842":13092,"9t":13093,"l_a":13094,"qD":13095,"wz":13096,"価値":13097,"負の":13098,"1033":13099,"1619":13100,"reversed_":13101,"b_min":13102,"bias":13103,"したら":13104,"UnionFindTree":13105,"down_":13106,"shuff":13107,"0m":13108,"8e":13109,">&":13110,"aC":13111,"dU":13112,"の個数を":13113,"ダイ":13114,"プライ":13115,"orange":13116,"abc_":13117,"99877":13118,"p_cnt":13119,"32323":13120,"shou":13121,"backward":13122,"ソート済み":13123,"_cumsum":13124,"&!@":13125,"zyxwvutsrqponmlkjihgfedcba":13126,"7u":13127,"KL":13128,"cC":13129,"dur":13130,"plot":13131,"どの":13132,"を削除":13133,"cnt_w":13134,"78877":13135,"1527":13136,"min_time":13137,"patty":13138,"merged":13139,"delete_node":13140,"7Y":13141,"[('":13142,"保存":13143,"矛盾":13144,"helper":13145,")))%":13146,"matri":13147,"それ以外":13148,"これは":13149,"オリティ":13150,"+\":":13151,"dO":13152,"のか":13153,"イッチ":13154,"ケース":13155,"何回":13156,"gest_":13157,"coo":13158,"come":13159,"list_num":13160,"()));":13161,"abi":13162,"533755":13163,"する場合":13164,"232344":13165,"A_set":13166,"in_str":13167,"tansaku":13168,"プライオリティ":13169,"_no":13170,"_target":13171,"qT":13172,"sV":13173,"yR":13174,"mochi":13175,"cnt_1":13176,"1657":13177,"new_a":13178,"tmp_x":13179,"73733":13180,"pow_k":13181,"ステネ":13182,"エラトステネ":13183,"'('":13184,"ZD":13185,"nL":13186,"3077":13187,"存在しない":13188,"\"<\":":13189,"subtract":13190,"プライオリティキュー":13191,"049":13192,"5t":13193,"_g":13194,"nE":13195,"スイッチ":13196,"両方":13197,"deck":13198,"('<":13199,"ram":13200,"A_1":13201,"の総数":13202,"_init":13203,"bB":13204,"zS":13205,"ans4":13206,"num_s":13207,"485":13208,"57775":13209,"a_c":13210,"tmp_min":13211,"Div":13212,"ただし":13213,"*@":13214,"Can":13215,"YJ":13216,"dJ":13217,"iが":13218,"xR":13219,"yW":13220,"決める":13221,"inclusive":13222,"ending":13223,"maxw":13224,"dpl":13225,"reads":13226,"1439":13227,"starts":13228,"405":13229,"is_visited":13230,"233344":13231,"2123":13232,"32321":13233,"LCA":13234,"agc0":13235,"067":13236,"HU":13237,"YU":13238,"cD":13239,"wQ":13240,"を探索":13241,"クストラ":13242,"uel":13243,"moj":13244,"5039":13245,"found_":13246,"chosen":13247,"lines_result":13248,"TestClass":13249,"に変換して":13250,"coords":13251,"saiki":13252,"ダイクストラ":13253,"019":13254,"090":13255,"8j":13256,"Cal":13257,"Date":13258,"GGI":13259,"YB":13260,"|@":13261,"足し":13262,"1019":13263,"thr":13264,"num_c":13265,"dp_table":13266,"flag3":13267,"temp_node":13268,"geta":13269,"s_r":13270,"234344":13271,"l_str":13272,"cnt_dict":13273,"multi_":13274,"読み込んで":13275,"Author":13276,"calculation":13277,"VG":13278,"kq":13279,"kuri":13280,"yH":13281,"増やす":13282,"考慮":13283,"()))+[":13284,"4455":13285,"col_":13286,"opp":13287,"1453":13288,"nee":13289,"tmp_2":13290,"73757":13291,"ellow":13292,"以上の":13293,"transl":13294,"heading":13295,"ZF":13296,"dF":13297,"lK":13298,"nin":13299,"vJ":13300,"wW":13301,"くっ":13302,"用意":13303,"arrange":13304,"')*":13305,"scr":13306,"1500":13307,"globals":13308,"RRS":13309,"Buil":13310,"shuffle":13311,"_I":13312,"cnd":13313,"eu":13314,"none":13315,"oh":13316,"tlr":13317,"ans_cand":13318,"89877":13319,"find_shortest":13320,"c_odd":13321,"d_sum":13322,"tests":13323,"final_":13324,"neigh":13325,"複数行":13326,"%.":13327,"';":13328,"099":13329,"=')":13330,"を入力":13331,"カード":13332,"利用":13333,"累乗":13334,"表記":13335,"部屋":13336,"poly":13337,"score2":13338,"sync":13339,"avl":13340,"(\"#\"*(":13341,"Func":13342,"greedy":13343,")!":13344,"CON":13345,"cX":13346,"hD":13347,"wK":13348,"ッド":13349,"55333":13350,"395":13351,"max_key":13352,"2153":13353,"s_w":13354,"s_tmp":13355,"many":13356,"effect":13357,"4b":13358,"YQ":13359,"uX":13360,"vK":13361,"、-":13362,"のマス":13363,"diment":13364,")]-":13365,"tmp_c":13366,"]=\"#\"":13367,"1429":13368,"max_color":13369,"min_d":13370,"23233":13371,"21212":13372,"('#'*(":13373,"ched_bo":13374,"iew":13375,"coordinates":13376,"00ff00ff":13377,"YR":13378,"_5":13379,"lH":13380,"だめ":13381,"('>":13382,"mess":13383,"limii":13384,"start_point":13385,"MI1":13386,"までに":13387,"(\"-\")":13388,"destination":13389,"----------------------------------------------------------------":13390,"['']":13391,"boolean":13392,"4x":13393,"_order":13394,"ej":13395,"e_list":13396,"latter":13397,"aru":13398,"minc":13399,"5879":13400,"lrd":13401,"parts":13402,"4k":13403,"WU":13404,"aA":13405,"iR":13406,"lV":13407,"getInput":13408,"2122":13409,"={'#':":13410,"繰り返し":13411,"aD":13412,"aQ":13413,"omi":13414,"inspect":13415,"dp_y":13416,"784":13417,"dist_from":13418,"next_town":13419,"33335":13420,"*)":13421,"Gre":13422,"_split":13423,"_col":13424,"ben":13425,"jP":13426,"行ける":13427,"())%":13428,"),-":13429,"1529":13430,"List2":13431,"get_size":13432,"tmp_y":13433,"ART":13434,"553577":13435,"要素x":13436,",'.':":13437,"5o":13438,"9Z":13439,"cN":13440,"carry":13441,"pJ":13442,"zB":13443,"保持":13444,"57573":13445,"unding":13446,"next_list":13447,"537577":13448,"n_str":13449,"i_1":13450,"[[],":13451,"33434":13452,"ので注意":13453,"ushiro":13454,"played":13455,"の総和":13456,"5V":13457,"='.',":13458,"に移動":13459,"ans_s":13460,"lef":13461,"])][":13462,"countB":13463,"1409":13464,"2969":13465,"root_v":13466,"abc127":13467,"sum_p":13468,"rbst2":13469,"build_":13470,"towns":13471,"8v":13472,"9Y":13473,"9v":13474,">-":13475,"dmp":13476,"fW":13477,"har":13478,"yX":13479,"yellow":13480,"zN":13481,"フォ":13482,"ret1":13483,"('##":13484,"5849":13485,"55677":13486,"以上の最小":13487,"A_count":13488,"Big":13489,"[*":13490,"bst":13491,"mss":13492,"vmax":13493,"spl":13494,"split_":13495,"3335":13496,"(\"*":13497,"suml":13498,"value_list":13499,"matches":13500,"533737":13501,"tern":13502,"row3":13503,"diff2":13504,"\"#\"]":13505,"t_cnt":13506,"f0f0f0f":13507,"MMMMMMMM":13508,"dimentional":13509,"iH":13510,"qsize":13511,"wO":13512,"yZ":13513,"なり":13514,"を1":13515,"を配列":13516,"prv_":13517,"')'":13518,"ull_":13519,"3750":13520,"usiro":13521,"chun":13522,"1499":13523,"533577":13524,"する関数":13525,"_sign":13526,"substr":13527,"0800":13528,"pythonで":13529,"next_nodes":13530,"MAX_NUM":13531,"55678":13532,"5r":13533,"kX":13534,"sL":13535,"wlist":13536,"出て":13537,"見つ":13538,"count_bit":13539,"sum_n":13540,"57333":13541,"1699":13542,"=[{":13543,"get_sum":13544,"solve2":13545,"'.'):":13546,"odd_num":13547,"33454":13548,"SET":13549,"CTIO":13550,"044":13551,"024":13552,"YF":13553,"aK":13554,"ares":13555,"k_list":13556,"右から":13557,"1979":13558,"2099":13559,"2322":13560,"77766":13561,"A_cnt":13562,"before_":13563,"LCA_":13564,"までの距離":13565,"doesn":13566,"087":13567,"dash":13568,"imon":13569,"lZ":13570,"nap":13571,"rates":13572,"tic":13573,"sumb":13574,"9998":13575,"rad_":13576,"unvisited":13577,"flow_":13578,"LII":13579,"theta_":13580,"ii2nn":13581,"33334":13582,"75737":13583,"55676":13584,"POW":13585,"trains":13586,"mod_pow":13587,"multiply":13588,"に変更":13589,"の時は":13590,"エラトステネスの":13591,"018":13592,"cS":13593,"cT":13594,"clipboard":13595,"kW":13596,"lS":13597,"mJ":13598,"mO":13599,"o_":13600,"pV":13601,"uW":13602,"り着":13603,"未確定":13604,"選び":13605,"anima":13606,"once":13607,")]+[":13608,"sharp":13609,"FILL":13610,"takewhile":13611,"animals":13612,"0j":13613,"hun":13614,"p_max":13615,"t_max":13616,"立っている":13617,"listS":13618,"maxy":13619,"exc":13620,"57553":13621,"ch1":13622,"]))+":13623,"pop_count":13624,"mia":13625,"wick":13626,"in_map":13627,"bombs":13628,"番目の値を":13629,"auran":13630,"99999999999999":13631,"089":13632,"YT":13633,"b_a":13634,"hC":13635,"mG":13636,"nG":13637,"ori_":13638,"))),":13639,"maxd":13640,"\")*":13641,"')])":13642,"3050":13643,"prime_numbers":13644,"REP":13645,"(~":13646,"055":13647,"6V":13648,"YO":13649,"]&":13650,"fQ":13651,"mD":13652,"oya":13653,"sX":13654,"tX":13655,"wT":13656,"xH":13657,"のべき乗":13658,"高橋":13659,"decess":13660,"len2":13661,"exe":13662,"5700":13663,"one_count":13664,"2345":13665,"disable":13666,"choices":13667,"dots":13668,"3685477":13669,"ここに":13670,"sel_col":13671,"Implemented":13672,"852":13673,"961":13674,"<-":13675,"Hash":13676,"_lcm":13677,"aV":13678,"bA":13679,"nP":13680,"pT":13681,"sQ":13682,"のlist":13683,"7735":13684,"56776":13685,"100112":13686,"1319":13687,"key1":13688,"edge_list":13689,"706":13690,"5153":13691,"23212":13692,"stuck":13693,"good_":13694,"(&":13695,"8i":13696,"alis":13697,"uL":13698,"クラス":13699,"固定":13700,"station":13701,"inpt":13702,"coeff":13703,"alr":13704,"dump":13705,"する時に":13706,"gyou":13707,"MI_":13708,"\"/\":":13709,"4r":13710,"EVE":13711,"USE":13712,"ZC":13713,"_K":13714,"fur":13715,"jJ":13716,"pg":13717,"counted":13718,"5300":13719,"53575":13720,"1879":13721,"bisect_key":13722,"program":13723,"dfs1":13724,"n_i":13725,"mydict":13726,"までで":13727,"37335":13728,"11001":13729,"Eratosthenes":13730,"9X":13731,"I00000000000000000000":13732,"_edges":13733,"cR":13734,"kK":13735,"nck":13736,"uH":13737,"uK":13738,"wB":13739,"zU":13740,"に格納":13741,"選ば":13742,"cntb":13743,"5927":13744,"temp_sum":13745,"key2":13746,")))+":13747,"rtn":13748,"addition":13749,"testcase":13750,"75537":13751,"LazySegmentTree":13752,"088":13753,"7b":13754,"snum":13755,"uJ":13756,"zA":13757,"イド":13758,"表現":13759,"複数の":13760,"ans_num":13761,"\")\"":13762,"1289":13763,"sum_max":13764,"53553":13765,"1459":13766,"bom":13767,"sub2":13768,"_with_stdio":13769,"(\"?\",\"":13770,"LLIN_":13771,"translate":13772,"sync_with_stdio":13773,"2000000":13774,"mF":13775,"mL":13776,"vT":13777,"があれば":13778,"角度":13779,"anc":13780,"inp_size":13781,"rec_":13782,"533757":13783,"min_cnt":13784,"33720":13785,"A_array":13786,"11010":13787,"頂点の":13788,"_folded":13789,"guide":13790,")*-":13791,"turu":13792,"uQ":13793,"__eq":13794,"5527":13795,"sum_c":13796,"],\"":13797,"()]))":13798,"884":13799,"874":13800,"4219":13801,"c_even":13802,"c_puz":13803,"573577":13804,"adj_table":13805,"conditions":13806,"LCS":13807,"_bomb":13808,"columns":13809,"__eq__":13810,"#,":13811,"average":13812,"qA":13813,"whole":13814,"を考える":13815,"enqueue":13816,"1279":13817,"readints":13818,"160000":13819,"2053":13820,"2029":13821,"2657":13822,"55654":13823,"計算する":13824,"使われて":13825,"!'":13826,"2n":13827,"5Y":13828,"cdef":13829,"pL":13830,"sT":13831,"sList":13832,"vX":13833,"wC":13834,"yout":13835,"が必要":13836,"イテ":13837,"クル":13838,"ana":13839,"__set":13840,"__size":13841,"countlist":13842,"':',":13843,"flag_":13844,"max_height":13845,"start_index":13846,"tree_list":13847,"しても":13848,"input_array":13849,"upper_bound":13850,"??????????????????":13851,"Reverse":13852,"selection_sort":13853,"message":13854,"7K":13855,"Mar":13856,"dB":13857,"mP":13858,"mQ":13859,"psum":13860,"の点":13861,"ンス":13862,"見た":13863,"minDist":13864,"5730":13865,"id_":13866,"1753":13867,"s_s":13868,"入力整数":13869,"っていく":13870,"3y":13871,"9i":13872,"_sum_":13873,"fz":13874,"hone":13875,"iIn":13876,"rgt":13877,"・・":13878,"桁数":13879,"atai":13880,"]:#":13881,"275":13882,"combo":13883,"diff_x":13884,"1129":13885,"input_method":13886,"32221":13887,"の要素数を":13888,"AOJ":13889,"examE":13890,"スタート地点":13891,",)},":13892,"056":13893,"ZR":13894,"cps":13895,"nF":13896,"nJ":13897,"qO":13898,"でソート":13899,"上から":13900,"sect":13901,"ansa":13902,"expl":13903,"1867":13904,"76566":13905,"s_index":13906,"others":13907,"testimon":13908,"same_check":13909,"((\"":13910,"3e":13911,"aR":13912,"hos":13913,"hanten":13914,"kin":13915,"ring":13916,"を0":13917,"成分":13918,"()))[::-":13919,"opt_":13920,"76544":13921,"score1":13922,"current_h":13923,"からの距離":13924,"tmp_l":13925,"ノードの":13926,"================================================":13927,"使わない":13928,"Taka":13929,"_distance":13930,"_vwise":13931,"dG":13932,"fJ":13933,"pP":13934,"rli":13935,"けば":13936,"pres":13937,"56554":13938,"2689":13939,"674":13940,"bit_count":13941,"A_2":13942,"])+\"":13943,"ava":13944,"students":13945,"concaten":13946,"__setitem__":13947,",(-":13948,"3回":13949,"4t":13950,"bJ":13951,"pR":13952,"qB":13953,"vF":13954,"途中":13955,"intinput":13956,"minutes":13957,"90909":13958,"even_count":13959,"i2nn":13960,"best_score":13961,"7i":13962,"cL":13963,"hF":13964,"jO":13965,"mM":13966,"があ":13967,"ゼロ":13968,"大小":13969,"時計":13970,"辺の数":13971,"seed_":13972,"101112":13973,"cnt_l":13974,"tempx":13975,"1489":13976,"7350":13977,"_num_list":13978,"32222":13979,"RR9":13980,"sentine":13981,"繰り返す":13982,"952":13983,"ZG":13984,"fR":13985,"fre":13986,"jQ":13987,"pack":13988,"vM":13989,"yP":13990,"zL":13991,"パス":13992,"素数の":13993,"series":13994,"len_b":13995,"2011":13996,"sum_l":13997,"ans_dict":13998,"_train":13999,"remains":14000,"サイクル":14001,"0x5555555555555555":14002,"8F":14003,"bQ":14004,"bmax":14005,"lX":14006,"san":14007,"けど":14008,"+=-":14009,"lea":14010,"dij":14011,"11100":14012,"ison":14013,"1427":14014,"s_x":14015,"_calc":14016,"_xor":14017,"123456789":14018,"propagate":14019,"337203685477":14020,"ler":14021,"xX":14022,"streak":14023,"gen_":14024,"1099":14025,"1089":14026,"symbol":14027,"Stdin":14028,"ための":14029,"miti":14030,"Over":14031,"_direct":14032,"cP":14033,"d_max":14034,"euler":14035,"kH":14036,"wI":14037,"xV":14038,"互い":14039,"直線":14040,"調整":14041,"dead":14042,"summary":14043,"main2":14044,"scc_":14045,"557533":14046,"33455":14047,"_yet":14048,"Print":14049,"32332":14050,"922337203685477":14051,")\"\"\"":14052,"Pnt":14053,"pN":14054,"wg":14055,"yG":14056,"yV":14057,"とした":14058,"常に":14059,"fort":14060,"rans":14061,"1079":14062,"exchange":14063,"tmpa":14064,"89878":14065,"4157":14066,"n_r":14067,"i_str":14068,"new_dp":14069,"zahyou":14070,"優先度":14071,"6t":14072,"YS":14073,"bL":14074,"bT":14075,"car":14076,"mB":14077,"vE":14078,"前計算":14079,"行数":14080,"int8":14081,"counting":14082,"3209":14083,"1697":14084,"2079":14085,"max_1":14086,"5808":14087,"7057":14088,"入力のとき":14089,"32122":14090,"Arg":14091,"deliver":14092,"Weighted":14093,"threshold":14094,"1d":14095,"6a":14096,"8t":14097,"ZB":14098,"iQ":14099,"listを":14100,"alle":14101,"asi":14102,"s_p":14103,"start_time":14104,"35735":14105,"d_min":14106,"n_to_":14107,"current_id":14108,"373577":14109,"blocks":14110,"box_row":14111,"===============":14112,"Sele":14113,"c_count":14114,"iS":14115,"nD":14116,"t_num":14117,"xL":14118,"分探索":14119,"reference":14120,"__n":14121,"nodup":14122,"!=[]:":14123,"modmul":14124,"5653":14125,"\",\"\"))":14126,"sca":14127,"8987":14128,"powmod":14129,"233433":14130,"plu":14131,"blank":14132,"raises":14133,"rand_ints_":14134,"ーション":14135,"honest_":14136,"rand_ints_nodup":14137,"066":14138,"7W":14139,"HA":14140,"Yg":14141,"bO":14142,"fX":14143,"jg":14144,"oq":14145,"phi":14146,"xP":14147,"ines":14148,"apples":14149,"acinput":14150,"1627":14151,"]+'...')":14152,"current_w":14153,"Order":14154,"ship":14155,"これを":14156,"素数判定":14157,"4e":14158,"TEST":14159,"_INT":14160,"nM":14161,"pF":14162,"でやる":14163,"にした":14164,"仮定":14165,"込む":14166,"delit":14167,"tok":14168,"1933":14169,"rtype":14170,"<<\"":14171,"]+=[":14172,"thest":14173,"からの":14174,"32322":14175,"v_next":14176,"white_":14177,"配列を":14178,"回数が":14179,"num_of_input":14180,"iからj":14181,"kekka":14182,"078":14183,"076":14184,"7T":14185,"7z":14186,"8999":14187,"YL":14188,"kP":14189,"nnx":14190,"pB":14191,"pip":14192,"rcnt":14193,"tor":14194,"ちょ":14195,"inpl_str":14196,"])+(":14197,"dali":14198,"295":14199,"ceil_":14200,"y_1":14201,"33456":14202,"integers":14203,"suffix":14204,"seed_primes":14205,"'{}":14206,"9000":14207,"Euler":14208,"_dp":14209,"_delete":14210,"mC":14211,"p_count":14212,"v_num":14213,"wR":14214,"交換":14215,"十分":14216,"ger_":14217,"3030":14218,"2069":14219,"5050":14220,"next_n":14221,"currentNode":14222,"input_string":14223,"all_prod":14224,"32121":14225,"len_keys":14226,"cuts":14227,"serch":14228,"ss2nnn":14229,"kuro":14230,"のものを探す":14231,"Ste":14232,"_reverse":14233,"aは":14234,"hU":14235,"mN":14236,"rV":14237,"期待":14238,"2269":14239,"1609":14240,"s_min":14241,"5003":14242,"logger":14243,"55454":14244,"Judge":14245,"6u":14246,"813":14247,"_coprime":14248,"dP":14249,"ned":14250,"null":14251,"og":14252,"rS":14253,"rW":14254,"z_":14255,"まと":14256,"上位":14257,"ences":14258,"101012":14259,"rounding":14260,"maxb":14261,"5869":14262,"currentIndex":14263,":])]":14264,"islands":14265,"ながら":14266,"Common":14267,"始点sから各頂点への最短距離":14268,"SAF":14269,"Used":14270,"bN":14271,"kV":14272,"n_a":14273,"nまでの":14274,"tA":14275,"tL":14276,"ube":14277,"キー":14278,"回目":14279,"既に":14280,"ino":14281,"sell":14282,"1017":14283,"to_i":14284,"isExist":14285,"2239":14286,"1469":14287,"conb":14288,"west_":14289,"restauran":14290,"_part":14291,"????????????????????":14292,"Plus":14293,"kane":14294,"0000000000000000000000000000000000000000000000000000000000000000000000000000000000000000000000000000000000000000000000000000000000000000000000000000000000000000000000000000000000000000000000000000000000000000000000000000000000000000000000000000000000000000":14295,"AAAAAAAAAAAAAAAAAAAAAAAAAAAAAAAAAAAAAAAAAAAAAAAAAAAAAAAAAAAAAAAAAAAAAAAAAAAAAAAAAAAAAAAAAAAAAAAAAAAAAAAAAAAAAAAAAAAAAAAAAAAAAAAAAAAAAAAAAAAAAAAAAAAAAAAAAAAAAAAAAAAAAAAAAAAAAAAAAAAAAAAAAAAAAAAAAAAAAAAAAAAAAAAAAAAAAAAAAAAAAAAAAAAAAAAAAAAAAAAAAAAAAAAAAAAAAAAAAAAAAAAAAAAAAAAAAAAAAAAAAAAAAAAAAAAAAAAAAAAAAAAAAAAAAAAAAAAAAAAAAAAAAAAAAAAAAAAAAAAAAAAAAAAAAAAAAAAAAAAAAAAAAAAAAAAAAAAAAAAAAAAAAAAAAAAAAAAAAAAAAAAAAAAAAAAAAAAAAAAAAAAAAAAAAAAAAAAAAAAAAAAAAAAAAAAAAAAAAAAAAAAAAAAAAAAAAAAAAAAAAAAAAAAAAAAAAAAAAAAAAAAAAAAAAAAAAAAAAAAAAAAAAAAAAAAAAAAAAAAAAAAAAAAAAAAAAAAAAAAAAAAAAAAAAAAAAAAAAAAAAAAAAAAAAAAAAAAAAAAAAAAAAAAAAAAAAAAAAAAAAAAAAAAAAAAAAAAAAAAAAAAAAAAAAAAAAAAAAAAAAAAAAAAAAAAAAAAAAAAAAAAAAAAAAAAAAAAAAAAAAAAAAAAAAAAAAAAAAAAAAAAAAAAAAAAAAAAAAAAAAAAAAAAAAAAAAAAAAAAAAAAAAAAAAAAAAAAAAAAAAAAAAAAAAAAAAAAAAAAAAAAAAAAAAAAAAAAAAAAAAAAAAAAAAAAAAAAAAAAAAAAAAAAAAAAAAAAAAAAAAAAAAAAAAAAAAAAAAAAAAAAAAAAAAAAAAAAAAAAAAAAAAAAAAAAAAAAAAAAAAAAAAAAAAAAAAAAAAAAAAAAAAAAAAAAAAAAAAAAAAAAAAAAAAAAAAAAAAAAAAAAAAAAAAAAAAAAAAAAAAAAAAAAAAAAAAAAAAAAAAAAAAAAAAAAAAAAAAAAAAAAAAAAAAAAAAAAAAAAAAAAAAAAAAAAAAAAAAAAAAAAAAAAAAAAAAAAAAAAAAAAAAAAAAAAAAAAAAAAAAAAAAAAAAAAAAAAAAAAAAAAAAAAAAAAAAAAAAAAAAAAAAAAAAAAAAAAAAAAAAAAAAAAAAAAAAAAAAAAAAAAAAAAAAAAAAAAAAAAAAAAAAAAAAAAAAAAAAAAAAAAAAAAAAAAAAAAAAAAAAAAAAAAAAAAAAAAAAAAAAAAAAAAAAAAAAAAAAAAAAAAAAAAAAAAAAAAAAAAAAAAAAAAAAAAAAAAAAAAAAAAAAAAAAAAAAAAAAAAAAAAAAAAAAAAAAAAAAAAAAAAAAAAAAAAAAAAAAAAAAAAAAAAAAAAAAAAAAAAAAAAAAAAAAAAAAAAAAAAAAAAAAAAAAAAAAAAAAAAAAAAAAAAAAAAAAAAAAAAAAAAAAAAAAAAAAAAAAAAAAAAAAAAAAAAAAAAAAAAAAAAAAAAAAAAAAAAAAAAAAAAAAAAAAAAAAAAAAAAAAAAAAAAAAAAAAAAAAAAAAAAAAAAAAAAAAAAAAAAAAAAAAAAAAAAAAAAAAAAAAAAAAAAAAAAAAAAAAAAAAAAAAAAAAAAAAAAAAAAAAAAAAAAAAAAAAAAAAAAAAAAAAAAAAAAAAAAAAAAAAAAAAAAAAAAAAAAAAAAAAAAAAAAAAAAAAAAAAAAAAAAAAAAAAAAAAAAAAAAAAAAAAAAAAAAAAAAAAAAAAAAAAAAAAAAAAAAAAAAAAAAAAAAAAAAAAAAAAAAAAAAAAAAAAAAAAAAAAAAAAAAAAAAAAAAAAAAAAAAAAAAAAAAAAAAAAAAAAAAAAAAAAAAAAAAAAAAAAAAAAAAAAAAAAAAAAAAAAAAAAAAAAAAAAAAAAAAAAAAAAAAAAAAAAAAAAAAAAAAAAAAAAAAAAAAAAAAAAAAAAAAAAAAAAAAAAAAAAAAAAAAAAAAAAAAAAAAAAAAAAAAAAAAAAAAAAAAAAAAAAAAAAAAA":14296,"IndexedTree":14297,"LIMIT":14298,"6s":14299,"bri":14300,"hN":14301,"kO":14302,"pQ":14303,"ures":14304,"ves":14305,"xS":14306,"+=((":14307,"ities":14308,"__true":14309,"('=')":14310,"not_yet":14311,"ottom":14312,"IND":14313,"bou":14314,"c_n":14315,"next_set":14316,"\"#\"):":14317,"kake":14318,"card_list":14319,"current_position":14320,"quicksort":14321,"などは":14322,"じゃない":14323,"}]')":14324,"__truediv__":14325,"5D":14326,"_first":14327,"nN":14328,"nO":14329,"rA":14330,"vP":14331,"xW":14332,"yが同じ":14333,"繋が":14334,"nod":14335,"cnt4":14336,"996":14337,"3257":14338,"5953":14339,"now_w":14340,"result1":14341,"7600":14342,"5839":14343,"s_pos":14344,"zero_count":14345,"75373":14346,"33223":14347,"Minus":14348,"},{":14349,"f0f0f0f0f0f0f0f":14350,"0x0f0f0f0f0f0f0f0f":14351,"n_to_10":14352,"5l":14353,"6Z":14354,"7V":14355,"8643":14356,"9u":14357,"g_list":14358,"がj":14359,"選んで":14360,"ans_count":14361,"1051":14362,"5530":14363,"1145":14364,"as_":14365,"3049":14366,"5099":14367,"fault":14368,"2659":14369,"2357":14370,"537533":14371,"search_map":14372,":])):":14373,"ってい":14374,"tail_":14375,"BinaryIndexedTree":14376,"arrays":14377,"Optional":14378,"\"{}":14379,"5J":14380,"fK":14381,"jF":14382,"ness":14383,"vD":14384,"ずに":14385,"で最大":14386,"中央":14387,"alth":14388,"55666":14389,"[]]":14390,"1607":14391,"0900":14392,"count_0":14393,"110112":14394,"_hold":14395,"]//(":14396,"可能性":14397,"box_row_":14398,"次元リスト":14399,"al_division":14400,"に対する":14401,"test_入力例_1":14402,"getIntList":14403,"二部探索":14404,"054":14405,"073":14406,"nを":14407,"pE":14408,"ワープ":14409,"\")):":14410,"ablog":14411,"5827":14412,"numa":14413,"user":14414,"cases":14415,"fect":14416,"321222":14417,"頂点の中":14418,"の距離のものを探す":14419,"まだ使われて":14420,"Parameters":14421,"human":14422,"hatenablog":14423,"068":14424,"7q":14425,"861":14426,"ZI":14427,"_xy":14428,"jT":14429,"同士":14430,"買う":14431,"開催":14432,"min_list":14433,"cnt_2":14434,"3719":14435,"3707":14436,"set_val":14437,"3453":14438,"fizz":14439,"577737":14440,"357377":14441,"462":14442,"i_2":14443,"warp_":14444,"Tour":14445,"の値が":14446,"から最小の距離のものを探す":14447,"で割り切れる":14448,"!)^":14449,"bV":14450,"tin":14451,"yD":14452,"との":14453,"示す":14454,"33444":14455,"5519":14456,"3299":14457,"2049":14458,"arr_data":14459,"limss":14460,"root2":14461,"memo_ls":14462,"new_S":14463,"myinput":14464,"7667":14465,"convolution":14466,"二分木":14467,"それぞれの":14468,"💩💩💩💩":14469,")[:-":14470,"8H":14471,"8x":14472,"9W":14473,"TOP":14474,"fmm":14475,"掛けて":14476,"dete":14477,"on_":14478,"post_":14479,"igo":14480,"3499":14481,"assign":14482,"ipart":14483,"nowy":14484,"bit_list":14485,"gou":14486,"A_minus":14487,"blu":14488,"nibu":14489,"closure":14490,"与えられた":14491,"test_入力例_2":14492,"'>':":14493,"elapsed_":14494,"concatenate":14495,"4o":14496,"943":14497,"bP":14498,"cG":14499,"qg":14500,"tV":14501,"wcnt":14502,"zI":14503,"せん":14504,"にしたい":14505,"を記録":14506,"44544":14507,"ido":14508,"]*=":14509,"]*((":14510,"5639":14511,"1759":14512,"indx":14513,"88878":14514,"faction":14515,"idx0":14516,"root_node":14517,"xyu":14518,"xylist":14519,"233454":14520,"_bool":14521,"Update":14522,"option":14523,"を格納する":14524,"StoI":14525,",...":14526,"1で":14527,"6h":14528,"8Y":14529,"呼び":14530,"満足":14531,"符号":14532,"or_size":14533,"))&":14534,"arc0":14535,"2819":14536,"invalid":14537,"min_A":14538,"d_i":14539,"##############################":14540,"してください":14541,"v_cost":14542,"union_find":14543,"mmm":14544,"323322":14545,"Move":14546,"の中身":14547,"parent_or_size":14548,"頂点の中から最小の距離のものを探す":14549,"6W":14550,"JI":14551,"cE":14552,"qC":14553,"sS":14554,"vI":14555,"1013":14556,"cnta":14557,"440000":14558,"s_h":14559,"906":14560,"bitごと":14561,"n_idx":14562,"55434":14563,"55456":14564,"NotImplemented":14565,"respon":14566,"topological":14567,")`":14568,"016":14569,"047":14570,"723":14571,"9h":14572,"Sol":14573,"T_list":14574,"_copy":14575,"k番目の値を":14576,"tK":14577,"えば":14578,"関数の":14579,"indeg":14580,"()*":14581,"debt":14582,"1087":14583,"1217":14584,"tmpx":14585,"3700":14586,"66566":14587,"ac_count":14588,"s_next":14589,"pos1":14590,"577355":14591,"constru":14592,"904":14593,"684":14594,"32123":14595,"straight":14596,"234444":14597,"wa_count":14598,"\"]]":14599,"022":14600,"064":14601,"7l":14602,"8b":14603,"_dfs":14604,"tz":14605,"そも":14606,"に関":14607,"1059":14608,"3370":14609,"maxp":14610,"INIT":14611,"233434":14612,"]+=(":14613,"i_l":14614,"33433":14615,"55655":14616,"323222":14617,"8776":14618,"swapcase":14619,"aと":14620,"cF":14621,"fB":14622,"kN":14623,"pA":14624,"sP":14625,"vC":14626,"かかる":14627,"親を":14628,"master":14629,"ida":14630,"]]>":14631,")+\"-\"+":14632,"_br":14633,"config":14634,"min_mod":14635,"color_num":14636,"say":14637,"2529":14638,"password":14639,"_idx1":14640,"overlap":14641,"_to_int":14642,"ことができる":14643,"layer0_idx1":14644,"5W":14645,"YG":14646,"ZM":14647,"^-":14648,"_hash":14649,"brown":14650,"fold":14651,"oint":14652,"rK":14653,"vO":14654,"のコスト":14655,"stdev":14656,"120000":14657,"tmpA":14658,"37553":14659,"3989":14660,"next_c":14661,"#########":14662,"a_sorted":14663,"all_sum":14664,"river":14665,"newx":14666,"i_min":14667,"loop_len":14668,"75573":14669,"longest_":14670,"322222":14671,"8767":14672,"hhh":14673,"int_log":14674,"intersect":14675,"(\",\"))":14676,"から最小値を":14677,"SAFE":14678,"7Q":14679,"9H":14680,"913":14681,"VN":14682,"aG":14683,"dC":14684,"d_s":14685,"fH":14686,"hM":14687,"qN":14688,"ssp":14689,"が与えられる":14690,"decrement":14691,"maxH":14692,"mother":14693,"tmptmp":14694,"2027":14695,"]]!=":14696,"a_sort":14697,"37775":14698,"num_min":14699,"652":14700,"A_p":14701,"l_1":14702,"573533":14703,"BitCount":14704,"slope":14705,"seats":14706,"まだ使われてない":14707,"2個":14708,"741":14709,"9Q":14710,":\\":14711,"Solution":14712,"_road":14713,"acount":14714,"equ":14715,"pU":14716,"qL":14717,"切る":14718,"無限":14719,"in2":14720,"maxvalue":14721,"num0":14722,"1229":14723,"as_string":14724,"que2":14725,"3889":14726,"gcd1":14727,"3919":14728,"7300":14729,"w_sum":14730,"6800":14731,"logn":14732,"75357":14733,"cand1":14734,"可能な":14735,"になった":14736,"horizontal":14737,"2進数":14738,"YI":14739,"_th":14740,"aset":14741,"hG":14742,"pid":14743,"左右":14744,"捨て":14745,"in_s":14746,"inputNum":14747,"rear":14748,"minR":14749,"minr":14750,"str_num":14751,"unsigned":14752,"nextx":14753,"=[]):":14754,"quanti":14755,"cons":14756,"37735":14757,"すること":14758,"n_2":14759,"DP1":14760,"XYC":14761,"pond":14762,"32345":14763,"rbst_":14764,"lines_as_string":14765,"System":14766,"方向に":14767,"quantize":14768,"\"(\"":14769,")>>":14770,"6i":14771,"This":14772,"Y_":14773,"aB":14774,"dE":14775,"jR":14776,"nsum":14777,"はず":14778,"anser":14779,"inputFile":14780,"004":14781,"ret_":14782,"num_max":14783,"to_w":14784,"44344":14785,"3457":14786,"c_2":14787,"l_cnt":14788,"loop_num":14789,"read_input":14790,"000000000000000000000":14791,"_push":14792,"323454":14793,"文字列の入力":14794,"Warshall":14795,"standard":14796,"treap":14797,"'/':":14798,"まだ使われてない頂点の中から最小の距離のものを探す":14799,"5Z":14800,"5i":14801,"9D":14802,"Nls":14803,"cM":14804,"ssum":14805,"塗り":14806,"tmp_count":14807,"1317":14808,"i_n":14809,"get_sieve_of_eratosthenes":14810,"powers":14811,"の最大値を":14812,"ostream":14813,"999999999999999":14814,"regist":14815,"('<')":14816,"時計回り":14817,"FUN":14818,"_cols":14819,"aI":14820,"jdg":14821,"mE":14822,"が奇数":14823,"乗法":14824,"減らす":14825,"lia":14826,"return_sorted":14827,"44566":14828,"ind1":14829,"############":14830,"1517":14831,"console":14832,"new_v":14833,"55656":14834,"alpha2":14835,"2501":14836,"Found":14837,"の最小値を出力":14838,"threading":14839,"3k":14840,"7h":14841,"sZ":14842,"ブラ":14843,"minnum":14844,"hiku":14845,"1189":14846,"_clear":14847,"memo1":14848,"してい":14849,"受け取り":14850,"ライブラ":14851,"ライブラリ":14852,"_step":14853,"fol":14854,"iF":14855,"jE":14856,"nab":14857,"pD":14858,"uE":14859,"xK":14860,"x_a":14861,"参照":14862,"形式":14863,"itch":14864,"ross":14865,"55444":14866,"olute":14867,"66544":14868,"dame":14869,"input_text":14870,"7333":14871,"LRC":14872,"transpose":14873,"8E":14874,"A_s":14875,"FLO":14876,"[\"\".":14877,"cO":14878,"dmin":14879,"lT":14880,"qM":14881,"が行":14882,"の人":14883,"換え":14884,"色を":14885,"ina":14886,"(\"\").":14887,"set_a":14888,"2039":14889,"reverse_flag":14890,"s_idx":14891,"comb_mod":14892,"nump":14893,"consi":14894,"_yoko":14895,"Format":14896,"________":14897,"solving":14898,"を使って":14899,"black_cells":14900,"4y":14901,"5H":14902,"5K":14903,"8w":14904,"FRO":14905,"Nとか":14906,"_parents":14907,"lJ":14908,"rig":14909,"tJ":14910,"tS":14911,"yoku":14912,"}=":14913,"1061":14914,"],'":14915,"??¨":14916,"choku":14917,")+\"+\"+":14918,"_sa":14919,"8644":14920,"55554":14921,"list_S":14922,"333577":14923,"brray":14924,"として読み込み":14925,"の2のべき乗":14926,"6Q":14927,"Nの":14928,"ois":14929,"tE":14930,"でなければ":14931,"偶数の":14932,"回転":14933,"intのlist":14934,"printn":14935,"1029":14936,"2609":14937,"5857":14938,"7033":14939,"a_plus":14940,"rikai":14941,"233456":14942,"3529":14943,"l_sum":14944,"32223":14945,"teleport":14946,"Nとかの取得":14947,"6X":14948,"8Q":14949,"9T":14950,"With":14951,"kD":14952,"mT":14953,"yuk":14954,"st_list":14955,"ener":14956,"miny":14957,"ession":14958,"2719":14959,"max_number":14960,"newy":14961,"next_dest":14962,"uf1":14963,"21011":14964,"route_list":14965,"manzoku":14966,"を見つける":14967,"base_10_to_n_without":14968,"MakeDivisors":14969,"networkx":14970,"('>')":14971,"delitem":14972,"base_10_to_n_without_0":14973,"7E":14974,"_E":14975,"bR":14976,"uma":14977,"の初期化":14978,"･)":14979,"inde":14980,"(\"...":14981,"count_w":14982,"tmp_n":14983,"5419":14984,"3699":14985,"2917":14986,"orem":14987,"sub_list":14988,"news":14989,"23456":14990,"LEFT":14991,"uf2":14992,"(\"%.":14993,"can_reach":14994,"Vert":14995,"無理な":14996,"9K":14997,"Lmax":14998,"fD":14999,"xD":15000,"にいる":15001,"スライ":15002,"stay":15003,"],(":15004,"3730":15005,"op_cnt":15006,"2137":15007,"211222":15008,"nexty":15009,"806":15010,":]])":15011,"rules":15012,"8787":15013,"LOCK":15014,"................":15015,"ChangeBase":15016,"(･":15017,".／":15018,"4H":15019,"8K":15020,"fV":15021,"mS":15022,"qry":15023,"vB":15024,"に要素x":15025,"の状態":15026,"木を":15027,"separ":15028,"__iter":15029,"5569":15030,"tmp0":15031,"5437":15032,"arrival":15033,"=[],":15034,"diff_y":15035,"337577":15036,"gokei":15037,"list_t":15038,"ALPH":15039,"decessors":15040,"ipartite":15041,"に要素xを追加":15042,"__iter__":15043,"026":15044,"097":15045,"6H":15046,"8D":15047,"=+":15048,"fuel":15049,"lC":15050,"lP":15051,"mI":15052,"rH":15053,"rlt":15054,"vN":15055,"算出":15056,"len_a":15057,"7765":15058,"hei":15059,"exclude":15060,"3877":15061,"21233":15062,"A_dict":15063,"33332":15064,"Default":15065,"NEXT":15066,"devide":15067,"action_":15068,"4E":15069,"9V":15070,"R_list":15071,"cI":15072,"lF":15073,"いける":15074,"一度":15075,"ranges":15076,"maxX":15077,"think":15078,"1297":15079,"1231":15080,"111012":15081,"islice":15082,"1811":15083,"5939":15084,"tako":15085,"nyu":15086,"classmethod":15087,"l_2":15088,"373533":15089,"Pow":15090,"8998":15091,"のときも":15092,"trial_division":15093,"標準入力を配列":15094,"標準入力を配列として読み込み":15095,"1は":15096,"8J":15097,"aO":15098,"fE":15099,"kB":15100,"その最小値を出力":15101,"の処理":15102,"プラス":15103,"準備":15104,"inlis":15105,"1057":15106,"1027":15107,"77877":15108,"1877":15109,"),'":15110,"temp_ans":15111,"array1":15112,"is_kaibun":15113,"34434":15114,"lrs":15115,"ans_li":15116,"get_value":15117,"1e6":15118,"までの最":15119,"最小値を":15120,"ESTIV":15121,"Four":15122,"\">\":":15123,"から最小値を削除":15124,"-%":15125,"fU":15126,"hate":15127,"lE":15128,"occ":15129,"rX":15130,"を選ぶ":15131,"差分":15132,"得点":15133,"ford":15134,"line_":15135,"pymain":15136,"4057":15137,"flug":15138,"new_A":15139,"next_point":15140,"even_list":15141,"A_plus":15142,"compar":15143,"ties":15144,"jibun":15145,"\")]*(":15146,"cycles":15147,"guchi":15148,"sample_file":15149,"reachable_from_direct":15150,"改行区切り":15151,"reachable_to_direct":15152,"satisfi":15153,"needed":15154,"ESTIVAL":15155,"5P":15156,"7s":15157,"Clist":15158,"VAL":15159,"_out":15160,"adic":15161,"hB":15162,"iZ":15163,"nny":15164,"oX":15165,"oZ":15166,"q_num":15167,"xT":15168,"yQ":15169,"かった":15170,"だから":15171,"コピ":15172,"フロ":15173,"マッチ":15174,"inint":15175,"magi":15176,"list0":15177,"1031":15178,"3709":15179,"1907":15180,"2059":15181,"graph2":15182,"していない":15183,"リストaの":15184,"73357":15185,"questions":15186,"最初に":15187,"作成可能":15188,"Rmin":15189,"eY":15190,"jD":15191,"tH":15192,"tW":15193,"かない":15194,"をする":15195,"ポート":15196,"倍数を":15197,"入れて":15198,"orde":15199,"ansB":15200,"])#":15201,"1091":15202,"maxsum":15203,"('*":15204,"535377":15205,"535577":15206,"\":[],":15207,"6667":15208,"dist_list":15209,"262":15210,"max_flow":15211,"796":15212,"a_m":15213,"min_dis":15214,"4649":15215,"={\"":15216,"###############################################################################":15217,"満足度":15218,"67777":15219,"8Z":15220,"Cur":15221,"Lim":15222,"oY":15223,"pes":15224,"tF":15225,"tM":15226,"uF":15227,"ule":15228,"xsum":15229,"作れる":15230,"増える":15231,"inpls":15232,"())*":15233,"len_c":15234,"(\"\"))":15235,"7730":15236,"121222":15237,"53555":15238,"6653":15239,"1733":15240,"fast_":15241,"dic_":15242,"686":15243,"っていない":15244,"cnt_r":15245,"ようにする":15246,"Modu":15247,"convex":15248,"ごとに分ける":15249,"furthest":15250,"4D":15251,"8X":15252,"9a":15253,"hop":15254,"imax":15255,"i桁目":15256,"mU":15257,"n以上の最小":15258,"pO":15259,"sR":15260,"vS":15261,"53535":15262,"tempy":15263,"now_num":15264,"2699":15265,"max_2":15266,"a_k":15267,"1519":15268,"cumsum_":15269,"divisible":15270,"355377":15271,"MAX_A":15272,"[],[],[]":15273,"kukan":15274,"PRIME":15275,"rotation":15276,"複数文字":15277,"入れよう":15278,"マイナスにして":15279,"020":15280,"bM":15281,"fS":15282,"tur":15283,"vA":15284,"wN":15285,"始める":15286,"来る":15287,"printlist":15288,"())[::-":15289,"3253":15290,"absolute":15291,"2477":15292,"73553":15293,"''):":15294,"a_idx":15295,"checking":15296,"odd_list":15297,"34454":15298,"p_x":15299,"IntLog":15300,"Integer":15301,"ch_col":15302,"2x":15303,"6T":15304,"7H":15305,"7000":15306,"LAR":15307,"Whole":15308,"ez":15309,"fT":15310,"kG":15311,"kT":15312,"mx_":15313,"}{:":15314,"プロ":15315,"他のときも":15316,"ansC":15317,"3300":15318,"3727":15319,"2837":15320,"886":15321,"y_2":15322,"ans_temp":15323,"どうように":15324,"refle":15325,"スペースごとに分ける":15326,"bubbleSort":15327,"****************":15328,"anstmp":15329,"nagasa":15330,"listをスペースごとに分ける":15331,"Defaults":15332,"他のときもどうように":15333,"他のときもどうように作成可能":15334,"5z":15335,"Bの":15336,"PAR":15337,"Wg":15338,"bC":15339,"bS":15340,"sK":15341,"vG":15342,"yK":15343,"yok":15344,"さん":15345,"リー":15346,"ini_":15347,"):])":15348,"1021":15349,"1201":15350,"11110":15351,"1653":15352,"2457":15353,"872":15354,"framod":15355,"sub1":15356,"p_min":15357,"margin":15358,"とすると":15359,"RIGHT":15360,"binarySearch":15361,"(','))":15362,"#=":15363,"1番目":15364,"5w":15365,"9z":15366,"={}\".":15367,"Pol":15368,"SCO":15369,"YM":15370,"[~":15371,"_heap":15372,"_price":15373,"gran":15374,"iE":15375,"vim":15376,"()#":15377,"al_best_":15378,"121112":15379,"health":15380,"22211":15381,"1637":15382,"ch_r":15383,"indow":15384,"1417":15385,"pos_list":15386,"794":15387,"n_l":15388,"7553":15389,"cand2":15390,"processing":15391,"personal_best_":15392,"残りの":15393,"heap化されたリストaに要素xを追加":15394,"is_prime_common":15395,"でやると":15396,"Modulo":15397,"FOR":15398,"['#'":15399,"bnum":15400,"fN":15401,"kg":15402,"kat":15403,"lsum":15404,"uU":15405,"yF":15406,"の子":15407,"めた":15408,"maxV":15409,"555377":15410,"1209":15411,"123322":15412,"2297":15413,"unity":15414,"78766":15415,"contest_":15416,"max_t":15417,"max_ind":15418,"suc":15419,"_act":15420,"odd_c":15421,"goto":15422,"currentframe":15423,"ufos":15424,"III":15425,"={'":15426,"circum":15427,"pre_order":15428,"inputDataList":15429,"__rmul__":15430,"''''''''''''''''''''''''''''''''":15431,"1111111111111111111111111111111111111111111111111111111111111111":15432,"後ろから":15433,"無理なときは":15434,")<<":15435,"4F":15436,"9q":15437,"jG":15438,"oO":15439,"かう":15440,"10111":15441,"1299":15442,"cntr":15443,"3659":15444,"5049":15445,"s_str":15446,"root1":15447,"lengths":15448,"seg_":15449,"ans_lis":15450,"grids":15451,"v_to":15452,"mergesort":15453,"moving":15454,"MXI":15455,"eaten":15456,"取り出すこと":15457,"1を掛けて":15458,"するかも":15459,"Double":15460,"ficient":15461,"k番目の値をxに更新":15462,"リストaのheap化":15463,"0L":15464,"Tar":15465,"ZN":15466,"aE":15467,"dN":15468,"gon":15469,"hS":15470,"oz":15471,"tmax":15472,"uG":15473,"vU":15474,"|(":15475,"に近い":15476,"の先頭":15477,"公約数を":15478,"進数の":15479,"minX":15480,"5657":15481,"2417":15482,"3869":15483,"2633":15484,"2617":15485,"w_i":15486,"add_node":15487,"start_node":15488,"dics":15489,"_blue":15490,"233233":15491,"AND":15492,"last_day":15493,"blues":15494,"Town":15495,"-(-(":15496,"rslt":15497,"エラトステネスの篩":15498,"elapsed_time":15499,"4K":15500,"_stack":15501,"blo":15502,"dsum":15503,"hI":15504,"pM":15505,"tP":15506,"yU":15507,"方から":15508,"相手":15509,"ｙｐ":15510,"ermat":15511,"1159":15512,"sort_":15513,"isOk":15514,"4457":15515,"1859":15516,"]*(-":15517,"6619":15518,"accept":15519,"3079":15520,"2377":15521,"ないｙｐ":15522,"ALD":15523,"in_order":15524,"pushする時に":15525,"log2ないｙｐ":15526,"base_n_to_10":15527,"最大値を取り出す時は":15528,"heap化されたリストaから最小値を削除":15529,"マイナスにして入れよう":15530,"1を掛けて取り出すこと":15531,"pushする時にマイナスにして入れよう":15532,"5X":15533,"845":15534,"_get_":15535,"hbs":15536,"hako":15537,"iO":15538,"nI":15539,"oD":15540,"oK":15541,"oW":15542,"qI":15543,"tR":15544,"uA":15545,"yE":15546,"左に":15547,"li3":15548,"))>":15549,"1179":15550,"6659":15551,"34554":15552,"5689":15553,"2437":15554,"1487":15555,"nearest":15556,"max_e":15557,"4019":15558,"adding":15559,"shif":15560,"2347":15561,"minus_":15562,"list_x":15563,"kaijou":15564,"rule":15565,"unionfind":15566,"train_":15567,"773577":15568,"mojiretu":15569,"multipli":15570,"?????????????":15571,"squares":15572,"pypyでやると":15573,"Multi":15574,"正解するかも":15575,"\"\"\"\"\"\"\"\"":15576,"rolling":15577,"Shorten":15578,"pythonで無理なときは":15579,"pypyでやると正解するかも":15580,"4Z":15581,"6E":15582,"Top":15583,"Word":15584,"iJ":15585,"pG":15586,"rの":15587,"の座標":15588,"増加":15589,"minb":15590,"121012":15591,"dpd":15592,"isdecimal":15593,"buzz":15594,"grap":15595,"a_new":15596,"_amount":15597,"33432":15598,"runrun":15599,"(\",\")":15600,"互いに":15601,"App":15602,"rZ":15603,"総和":15604,"3229":15605,"78878":15606,"3089":15607,"2927":15608,"prime_num":15609,"s_y":15610,"a_L":15611,"invf":15612,".....":15613,"100000000000":15614,"_sums":15615,"73737":15616,"537377":15617,"lights":15618,"LazySegTree_":15619,"battle":15620,"0v":15621,"034":15622,"6P":15623,"7D":15624,"9J":15625,"K_":15626,"Long":15627,"dM":15628,"pc_":15629,"('[":15630,"str_i":15631,"123333":15632,"meg":15633,"3019":15634,"240000":15635,"1709":15636,"2677":15637,"5897":15638,"a_p":15639,"move_count":15640,"prevs":15641,"x_v":15642,"examF":15643,"implement":15644,"連結成分":15645,"-------------------------------------------------------------":15646,"larger":15647,"1415926535897932":15648,"friend":15649,"n以上の最小の2のべき乗":15650,"3w":15651,"5F":15652,"6q":15653,"bList":15654,"jB":15655,"nlst":15656,"sI":15657,"uR":15658,"xF":15659,"}\"":15660,"線分":15661,"orrect":15662,"uth":15663,"ste":15664,"colo":15665,"isok":15666,"acci":15667,"1300":15668,"siki":15669,"s_sorted":15670,"[[(":15671,"construct":15672,"4759":15673,"112344":15674,"comment":15675,"y_v":15676,"sum_e":15677,"54444":15678,"DEV":15679,"1e5":15680,"combinations_with_replacement_count":15681,"constexpr":15682,"33445":15683,"in_nn":15684,"情報を":15685,"^^^^^^^^^^^^^^^^^^^^^^^^^^^^^^^^":15686,"vvvvvvvvvvvvvvvvvvvvvvvvvvvvvvvv":15687,"#...":15688,"8T":15689,"cU":15690,"came":15691,"c_w":15692,"共通":15693,"時刻":15694,"ified":15695,"1053":15696,"1063":15697,"strlist":15698,"resare":15699,"radd":15700,"1833":15701,"acs":15702,"1989":15703,"2089":15704,"2857":15705,"1357":15706,"beaut":15707,"counter2":15708,"flg1":15709,"x_sum":15710,"insert_index":15711,"sousa":15712,"my_index":15713,"selecting":15714,"increase":15715,"u_alp":15716,"update_condition":15717,"セグメント":15718,"3つ":15719,"4l":15720,"4m":15721,"5Q":15722,"8P":15723,"Acum":15724,"aF":15725,"edia":15726,"kF":15727,"lcd":15728,"tpl":15729,"zai":15730,"atk":15731,"1117":15732,"esare":15733,"mod3":15734,"2237":15735,"2879":15736,"xyi":15737,"mix":15738,"45666":15739,"depths":15740,"wiki":15741,"complete":15742,"in_nl":15743,"Digit":15744,"optimize":15745,"たどり着":15746,"priority_":15747,"+',":15748,"2e":15749,"5q":15750,"5s":15751,"_name":15752,"bF":15753,"lnc":15754,"nが":15755,"oH":15756,"pmax":15757,"rO":15758,"rsp":15759,"yY":15760,"つなが":15761,"maxN":15762,"1259":15763,"cnt_s":15764,"3033":15765,"2087":15766,"89876":15767,"5339":15768,"_ball":15769,"min_len":15770,"4637":15771,"ods":15772,"tmp_cnt":15773,"ufo":15774,"73337":15775,"573377":15776,"_board":15777,"33775":15778,"FFFF":15779,"parser":15780,"variance":15781,"Users":15782,"が入る":15783,"nesses":15784,"Raises":15785,"duration":15786,")\",":15787,"+%":15788,"098":15789,"4Y":15790,"7m":15791,"9E":15792,"aab":15793,"fF":15794,"jis":15795,"nfa":15796,"uC":15797,"uP":15798,"xN":15799,"ません":15800,"ーの":15801,"数は":15802,"only_":15803,"')-":15804,"1187":15805,"2459":15806,"5059":15807,"]))*":15808,"]]-=":15809,"5899":15810,"4099":15811,"a_end":15812,"_block":15813,"n_nodes":15814,"337533":15815,"2129":15816,"even_c":15817,"START":15818,"wikip":15819,"切り捨て":15820,"集合の":15821,"iled":15822,"リストのソート":15823,"Multip":15824,"_pattern":15825,"kE":15826,"kQ":15827,"pal":15828,"tB":15829,"uI":15830,"zou":15831,"うる":15832,"合う":15833,"進む":15834,"list_n":15835,"10101":15836,"__radd":15837,"5500":15838,"1857":15839,"2287":15840,"6679":15841,"6689":15842,"1693":15843,"1729":15844,"now_node":15845,"max_even":15846,"211012":15847,"5281":15848,"xyr":15849,"11232":15850,"3517":15851,"socket":15852,"dfk":15853,"とりだ":15854,"isSameGroup":15855,"wikipedia":15856,"__radd__":15857,"2b":15858,"21000":15859,"2101":15860,":]),":15861,"aite":15862,"i個":15863,"lD":15864,"lus":15865,"}+{":15866,"動か":15867,"行き":15868,"maxcount":15869,"5503":15870,"1849":15871,"1847":15872,"as_input":15873,"cur2":15874,"3637":15875,"7037":15876,"1511":15877,"0002":15878,"p_l":15879,"cyc":15880,"55433":15881,"Sieve":15882,"----------------------------------":15883,"nHr":15884,"終わり":15885,"が存在する":15886,"'(":15887,"6C":15888,"6z":15889,"7d":15890,"Bub":15891,"oP":15892,"rfact":15893,"sD":15894,"sinput":15895,"xQ":15896,"uti":15897,"1048":15898,"__i":15899,"__pow__":15900,"123212":15901,"met":15902,"summation":15903,"5659":15904,"2909":15905,"max_r":15906,"max_end":15907,"5770":15908,"doit":15909,"6899":15910,"1000000001":15911,"8655":15912,"bytes":15913,"syu":15914,"リストにして":15915,"negs":15916,"yyy":15917,"overflow":15918,"COST":15919,"````":15920,"prize":15921,"full_":15922,")+\":\"+":15923,"ordered_":15924,"5h":15925,"6D":15926,"6U":15927,"=}')":15928,"hns":15929,"xJ":15930,"yT":15931,"少ない":15932,"774":15933,"fromstring":15934,"6609":15935,"lefts":15936,"1769":15937,"1311":15938,"88877":15939,"lld":15940,"min_factor":15941,"point_":15942,"23321":15943,"3527":15944,"even_max":15945,"[\"+":15946,"ichigo":15947,"タプルリストのソート":15948,"WISE":15949,"二分木検索":15950,"7p":15951,"eQ":15952,"lA":15953,"rG":15954,"sit":15955,"tQ":15956,"wM":15957,"xO":15958,"を調べる":15959,"remaerd":15960,"rou":15961,"maxr":15962,"1269":15963,"123222":15964,"5479":15965,"3853":15966,"up_":15967,"35535":15968,"get_val":15969,"56666":15970,"count_m":15971,"obs":15972,"7535":15973,"recent":15974,"現在地":15975,"'@':":15976,"2K":15977,"3q":15978,"43333":15979,"Bを":15980,"nU":15981,"tN":15982,"zor":15983,"が一":15984,"が大きい":15985,"ファ":15986,"5350":15987,"4443":15988,"88766":15989,"ingle":15990,"76766":15991,"perr":15992,"4799":15993,"557537":15994,"112232":15995,"112212":15996,"lcms":15997,"lastx":15998,"23455":15999,"入力は":16000,"557377":16001,"bonacci":16002,"ここまで":16003,"#----------------------------------------------------------------":16004,"2次元配列":16005,"2000000000":16006,"RSR":16007,"fru":16008,"q_idx":16009,"wU":16010,"。。":16011,"けた":16012,"printed":16013,"1093":16014,"77878":16015,"!='":16016,"573333":16017,"575377":16018,"3217":16019,"keiro":16020,"ch2":16021,"flower":16022,"2957":16023,"577533":16024,"4357":16025,"new_l":16026,"current_time":16027,"digit_sum":16028,"773533":16029,"have_":16030,"ticket":16031,"']]":16032,"5E":16033,"65555":16034,"7Z":16035,"8V":16036,"9S":16037,"And":16038,"Hig":16039,"bE":16040,"eW":16041,"kC":16042,"oE":16043,"rP":16044,"sumv":16045,"4409":16046,"1679":16047,"1451":16048,"735577":16049,"findSet":16050,"2789":16051,"3137":16052,"y_dict":16053,"facs":16054,"A_sort":16055,"_tate":16056,"6299":16057,"w2i":16058,"1000000000000000":16059,"connected_":16060,"$$":16061,"5C":16062,"6J":16063,"8z":16064,"9l":16065,"Hos":16066,"[\"#\"":16067,"_or":16068,"gcm":16069,"srt":16070,"uM":16071,"えた":16072,"に属":16073,"定理":16074,"itnesses":16075,"123232":16076,"dpc":16077,"resize":16078,"4447":16079,"735377":16080,"w_num":16081,"4079":16082,"_num1":16083,"c_h":16084,"new_cost":16085,"passen":16086,"get_primes":16087,"8527":16088,"nonzero":16089,"iterables":16090,"5R":16091,"7F":16092,"May":16093,"rT":16094,"を取り出す":16095,"有向グラフ":16096,"金額":16097,"1219":16098,"3469":16099,"edge2":16100,"a_dic":16101,"rire":16102,"newS":16103,"r_int":16104,"my_list":16105,"orial":16106,"waiting":16107,"basic":16108,"cookie":16109,"順番に":16110,"EulerTour":16111,"register":16112,"2の":16113,"5T":16114,"7P":16115,"8l":16116,"9G":16117,"RBG":16118,"bD":16119,"bG":16120,"bcount":16121,"crr":16122,"oM":16123,"pI":16124,"pai":16125,"uB":16126,"くん":16127,"の大小":16128,"回の":16129,"消す":16130,"])]=":16131,"1067":16132,"1629":16133,"max_odd":16134,"prime_number":16135,"_bottom":16136,"min_l":16137,"4259":16138,"YESNO":16139,"n_sum":16140,"084":16141,"seg_func":16142,"6199":16143,"get_ints":16144,"zyun":16145,"file_input":16146,"553377":16147,"#######":16148,"の2個":16149,"getRootID":16150,"LOCKWISE":16151,"014":16152,"8q":16153,"NAB":16154,"iV":16155,"rsum":16156,"に到達":16157,"対応":16158,"行目":16159,"1260":16160,"res_sum":16161,"es_vwise":16162,"4049":16163,"7053":16164,"lasty":16165,"8400":16166,"t_min":16167,"55455":16168,"隣接行列":16169,"コピー":16170,"*;":16171,"046":16172,"4W":16173,"7X":16174,"]>>":16175,"_state":16176,"jC":16177,"mmax":16178,"xE":16179,"ャル":16180,"角形":16181,"))#":16182,"ablist":16183,"99878":16184,"ulation":16185,"sorted_A":16186,"fav":16187,"735555":16188,"5829":16189,"comb_list":16190,"7079":16191,"694":16192,"pows":16193,"bit全探索":16194,"x_root":16195,"r_index":16196,"csr":16197,"5299":16198,"8599":16199,"non_prime":16200,"takasa":16201,"explor":16202,"ceil_pow2":16203,"*[":16204,"-\":":16205,"43232":16206,"5U":16207,"6G":16208,"6R":16209,"6l":16210,"9s":16211,"Alp":16212,"hal":16213,"n_w":16214,"pdb":16215,"rJ":16216,"uD":16217,"ずれ":16218,"出る":16219,"input_c":16220,"usage":16221,"left2":16222,"6869":16223,"newA":16224,"input_l":16225,"2003":16226,"323434":16227,"tasu":16228,"(\"#\"+":16229,"LAST":16230,"Callable":16231,"priority_queue":16232,"とりだせる":16233,",:":16234,"2f":16235,"4P":16236,"45555":16237,"8R":16238,"NOD":16239,"cup":16240,"ckets":16241,"jの":16242,"kR":16243,"lB":16244,"にできる":16245,"をか":16246,"動小数点":16247,"変わ":16248,"段目":16249,"都市":16250,"1177":16251,"1139":16252,"5407":16253,"2177":16254,"s_new":16255,"\".\")":16256,"%=(":16257,"comfort":16258,"233234":16259,"233444":16260,"y_root":16261,"coloring":16262,"5237":16263,")**.":16264,"to_h":16265,"to_node":16266,"66678":16267,"78988":16268,"using_":16269,"PYDEV":16270,"文字列の":16271,"now_point":16272,"switches":16273,"数値リストにして":16274,"matrix_":16275,"読み込んで数値リストにして":16276,"Takahashi":16277,"energy":16278,"読み込んで数値リストにして返します":16279,"([],":16280,".\"":16281,"6w":16282,"7n":16283,"Brown":16284,"Din":16285,"L_max":16286,"_W":16287,"jU":16288,"kal":16289,"変える":16290,"早い":16291,"浮動小数点":16292,"enou":16293,"coun":16294,"][:-":16295,"minsum":16296,"535733":16297,"mod0":16298,"5417":16299,"3829":16300,"verbo":16301,"1747":16302,"rights":16303,"reverse_":16304,"possi":16305,"binomi":16306,"804":16307,"43444":16308,"is_even":16309,"353577":16310,"2519":16311,"last_num":16312,"STC":16313,"b_idx":16314,":]).":16315,"S_len":16316,"573733":16317,"kyu":16318,"8765":16319,"={},":16320,"OWN":16321,"linked_list":16322,"で最大の2個":16323,"とりだせるお":16324,"verbose":16325,"で最大の2個とりだせるお":16326,"3P":16327,"6K":16328,"ILI":16329,"_dis":16330,"iG":16331,"ker":16332,"pur":16333,"rL":16334,"rR":16335,"x10":16336,"の部分":16337,"inpll":16338,"1088":16339,"1181":16340,"2223":16341,"54334":16342,"]==[":16343,"1717":16344,"1433":16345,"7030":16346,"557337":16347,"233455":16348,"())))[::-":16349,"720000":16350,"323334":16351,"hihihi":16352,"hattan":16353,"ALDS1":16354,"0123456789":16355,"9n":16356,"Nlist":16357,"_P":16358,"bing":16359,"jS":16360,"rres":16361,"maxHeap":16362,"lowest_":16363,"tmpb":16364,"66766":16365,"left_count":16366,"]=((":16367,"2887":16368,"1481":16369,"2621":16370,"a_j":16371,"a_lis":16372,"min_t":16373,"6857":16374,"2339":16375,"5009":16376,"t_index":16377,"maketrans":16378,"Inter":16379,"uben":16380,"78989":16381,"city_list":16382,"+\"=":16383,"original_":16384,"回数上限":16385,"convolve":16386,"hnson":16387,"43212":16388,"9P":16389,"kL":16390,"yJ":16391,"を行":16392,"内包":16393,"inplm":16394,"))<":16395,"122344":16396,"1899":16397,"1677":16398,"2419":16399,"3847":16400,"5024":16401,"temp3":16402,"s_t":16403,"5779":16404,"a_abs":16405,"is_reverse":16406,"4299":16407,"085":16408,"airs":16409,"base64":16410,"ascii_letters":16411,"同じ集合に属する":16412,"数値入力":16413,"を取得する":16414,"drop_":16415,"SCORE":16416,"']):":16417,"021":16418,"3K":16419,"3i":16420,"4J":16421,"_Y":16422,"every":16423,"tD":16424,"が偶数":16425,"にも":16426,"取って":16427,"走査":16428,"__push":16429,"110000":16430,"ch_c":16431,"3677":16432,"dist_v":16433,"2647":16434,"7699":16435,"6029":16436,"next_num":16437,"4027":16438,"a_minus":16439,"8039":16440,"places":16441,"bitree":16442,"357577":16443,"div_list":16444,"_text":16445,"cube":16446,"33222":16447,"_for_":16448,"grade":16449,"KIHAB":16450,"container":16451,"selectionSort":16452,"sticks":16453,")\\":16454,"3J":16455,"5d":16456,"8h":16457,"9c":16458,"Blist":16459,
[...]
